{
  "version": "1.0",
  "truncation": null,
  "padding": null,
  "added_tokens": [
    {
      "id": 0,
      "content": "[UNK]",
      "single_word": false,
      "lstrip": false,
      "rstrip": false,
      "normalized": false,
      "special": true
    },
    {
      "id": 1,
      "content": "[PAD]",
      "single_word": false,
      "lstrip": false,
      "rstrip": false,
      "normalized": false,
      "special": true
    },
    {
      "id": 2,
      "content": "[BOS]",
      "single_word": false,
      "lstrip": false,
      "rstrip": false,
      "normalized": false,
      "special": true
    },
    {
      "id": 3,
      "content": "[EOS]",
      "single_word": false,
      "lstrip": false,
      "rstrip": false,
      "normalized": false,
      "special": true
    }
  ],
  "normalizer": null,
  "pre_tokenizer": {
    "type": "Whitespace"
  },
  "post_processor": null,
  "decoder": null,
  "model": {
    "type": "BPE",
    "dropout": null,
    "unk_token": "[UNK]",
    "continuing_subword_prefix": null,
    "end_of_word_suffix": null,
    "fuse_unk": false,
    "byte_fallback": false,
    "ignore_merges": false,
    "vocab": {
      "[UNK]": 0,
      "[PAD]": 1,
      "[BOS]": 2,
      "[EOS]": 3,
      "!": 4,
      "\"": 5,
      "#": 6,
      "$": 7,
      "%": 8,
      "&": 9,
      "'": 10,
      "(": 11,
      ")": 12,
      "*": 13,
      "+": 14,
      ",": 15,
      "-": 16,
      ".": 17,
      "/": 18,
      "0": 19,
      "1": 20,
      "2": 21,
      "3": 22,
      "4": 23,
      "5": 24,
      "6": 25,
      "7": 26,
      "8": 27,
      "9": 28,
      ":": 29,
      ";": 30,
      "<": 31,
      "=": 32,
      ">": 33,
      "?": 34,
      "@": 35,
      "A": 36,
      "B": 37,
      "C": 38,
      "D": 39,
      "E": 40,
      "F": 41,
      "G": 42,
      "H": 43,
      "I": 44,
      "J": 45,
      "K": 46,
      "L": 47,
      "M": 48,
      "N": 49,
      "O": 50,
      "P": 51,
      "Q": 52,
      "R": 53,
      "S": 54,
      "T": 55,
      "U": 56,
      "V": 57,
      "W": 58,
      "X": 59,
      "Y": 60,
      "Z": 61,
      "[": 62,
      "\\": 63,
      "]": 64,
      "^": 65,
      "_": 66,
      "`": 67,
      "a": 68,
      "b": 69,
      "c": 70,
      "d": 71,
      "e": 72,
      "f": 73,
      "g": 74,
      "h": 75,
      "i": 76,
      "j": 77,
      "k": 78,
      "l": 79,
      "m": 80,
      "n": 81,
      "o": 82,
      "p": 83,
      "q": 84,
      "r": 85,
      "s": 86,
      "t": 87,
      "u": 88,
      "v": 89,
      "w": 90,
      "x": 91,
      "y": 92,
      "z": 93,
      "{": 94,
      "|": 95,
      "}": 96,
      "~": 97,
      "": 98,
      "¡": 99,
      "¢": 100,
      "£": 101,
      "¥": 102,
      "§": 103,
      "¨": 104,
      "©": 105,
      "«": 106,
      "¬": 107,
      "­": 108,
      "®": 109,
      "°": 110,
      "±": 111,
      "²": 112,
      "³": 113,
      "´": 114,
      "µ": 115,
      "¶": 116,
      "·": 117,
      "¹": 118,
      "º": 119,
      "»": 120,
      "¼": 121,
      "½": 122,
      "¾": 123,
      "¿": 124,
      "À": 125,
      "Á": 126,
      "Â": 127,
      "Ã": 128,
      "Ä": 129,
      "Å": 130,
      "Æ": 131,
      "Ç": 132,
      "È": 133,
      "É": 134,
      "Ê": 135,
      "Ë": 136,
      "Í": 137,
      "Î": 138,
      "Ð": 139,
      "Ñ": 140,
      "Ò": 141,
      "Ó": 142,
      "Õ": 143,
      "Ö": 144,
      "×": 145,
      "Ø": 146,
      "Ú": 147,
      "Ü": 148,
      "Þ": 149,
      "ß": 150,
      "à": 151,
      "á": 152,
      "â": 153,
      "ã": 154,
      "ä": 155,
      "å": 156,
      "æ": 157,
      "ç": 158,
      "è": 159,
      "é": 160,
      "ê": 161,
      "ë": 162,
      "ì": 163,
      "í": 164,
      "î": 165,
      "ï": 166,
      "ð": 167,
      "ñ": 168,
      "ò": 169,
      "ó": 170,
      "ô": 171,
      "õ": 172,
      "ö": 173,
      "÷": 174,
      "ø": 175,
      "ù": 176,
      "ú": 177,
      "û": 178,
      "ü": 179,
      "ý": 180,
      "þ": 181,
      "ÿ": 182,
      "Ā": 183,
      "ā": 184,
      "ă": 185,
      "Ą": 186,
      "ą": 187,
      "Ć": 188,
      "ć": 189,
      "Ĉ": 190,
      "ĉ": 191,
      "Č": 192,
      "č": 193,
      "Ď": 194,
      "ď": 195,
      "Đ": 196,
      "đ": 197,
      "Ē": 198,
      "ē": 199,
      "Ĕ": 200,
      "ĕ": 201,
      "Ė": 202,
      "ė": 203,
      "Ę": 204,
      "ę": 205,
      "Ě": 206,
      "ě": 207,
      "Ĝ": 208,
      "ĝ": 209,
      "Ğ": 210,
      "ğ": 211,
      "Ġ": 212,
      "ġ": 213,
      "ģ": 214,
      "Ĥ": 215,
      "ĥ": 216,
      "Ħ": 217,
      "ħ": 218,
      "Ĩ": 219,
      "ĩ": 220,
      "Ī": 221,
      "ī": 222,
      "ĭ": 223,
      "į": 224,
      "İ": 225,
      "ı": 226,
      "Ĵ": 227,
      "ĵ": 228,
      "Ķ": 229,
      "ķ": 230,
      "ĸ": 231,
      "Ľ": 232,
      "ľ": 233,
      "Ł": 234,
      "ł": 235,
      "Ń": 236,
      "ń": 237,
      "ņ": 238,
      "ň": 239,
      "ŋ": 240,
      "Ō": 241,
      "ō": 242,
      "ŏ": 243,
      "Ő": 244,
      "ő": 245,
      "Œ": 246,
      "œ": 247,
      "ŕ": 248,
      "ŗ": 249,
      "Ř": 250,
      "ř": 251,
      "Ś": 252,
      "ś": 253,
      "Ŝ": 254,
      "ŝ": 255,
      "Ş": 256,
      "ş": 257,
      "Š": 258,
      "š": 259,
      "Ţ": 260,
      "ţ": 261,
      "ť": 262,
      "Ũ": 263,
      "ũ": 264,
      "ū": 265,
      "Ŭ": 266,
      "ŭ": 267,
      "ů": 268,
      "ű": 269,
      "ų": 270,
      "ŵ": 271,
      "Ź": 272,
      "ź": 273,
      "Ż": 274,
      "ż": 275,
      "Ž": 276,
      "ž": 277,
      "ſ": 278,
      "Ƅ": 279,
      "Ɔ": 280,
      "Ə": 281,
      "ƒ": 282,
      "ơ": 283,
      "ư": 284,
      "ǂ": 285,
      "ǎ": 286,
      "ǐ": 287,
      "ǒ": 288,
      "ǔ": 289,
      "ǚ": 290,
      "Ǧ": 291,
      "ǧ": 292,
      "ǫ": 293,
      "ǰ": 294,
      "Ș": 295,
      "ș": 296,
      "Ț": 297,
      "ț": 298,
      "Ȝ": 299,
      "ȝ": 300,
      "Ȧ": 301,
      "ȧ": 302,
      "ɐ": 303,
      "ɑ": 304,
      "ɒ": 305,
      "ɔ": 306,
      "ɕ": 307,
      "ə": 308,
      "ɚ": 309,
      "ɛ": 310,
      "ɜ": 311,
      "ɝ": 312,
      "ɡ": 313,
      "ɣ": 314,
      "ɤ": 315,
      "ɦ": 316,
      "ɨ": 317,
      "ɪ": 318,
      "ɫ": 319,
      "ɮ": 320,
      "ɯ": 321,
      "ɲ": 322,
      "ɸ": 323,
      "ɹ": 324,
      "ɺ": 325,
      "ɾ": 326,
      "ʁ": 327,
      "ʃ": 328,
      "ʊ": 329,
      "ʋ": 330,
      "ʌ": 331,
      "ʏ": 332,
      "ʒ": 333,
      "ʔ": 334,
      "ʘ": 335,
      "ʙ": 336,
      "ʦ": 337,
      "ʰ": 338,
      "ʲ": 339,
      "ʷ": 340,
      "ʸ": 341,
      "ʻ": 342,
      "ʼ": 343,
      "ʽ": 344,
      "ʾ": 345,
      "ʿ": 346,
      "ˇ": 347,
      "ˈ": 348,
      "ˊ": 349,
      "ˋ": 350,
      "ˌ": 351,
      "ː": 352,
      "˚": 353,
      "˜": 354,
      "ˢ": 355,
      "ˣ": 356,
      "ˤ": 357,
      "˥": 358,
      "˧": 359,
      "˩": 360,
      "˹": 361,
      "˺": 362,
      "́": 363,
      "̃": 364,
      "̆": 365,
      "̈": 366,
      "̎": 367,
      "̞": 368,
      "̥": 369,
      "̩": 370,
      "̪": 371,
      "̯": 372,
      "͡": 373,
      "ͤ": 374,
      "Ά": 375,
      "Ή": 376,
      "Α": 377,
      "Β": 378,
      "Γ": 379,
      "Δ": 380,
      "Ε": 381,
      "Ζ": 382,
      "Η": 383,
      "Θ": 384,
      "Ι": 385,
      "Κ": 386,
      "Λ": 387,
      "Μ": 388,
      "Ν": 389,
      "Ξ": 390,
      "Ο": 391,
      "Π": 392,
      "Ρ": 393,
      "Σ": 394,
      "Τ": 395,
      "Υ": 396,
      "Φ": 397,
      "Χ": 398,
      "Ψ": 399,
      "Ω": 400,
      "ά": 401,
      "έ": 402,
      "ή": 403,
      "ί": 404,
      "α": 405,
      "β": 406,
      "γ": 407,
      "δ": 408,
      "ε": 409,
      "ζ": 410,
      "η": 411,
      "θ": 412,
      "ι": 413,
      "κ": 414,
      "λ": 415,
      "μ": 416,
      "ν": 417,
      "ξ": 418,
      "ο": 419,
      "π": 420,
      "ρ": 421,
      "ς": 422,
      "σ": 423,
      "τ": 424,
      "υ": 425,
      "φ": 426,
      "χ": 427,
      "ψ": 428,
      "ω": 429,
      "ό": 430,
      "ύ": 431,
      "ώ": 432,
      "Ё": 433,
      "І": 434,
      "А": 435,
      "Б": 436,
      "В": 437,
      "Г": 438,
      "Д": 439,
      "Е": 440,
      "Ж": 441,
      "З": 442,
      "И": 443,
      "Й": 444,
      "К": 445,
      "Л": 446,
      "М": 447,
      "Н": 448,
      "О": 449,
      "П": 450,
      "Р": 451,
      "С": 452,
      "Т": 453,
      "У": 454,
      "Ф": 455,
      "Х": 456,
      "Ц": 457,
      "Ч": 458,
      "Ш": 459,
      "Щ": 460,
      "Ъ": 461,
      "Ы": 462,
      "Ь": 463,
      "Э": 464,
      "Ю": 465,
      "Я": 466,
      "а": 467,
      "б": 468,
      "в": 469,
      "г": 470,
      "д": 471,
      "е": 472,
      "ж": 473,
      "з": 474,
      "и": 475,
      "й": 476,
      "к": 477,
      "л": 478,
      "м": 479,
      "н": 480,
      "о": 481,
      "п": 482,
      "р": 483,
      "с": 484,
      "т": 485,
      "у": 486,
      "ф": 487,
      "х": 488,
      "ц": 489,
      "ч": 490,
      "ш": 491,
      "ъ": 492,
      "ы": 493,
      "ь": 494,
      "э": 495,
      "ю": 496,
      "я": 497,
      "ё": 498,
      "є": 499,
      "і": 500,
      "ї": 501,
      "ј": 502,
      "љ": 503,
      "ћ": 504,
      "Ѣ": 505,
      "ѣ": 506,
      "Ѧ": 507,
      "ѧ": 508,
      "Ѳ": 509,
      "ѳ": 510,
      "Ѵ": 511,
      "ѵ": 512,
      "ѹ": 513,
      "Ґ": 514,
      "ґ": 515,
      "Җ": 516,
      "Қ": 517,
      "қ": 518,
      "Ң": 519,
      "ң": 520,
      "Ү": 521,
      "ү": 522,
      "Һ": 523,
      "Ә": 524,
      "Ө": 525,
      "ө": 526,
      "Ա": 527,
      "Բ": 528,
      "Գ": 529,
      "Դ": 530,
      "Ե": 531,
      "Զ": 532,
      "Է": 533,
      "Ը": 534,
      "Թ": 535,
      "Ժ": 536,
      "Ի": 537,
      "Լ": 538,
      "Խ": 539,
      "Ծ": 540,
      "Կ": 541,
      "Հ": 542,
      "Ձ": 543,
      "Ղ": 544,
      "Ճ": 545,
      "Մ": 546,
      "Յ": 547,
      "Ն": 548,
      "Շ": 549,
      "Ո": 550,
      "Չ": 551,
      "Պ": 552,
      "Ջ": 553,
      "Ռ": 554,
      "Ս": 555,
      "Վ": 556,
      "Տ": 557,
      "Ր": 558,
      "Ց": 559,
      "Ւ": 560,
      "Փ": 561,
      "Ք": 562,
      "Օ": 563,
      "Ֆ": 564,
      "ա": 565,
      "բ": 566,
      "գ": 567,
      "դ": 568,
      "ե": 569,
      "զ": 570,
      "է": 571,
      "թ": 572,
      "ի": 573,
      "լ": 574,
      "խ": 575,
      "ծ": 576,
      "կ": 577,
      "հ": 578,
      "ձ": 579,
      "ղ": 580,
      "ճ": 581,
      "մ": 582,
      "յ": 583,
      "ն": 584,
      "ո": 585,
      "չ": 586,
      "պ": 587,
      "ջ": 588,
      "ռ": 589,
      "ս": 590,
      "վ": 591,
      "տ": 592,
      "ր": 593,
      "ց": 594,
      "ւ": 595,
      "փ": 596,
      "ք": 597,
      "օ": 598,
      "և": 599,
      "ֲ": 600,
      "ִ": 601,
      "ֵ": 602,
      "ַ": 603,
      "ָ": 604,
      "ּ": 605,
      "א": 606,
      "ב": 607,
      "ג": 608,
      "ד": 609,
      "ה": 610,
      "ו": 611,
      "ז": 612,
      "ח": 613,
      "ט": 614,
      "י": 615,
      "כ": 616,
      "ל": 617,
      "ם": 618,
      "מ": 619,
      "ן": 620,
      "נ": 621,
      "ס": 622,
      "ע": 623,
      "פ": 624,
      "צ": 625,
      "ק": 626,
      "ר": 627,
      "ש": 628,
      "ת": 629,
      "ء": 630,
      "آ": 631,
      "أ": 632,
      "ؤ": 633,
      "إ": 634,
      "ئ": 635,
      "ا": 636,
      "ب": 637,
      "ة": 638,
      "ت": 639,
      "ث": 640,
      "ج": 641,
      "ح": 642,
      "خ": 643,
      "د": 644,
      "ذ": 645,
      "ر": 646,
      "ز": 647,
      "س": 648,
      "ش": 649,
      "ص": 650,
      "ض": 651,
      "ط": 652,
      "ظ": 653,
      "ع": 654,
      "غ": 655,
      "ؿ": 656,
      "ـ": 657,
      "ف": 658,
      "ق": 659,
      "ك": 660,
      "ل": 661,
      "م": 662,
      "ن": 663,
      "ه": 664,
      "و": 665,
      "ى": 666,
      "ي": 667,
      "ً": 668,
      "ٍ": 669,
      "َ": 670,
      "ُ": 671,
      "ِ": 672,
      "ّ": 673,
      "ْ": 674,
      "ٓ": 675,
      "١": 676,
      "٢": 677,
      "٤": 678,
      "٥": 679,
      "٦": 680,
      "٧": 681,
      "٨": 682,
      "٩": 683,
      "ٰ": 684,
      "ٱ": 685,
      "ٹ": 686,
      "پ": 687,
      "چ": 688,
      "ڈ": 689,
      "ڑ": 690,
      "ژ": 691,
      "ڤ": 692,
      "ک": 693,
      "ڬ": 694,
      "گ": 695,
      "ھ": 696,
      "ہ": 697,
      "ی": 698,
      "ێ": 699,
      "ۚ": 700,
      "۟": 701,
      "ۢ": 702,
      "ۥ": 703,
      "ܐ": 704,
      "ܒ": 705,
      "ܓ": 706,
      "ܕ": 707,
      "ܗ": 708,
      "ܘ": 709,
      "ܙ": 710,
      "ܚ": 711,
      "ܛ": 712,
      "ܝ": 713,
      "ܟ": 714,
      "ܠ": 715,
      "ܡ": 716,
      "ܢ": 717,
      "ܣ": 718,
      "ܥ": 719,
      "ܦ": 720,
      "ܨ": 721,
      "ܩ": 722,
      "ܪ": 723,
      "ܫ": 724,
      "ܬ": 725,
      "މ": 726,
      "ލ": 727,
      "ާ": 728,
      "ެ": 729,
      "ߊ": 730,
      "ߌ": 731,
      "ߏ": 732,
      "ߖ": 733,
      "ߛ": 734,
      "ߝ": 735,
      "ߞ": 736,
      "ߟ": 737,
      "ߡ": 738,
      "ߣ": 739,
      "ं": 740,
      "ः": 741,
      "अ": 742,
      "आ": 743,
      "इ": 744,
      "ई": 745,
      "उ": 746,
      "क": 747,
      "ख": 748,
      "ग": 749,
      "च": 750,
      "ज": 751,
      "ठ": 752,
      "ड": 753,
      "ण": 754,
      "त": 755,
      "थ": 756,
      "द": 757,
      "ध": 758,
      "न": 759,
      "प": 760,
      "फ": 761,
      "ब": 762,
      "भ": 763,
      "म": 764,
      "य": 765,
      "र": 766,
      "ल": 767,
      "ळ": 768,
      "व": 769,
      "श": 770,
      "ष": 771,
      "स": 772,
      "ह": 773,
      "़": 774,
      "ा": 775,
      "ि": 776,
      "ी": 777,
      "ु": 778,
      "ू": 779,
      "ृ": 780,
      "े": 781,
      "ो": 782,
      "्": 783,
      "।": 784,
      "ঁ": 785,
      "ং": 786,
      "ঃ": 787,
      "অ": 788,
      "আ": 789,
      "ই": 790,
      "ঈ": 791,
      "উ": 792,
      "ঊ": 793,
      "ঋ": 794,
      "এ": 795,
      "ঐ": 796,
      "ও": 797,
      "ঔ": 798,
      "ক": 799,
      "খ": 800,
      "গ": 801,
      "ঘ": 802,
      "ঙ": 803,
      "চ": 804,
      "ছ": 805,
      "জ": 806,
      "ঝ": 807,
      "ঞ": 808,
      "ট": 809,
      "ঠ": 810,
      "ড": 811,
      "ঢ": 812,
      "ণ": 813,
      "ত": 814,
      "থ": 815,
      "দ": 816,
      "ধ": 817,
      "ন": 818,
      "প": 819,
      "ফ": 820,
      "ব": 821,
      "ভ": 822,
      "ম": 823,
      "য": 824,
      "র": 825,
      "ল": 826,
      "শ": 827,
      "ষ": 828,
      "স": 829,
      "হ": 830,
      "়": 831,
      "া": 832,
      "ি": 833,
      "ী": 834,
      "ু": 835,
      "ে": 836,
      "ো": 837,
      "্": 838,
      "ৎ": 839,
      "ৰ": 840,
      "ৱ": 841,
      "৳": 842,
      "ਘ": 843,
      "ਚ": 844,
      "ਨ": 845,
      "ਮ": 846,
      "ਸ": 847,
      "ਹ": 848,
      "ਾ": 849,
      "ਿ": 850,
      "ੀ": 851,
      "ੋ": 852,
      "ੰ": 853,
      "ஃ": 854,
      "அ": 855,
      "இ": 856,
      "க": 857,
      "ங": 858,
      "ச": 859,
      "ட": 860,
      "ண": 861,
      "த": 862,
      "ப": 863,
      "ம": 864,
      "ய": 865,
      "ர": 866,
      "ற": 867,
      "ல": 868,
      "ள": 869,
      "ழ": 870,
      "வ": 871,
      "ா": 872,
      "ி": 873,
      "ு": 874,
      "ூ": 875,
      "ே": 876,
      "ை": 877,
      "ொ": 878,
      "ோ": 879,
      "்": 880,
      "ం": 881,
      "ః": 882,
      "అ": 883,
      "ఆ": 884,
      "ఇ": 885,
      "ఈ": 886,
      "ఉ": 887,
      "ఊ": 888,
      "ఋ": 889,
      "ఎ": 890,
      "ఏ": 891,
      "ఐ": 892,
      "ఒ": 893,
      "ఓ": 894,
      "ఔ": 895,
      "క": 896,
      "ఖ": 897,
      "గ": 898,
      "ఘ": 899,
      "ఙ": 900,
      "చ": 901,
      "ఛ": 902,
      "జ": 903,
      "ఝ": 904,
      "ఞ": 905,
      "ట": 906,
      "ఠ": 907,
      "డ": 908,
      "ఢ": 909,
      "ణ": 910,
      "త": 911,
      "థ": 912,
      "ద": 913,
      "ధ": 914,
      "న": 915,
      "ప": 916,
      "ఫ": 917,
      "బ": 918,
      "భ": 919,
      "మ": 920,
      "య": 921,
      "ర": 922,
      "ఱ": 923,
      "ల": 924,
      "ళ": 925,
      "వ": 926,
      "శ": 927,
      "ష": 928,
      "స": 929,
      "హ": 930,
      "ా": 931,
      "ి": 932,
      "ీ": 933,
      "్": 934,
      "ౠ": 935,
      "౦": 936,
      "౧": 937,
      "౨": 938,
      "౩": 939,
      "౪": 940,
      "౫": 941,
      "౬": 942,
      "౭": 943,
      "౮": 944,
      "౯": 945,
      "ಟ": 946,
      "ಪ": 947,
      "ಯ": 948,
      "ಲ": 949,
      "ಳ": 950,
      "ಶ": 951,
      "ಸ": 952,
      "ಹ": 953,
      "ಿ": 954,
      "ೆ": 955,
      "ೊ": 956,
      "್": 957,
      "ം": 958,
      "ക": 959,
      "ങ": 960,
      "ച": 961,
      "ന": 962,
      "പ": 963,
      "മ": 964,
      "യ": 965,
      "ര": 966,
      "റ": 967,
      "ല": 968,
      "ള": 969,
      "ാ": 970,
      "ി": 971,
      "ൂ": 972,
      "േ": 973,
      "്": 974,
      "ං": 975,
      "අ": 976,
      "ක": 977,
      "ද": 978,
      "න": 979,
      "ර": 980,
      "ල": 981,
      "ව": 982,
      "ශ": 983,
      "්": 984,
      "ා": 985,
      "ැ": 986,
      "ි": 987,
      "ී": 988,
      "ෝ": 989,
      "ก": 990,
      "ค": 991,
      "ง": 992,
      "จ": 993,
      "ช": 994,
      "ญ": 995,
      "ด": 996,
      "ต": 997,
      "ท": 998,
      "น": 999,
      "บ": 1000,
      "ผ": 1001,
      "พ": 1002,
      "ม": 1003,
      "ย": 1004,
      "ร": 1005,
      "ล": 1006,
      "ว": 1007,
      "ส": 1008,
      "ห": 1009,
      "ะ": 1010,
      "ั": 1011,
      "า": 1012,
      "ำ": 1013,
      "ิ": 1014,
      "ี": 1015,
      "ึ": 1016,
      "ุ": 1017,
      "ู": 1018,
      "เ": 1019,
      "ไ": 1020,
      "้": 1021,
      "๊": 1022,
      "๐": 1023,
      "๑": 1024,
      "๒": 1025,
      "๓": 1026,
      "๔": 1027,
      "๕": 1028,
      "๖": 1029,
      "๗": 1030,
      "๘": 1031,
      "๙": 1032,
      "ດ": 1033,
      "ທ": 1034,
      "ປ": 1035,
      "ລ": 1036,
      "ວ": 1037,
      "ະ": 1038,
      "າ": 1039,
      "ເ": 1040,
      "་": 1041,
      "ཐ": 1042,
      "ཕ": 1043,
      "མ": 1044,
      "ི": 1045,
      "ུ": 1046,
      "က": 1047,
      "ဆ": 1048,
      "ပ": 1049,
      "မ": 1050,
      "ရ": 1051,
      "လ": 1052,
      "သ": 1053,
      "ာ": 1054,
      "ိ": 1055,
      "ု": 1056,
      "ူ": 1057,
      "့": 1058,
      "်": 1059,
      "ြ": 1060,
      "ွ": 1061,
      "Ⴄ": 1062,
      "Ⴕ": 1063,
      "ა": 1064,
      "ბ": 1065,
      "გ": 1066,
      "დ": 1067,
      "ე": 1068,
      "ვ": 1069,
      "ზ": 1070,
      "თ": 1071,
      "ი": 1072,
      "კ": 1073,
      "ლ": 1074,
      "მ": 1075,
      "ნ": 1076,
      "ო": 1077,
      "პ": 1078,
      "ჟ": 1079,
      "რ": 1080,
      "ს": 1081,
      "ტ": 1082,
      "უ": 1083,
      "ფ": 1084,
      "ქ": 1085,
      "ღ": 1086,
      "ყ": 1087,
      "შ": 1088,
      "ჩ": 1089,
      "ც": 1090,
      "ძ": 1091,
      "წ": 1092,
      "ჭ": 1093,
      "ხ": 1094,
      "ჯ": 1095,
      "ჰ": 1096,
      "ሀ": 1097,
      "ለ": 1098,
      "ሐ": 1099,
      "መ": 1100,
      "ሠ": 1101,
      "ረ": 1102,
      "ሰ": 1103,
      "ቀ": 1104,
      "በ": 1105,
      "ተ": 1106,
      "ት": 1107,
      "ኀ": 1108,
      "ነ": 1109,
      "አ": 1110,
      "ኢ": 1111,
      "ከ": 1112,
      "ወ": 1113,
      "ዐ": 1114,
      "ዘ": 1115,
      "የ": 1116,
      "ያ": 1117,
      "ዮ": 1118,
      "ደ": 1119,
      "ገ": 1120,
      "ጠ": 1121,
      "ጰ": 1122,
      "ጵ": 1123,
      "ጸ": 1124,
      "ፀ": 1125,
      "ፈ": 1126,
      "ፐ": 1127,
      "Ꭰ": 1128,
      "Ꭲ": 1129,
      "Ꮒ": 1130,
      "Ꮻ": 1131,
      "Ꮿ": 1132,
      "Ᏼ": 1133,
      "ᐃ": 1134,
      "ᑦ": 1135,
      "ᓗ": 1136,
      "ᖃ": 1137,
      "ᚁ": 1138,
      "ᚂ": 1139,
      "ᚃ": 1140,
      "ᚄ": 1141,
      "ᚅ": 1142,
      "ᚆ": 1143,
      "ᚇ": 1144,
      "ᚈ": 1145,
      "ᚉ": 1146,
      "ᚊ": 1147,
      "ᚋ": 1148,
      "ᚌ": 1149,
      "ᚍ": 1150,
      "ᚎ": 1151,
      "ᚏ": 1152,
      "ᚐ": 1153,
      "ᚑ": 1154,
      "ᚒ": 1155,
      "ᚓ": 1156,
      "ᚔ": 1157,
      "ᚕ": 1158,
      "ᚖ": 1159,
      "ᚗ": 1160,
      "ᚘ": 1161,
      "ᚙ": 1162,
      "ᚚ": 1163,
      "᚛": 1164,
      "᚜": 1165,
      "ᚦ": 1166,
      "ᚨ": 1167,
      "ᚱ": 1168,
      "ᚾ": 1169,
      "ᛟ": 1170,
      "ក": 1171,
      "ខ": 1172,
      "គ": 1173,
      "ង": 1174,
      "ច": 1175,
      "ជ": 1176,
      "ញ": 1177,
      "ណ": 1178,
      "ត": 1179,
      "ទ": 1180,
      "ន": 1181,
      "ប": 1182,
      "ព": 1183,
      "ម": 1184,
      "រ": 1185,
      "ល": 1186,
      "ស": 1187,
      "អ": 1188,
      "ា": 1189,
      "ិ": 1190,
      "ុ": 1191,
      "ៀ": 1192,
      "េ": 1193,
      "ៅ": 1194,
      "ំ": 1195,
      "ះ": 1196,
      "់": 1197,
      "្": 1198,
      "០": 1199,
      "១": 1200,
      "២": 1201,
      "៣": 1202,
      "៤": 1203,
      "៥": 1204,
      "៦": 1205,
      "៧": 1206,
      "៨": 1207,
      "៩": 1208,
      "ᵇ": 1209,
      "ᵉ": 1210,
      "ᵒ": 1211,
      "ᶻ": 1212,
      "ḋ": 1213,
      "ḍ": 1214,
      "ḗ": 1215,
      "Ḡ": 1216,
      "Ḥ": 1217,
      "ḥ": 1218,
      "Ḩ": 1219,
      "ḩ": 1220,
      "ḫ": 1221,
      "ḱ": 1222,
      "Ḵ": 1223,
      "ḷ": 1224,
      "ṃ": 1225,
      "ṅ": 1226,
      "ṇ": 1227,
      "ṓ": 1228,
      "ṙ": 1229,
      "ṛ": 1230,
      "ṟ": 1231,
      "Ṣ": 1232,
      "ṣ": 1233,
      "ṫ": 1234,
      "Ṭ": 1235,
      "ṭ": 1236,
      "Ẓ": 1237,
      "ẓ": 1238,
      "ẞ": 1239,
      "ạ": 1240,
      "Ả": 1241,
      "ả": 1242,
      "ấ": 1243,
      "ầ": 1244,
      "ậ": 1245,
      "ắ": 1246,
      "ẵ": 1247,
      "ặ": 1248,
      "ẹ": 1249,
      "ẻ": 1250,
      "Ẽ": 1251,
      "ế": 1252,
      "ề": 1253,
      "ễ": 1254,
      "ệ": 1255,
      "ỉ": 1256,
      "ị": 1257,
      "ọ": 1258,
      "ỏ": 1259,
      "ố": 1260,
      "ồ": 1261,
      "ổ": 1262,
      "ộ": 1263,
      "ớ": 1264,
      "ờ": 1265,
      "ở": 1266,
      "ợ": 1267,
      "ụ": 1268,
      "ủ": 1269,
      "ứ": 1270,
      "ữ": 1271,
      "ỳ": 1272,
      "ỷ": 1273,
      "Ỹ": 1274,
      "ỹ": 1275,
      "ἀ": 1276,
      "ἁ": 1277,
      "ἄ": 1278,
      "Ἀ": 1279,
      "Ἁ": 1280,
      "Ἄ": 1281,
      "ἐ": 1282,
      "ἔ": 1283,
      "ἕ": 1284,
      "Ἑ": 1285,
      "Ἕ": 1286,
      "ἡ": 1287,
      "ἥ": 1288,
      "Ἠ": 1289,
      "Ἡ": 1290,
      "ἰ": 1291,
      "ἱ": 1292,
      "ἴ": 1293,
      "ἶ": 1294,
      "Ἰ": 1295,
      "ὀ": 1296,
      "ὁ": 1297,
      "ὄ": 1298,
      "ὅ": 1299,
      "Ὅ": 1300,
      "ὐ": 1301,
      "ὑ": 1302,
      "ὔ": 1303,
      "ὕ": 1304,
      "ὖ": 1305,
      "Ὑ": 1306,
      "ὡ": 1307,
      "ὤ": 1308,
      "ὰ": 1309,
      "ὴ": 1310,
      "ὶ": 1311,
      "ὸ": 1312,
      "ὺ": 1313,
      "ὼ": 1314,
      "ᾱ": 1315,
      "ᾶ": 1316,
      "ῃ": 1317,
      "ῆ": 1318,
      "ῑ": 1319,
      "ῖ": 1320,
      "ῥ": 1321,
      "ῦ": 1322,
      "ῴ": 1323,
      "ῶ": 1324,
      "ῷ": 1325,
      "​": 1326,
      "‌": 1327,
      "‍": 1328,
      "‎": 1329,
      "‏": 1330,
      "‐": 1331,
      "‑": 1332,
      "‒": 1333,
      "–": 1334,
      "—": 1335,
      "―": 1336,
      "‘": 1337,
      "’": 1338,
      "‚": 1339,
      "“": 1340,
      "”": 1341,
      "„": 1342,
      "†": 1343,
      "‡": 1344,
      "•": 1345,
      "…": 1346,
      "‧": 1347,
      "‰": 1348,
      "‱": 1349,
      "′": 1350,
      "″": 1351,
      "※": 1352,
      "‿": 1353,
      "⁄": 1354,
      "⁠": 1355,
      "⁣": 1356,
      "⁶": 1357,
      "₤": 1358,
      "€": 1359,
      "₱": 1360,
      "₹": 1361,
      "ℓ": 1362,
      "№": 1363,
      "℠": 1364,
      "™": 1365,
      "⅓": 1366,
      "⅔": 1367,
      "⅟": 1368,
      "←": 1369,
      "→": 1370,
      "↓": 1371,
      "↔": 1372,
      "∆": 1373,
      "∈": 1374,
      "−": 1375,
      "√": 1376,
      "∝": 1377,
      "∨": 1378,
      "∩": 1379,
      "∪": 1380,
      "∫": 1381,
      "∴": 1382,
      "∼": 1383,
      "≈": 1384,
      "≠": 1385,
      "≡": 1386,
      "≤": 1387,
      "≥": 1388,
      "⊂": 1389,
      "⊃": 1390,
      "⊆": 1391,
      "⊇": 1392,
      "⊙": 1393,
      "⊥": 1394,
      "⊼": 1395,
      "⋅": 1396,
      "⌀": 1397,
      "⌘": 1398,
      "⌬": 1399,
      "⏣": 1400,
      "─": 1401,
      "│": 1402,
      "└": 1403,
      "├": 1404,
      "■": 1405,
      "▲": 1406,
      "●": 1407,
      "☆": 1408,
      "☊": 1409,
      "☌": 1410,
      "☍": 1411,
      "☣": 1412,
      "♀": 1413,
      "♃": 1414,
      "♄": 1415,
      "♆": 1416,
      "♋": 1417,
      "♠": 1418,
      "♣": 1419,
      "♥": 1420,
      "♦": 1421,
      "♭": 1422,
      "♮": 1423,
      "♯": 1424,
      "✓": 1425,
      "⬇": 1426,
      "ⲁ": 1427,
      "ⲙ": 1428,
      "ⲣ": 1429,
      "ⲱ": 1430,
      "ⴀ": 1431,
      "ⴇ": 1432,
      "ⴈ": 1433,
      "ⴊ": 1434,
      "ⴌ": 1435,
      "ⴐ": 1436,
      "ⴓ": 1437,
      "ⴰ": 1438,
      "ⴱ": 1439,
      "ⴳ": 1440,
      "ⴷ": 1441,
      "ⴹ": 1442,
      "ⴻ": 1443,
      "ⴼ": 1444,
      "ⴽ": 1445,
      "ⵀ": 1446,
      "ⵃ": 1447,
      "ⵄ": 1448,
      "ⵅ": 1449,
      "ⵇ": 1450,
      "ⵉ": 1451,
      "ⵊ": 1452,
      "ⵍ": 1453,
      "ⵎ": 1454,
      "ⵏ": 1455,
      "ⵓ": 1456,
      "ⵔ": 1457,
      "ⵕ": 1458,
      "ⵖ": 1459,
      "ⵙ": 1460,
      "ⵚ": 1461,
      "ⵛ": 1462,
      "ⵜ": 1463,
      "ⵟ": 1464,
      "ⵡ": 1465,
      "ⵢ": 1466,
      "ⵣ": 1467,
      "ⵥ": 1468,
      "ⵯ": 1469,
      "、": 1470,
      "。": 1471,
      "〈": 1472,
      "〉": 1473,
      "《": 1474,
      "》": 1475,
      "「": 1476,
      "」": 1477,
      "『": 1478,
      "』": 1479,
      "【": 1480,
      "】": 1481,
      "〔": 1482,
      "〕": 1483,
      "〜": 1484,
      "あ": 1485,
      "い": 1486,
      "う": 1487,
      "え": 1488,
      "お": 1489,
      "か": 1490,
      "が": 1491,
      "き": 1492,
      "く": 1493,
      "ぐ": 1494,
      "け": 1495,
      "げ": 1496,
      "こ": 1497,
      "ご": 1498,
      "さ": 1499,
      "し": 1500,
      "じ": 1501,
      "す": 1502,
      "せ": 1503,
      "そ": 1504,
      "た": 1505,
      "だ": 1506,
      "ち": 1507,
      "ぢ": 1508,
      "っ": 1509,
      "つ": 1510,
      "て": 1511,
      "で": 1512,
      "と": 1513,
      "ど": 1514,
      "な": 1515,
      "に": 1516,
      "の": 1517,
      "は": 1518,
      "ば": 1519,
      "ぱ": 1520,
      "ひ": 1521,
      "び": 1522,
      "ふ": 1523,
      "べ": 1524,
      "ほ": 1525,
      "ぽ": 1526,
      "ま": 1527,
      "み": 1528,
      "む": 1529,
      "め": 1530,
      "も": 1531,
      "ゃ": 1532,
      "や": 1533,
      "ゅ": 1534,
      "ゆ": 1535,
      "ょ": 1536,
      "よ": 1537,
      "ら": 1538,
      "り": 1539,
      "る": 1540,
      "れ": 1541,
      "ろ": 1542,
      "わ": 1543,
      "を": 1544,
      "ん": 1545,
      "゛": 1546,
      "゜": 1547,
      "ァ": 1548,
      "ア": 1549,
      "ィ": 1550,
      "イ": 1551,
      "ウ": 1552,
      "エ": 1553,
      "ォ": 1554,
      "オ": 1555,
      "カ": 1556,
      "ガ": 1557,
      "キ": 1558,
      "ク": 1559,
      "グ": 1560,
      "ケ": 1561,
      "ゲ": 1562,
      "コ": 1563,
      "ゴ": 1564,
      "サ": 1565,
      "ザ": 1566,
      "シ": 1567,
      "ジ": 1568,
      "ス": 1569,
      "ズ": 1570,
      "セ": 1571,
      "ゼ": 1572,
      "ソ": 1573,
      "タ": 1574,
      "ダ": 1575,
      "チ": 1576,
      "ッ": 1577,
      "ツ": 1578,
      "テ": 1579,
      "デ": 1580,
      "ト": 1581,
      "ド": 1582,
      "ナ": 1583,
      "ニ": 1584,
      "ヌ": 1585,
      "ネ": 1586,
      "ノ": 1587,
      "ハ": 1588,
      "バ": 1589,
      "パ": 1590,
      "ヒ": 1591,
      "ビ": 1592,
      "フ": 1593,
      "ブ": 1594,
      "ベ": 1595,
      "ボ": 1596,
      "マ": 1597,
      "ミ": 1598,
      "ム": 1599,
      "メ": 1600,
      "モ": 1601,
      "ャ": 1602,
      "ヤ": 1603,
      "ュ": 1604,
      "ヨ": 1605,
      "ラ": 1606,
      "リ": 1607,
      "ル": 1608,
      "レ": 1609,
      "ロ": 1610,
      "ワ": 1611,
      "ヲ": 1612,
      "ン": 1613,
      "ヴ": 1614,
      "・": 1615,
      "ー": 1616,
      "ㄅ": 1617,
      "ㄆ": 1618,
      "ㄇ": 1619,
      "ㄈ": 1620,
      "ㄉ": 1621,
      "ㄊ": 1622,
      "ㄋ": 1623,
      "ㄌ": 1624,
      "ㄍ": 1625,
      "ㄎ": 1626,
      "ㄏ": 1627,
      "ㄐ": 1628,
      "ㄑ": 1629,
      "ㄒ": 1630,
      "ㄓ": 1631,
      "ㄔ": 1632,
      "ㄕ": 1633,
      "ㄖ": 1634,
      "ㄗ": 1635,
      "ㄘ": 1636,
      "ㄙ": 1637,
      "ㄚ": 1638,
      "ㄛ": 1639,
      "ㄜ": 1640,
      "ㄝ": 1641,
      "ㄞ": 1642,
      "ㄟ": 1643,
      "ㄠ": 1644,
      "ㄡ": 1645,
      "ㄢ": 1646,
      "ㄣ": 1647,
      "ㄤ": 1648,
      "ㄥ": 1649,
      "ㄦ": 1650,
      "ㄧ": 1651,
      "ㄨ": 1652,
      "ㄩ": 1653,
      "ㄭ": 1654,
      "ㄱ": 1655,
      "ㄲ": 1656,
      "ㄴ": 1657,
      "ㄷ": 1658,
      "ㄸ": 1659,
      "ㄹ": 1660,
      "ㅁ": 1661,
      "ㅂ": 1662,
      "ㅃ": 1663,
      "ㅅ": 1664,
      "ㅆ": 1665,
      "ㅇ": 1666,
      "ㅈ": 1667,
      "ㅉ": 1668,
      "ㅊ": 1669,
      "ㅋ": 1670,
      "ㅌ": 1671,
      "ㅍ": 1672,
      "ㅎ": 1673,
      "ㅏ": 1674,
      "ㅐ": 1675,
      "ㅑ": 1676,
      "ㅒ": 1677,
      "ㅓ": 1678,
      "ㅔ": 1679,
      "ㅕ": 1680,
      "ㅖ": 1681,
      "ㅗ": 1682,
      "ㅘ": 1683,
      "ㅙ": 1684,
      "ㅚ": 1685,
      "ㅛ": 1686,
      "ㅜ": 1687,
      "ㅝ": 1688,
      "ㅞ": 1689,
      "ㅟ": 1690,
      "ㅠ": 1691,
      "ㅡ": 1692,
      "ㅢ": 1693,
      "ㅣ": 1694,
      "㎝": 1695,
      "㎠": 1696,
      "㎤": 1697,
      "一": 1698,
      "丁": 1699,
      "七": 1700,
      "万": 1701,
      "三": 1702,
      "上": 1703,
      "下": 1704,
      "不": 1705,
      "世": 1706,
      "丙": 1707,
      "丛": 1708,
      "东": 1709,
      "中": 1710,
      "丸": 1711,
      "为": 1712,
      "之": 1713,
      "乌": 1714,
      "乒": 1715,
      "乓": 1716,
      "乙": 1717,
      "九": 1718,
      "乞": 1719,
      "也": 1720,
      "乡": 1721,
      "书": 1722,
      "争": 1723,
      "事": 1724,
      "二": 1725,
      "云": 1726,
      "井": 1727,
      "亜": 1728,
      "交": 1729,
      "产": 1730,
      "京": 1731,
      "人": 1732,
      "仁": 1733,
      "今": 1734,
      "仔": 1735,
      "他": 1736,
      "仙": 1737,
      "仡": 1738,
      "代": 1739,
      "以": 1740,
      "仫": 1741,
      "们": 1742,
      "仮": 1743,
      "伐": 1744,
      "会": 1745,
      "伝": 1746,
      "伦": 1747,
      "伯": 1748,
      "伸": 1749,
      "佐": 1750,
      "何": 1751,
      "你": 1752,
      "佤": 1753,
      "佩": 1754,
      "佬": 1755,
      "使": 1756,
      "來": 1757,
      "侗": 1758,
      "依": 1759,
      "俄": 1760,
      "俗": 1761,
      "保": 1762,
      "信": 1763,
      "俺": 1764,
      "倉": 1765,
      "倍": 1766,
      "借": 1767,
      "倫": 1768,
      "假": 1769,
      "偉": 1770,
      "傈": 1771,
      "傣": 1772,
      "傳": 1773,
      "僳": 1774,
      "儿": 1775,
      "元": 1776,
      "光": 1777,
      "克": 1778,
      "児": 1779,
      "兒": 1780,
      "党": 1781,
      "全": 1782,
      "八": 1783,
      "公": 1784,
      "六": 1785,
      "兰": 1786,
      "共": 1787,
      "内": 1788,
      "円": 1789,
      "写": 1790,
      "农": 1791,
      "冬": 1792,
      "凍": 1793,
      "出": 1794,
      "刀": 1795,
      "列": 1796,
      "则": 1797,
      "初": 1798,
      "判": 1799,
      "別": 1800,
      "利": 1801,
      "别": 1802,
      "剅": 1803,
      "則": 1804,
      "前": 1805,
      "剔": 1806,
      "剖": 1807,
      "劈": 1808,
      "力": 1809,
      "加": 1810,
      "勁": 1811,
      "勇": 1812,
      "勒": 1813,
      "動": 1814,
      "勝": 1815,
      "勸": 1816,
      "勾": 1817,
      "匂": 1818,
      "化": 1819,
      "北": 1820,
      "区": 1821,
      "區": 1822,
      "十": 1823,
      "千": 1824,
      "华": 1825,
      "卓": 1826,
      "南": 1827,
      "博": 1828,
      "卜": 1829,
      "印": 1830,
      "历": 1831,
      "原": 1832,
      "厥": 1833,
      "去": 1834,
      "县": 1835,
      "叉": 1836,
      "友": 1837,
      "受": 1838,
      "口": 1839,
      "古": 1840,
      "句": 1841,
      "台": 1842,
      "史": 1843,
      "司": 1844,
      "合": 1845,
      "吉": 1846,
      "向": 1847,
      "吗": 1848,
      "君": 1849,
      "吝": 1850,
      "吟": 1851,
      "含": 1852,
      "吳": 1853,
      "吴": 1854,
      "吾": 1855,
      "周": 1856,
      "呪": 1857,
      "味": 1858,
      "命": 1859,
      "和": 1860,
      "咸": 1861,
      "哈": 1862,
      "哥": 1863,
      "哲": 1864,
      "唐": 1865,
      "唱": 1866,
      "商": 1867,
      "問": 1868,
      "啟": 1869,
      "喀": 1870,
      "善": 1871,
      "喜": 1872,
      "噌": 1873,
      "囘": 1874,
      "四": 1875,
      "回": 1876,
      "団": 1877,
      "囬": 1878,
      "固": 1879,
      "国": 1880,
      "圆": 1881,
      "國": 1882,
      "園": 1883,
      "土": 1884,
      "在": 1885,
      "地": 1886,
      "坂": 1887,
      "坐": 1888,
      "坦": 1889,
      "垣": 1890,
      "城": 1891,
      "域": 1892,
      "基": 1893,
      "堂": 1894,
      "堆": 1895,
      "報": 1896,
      "塔": 1897,
      "壊": 1898,
      "壤": 1899,
      "士": 1900,
      "壮": 1901,
      "声": 1902,
      "売": 1903,
      "夏": 1904,
      "外": 1905,
      "多": 1906,
      "夜": 1907,
      "夢": 1908,
      "大": 1909,
      "天": 1910,
      "太": 1911,
      "夫": 1912,
      "央": 1913,
      "失": 1914,
      "奈": 1915,
      "奥": 1916,
      "女": 1917,
      "好": 1918,
      "如": 1919,
      "妃": 1920,
      "妈": 1921,
      "姦": 1922,
      "姬": 1923,
      "威": 1924,
      "媽": 1925,
      "子": 1926,
      "孔": 1927,
      "字": 1928,
      "孜": 1929,
      "孝": 1930,
      "学": 1931,
      "學": 1932,
      "宅": 1933,
      "宇": 1934,
      "安": 1935,
      "宋": 1936,
      "完": 1937,
      "宏": 1938,
      "宗": 1939,
      "官": 1940,
      "定": 1941,
      "宜": 1942,
      "宝": 1943,
      "客": 1944,
      "宣": 1945,
      "宮": 1946,
      "宰": 1947,
      "宴": 1948,
      "宵": 1949,
      "家": 1950,
      "容": 1951,
      "寂": 1952,
      "富": 1953,
      "寛": 1954,
      "察": 1955,
      "實": 1956,
      "寿": 1957,
      "尊": 1958,
      "尋": 1959,
      "對": 1960,
      "小": 1961,
      "少": 1962,
      "尔": 1963,
      "尖": 1964,
      "尚": 1965,
      "尼": 1966,
      "居": 1967,
      "屈": 1968,
      "屋": 1969,
      "層": 1970,
      "履": 1971,
      "屯": 1972,
      "山": 1973,
      "岩": 1974,
      "岳": 1975,
      "峨": 1976,
      "島": 1977,
      "崎": 1978,
      "崩": 1979,
      "嵇": 1980,
      "嵯": 1981,
      "嶷": 1982,
      "嶼": 1983,
      "嶽": 1984,
      "川": 1985,
      "州": 1986,
      "左": 1987,
      "巧": 1988,
      "巴": 1989,
      "市": 1990,
      "布": 1991,
      "帝": 1992,
      "帯": 1993,
      "帶": 1994,
      "常": 1995,
      "幕": 1996,
      "干": 1997,
      "平": 1998,
      "年": 1999,
      "幸": 2000,
      "幹": 2001,
      "幼": 2002,
      "幽": 2003,
      "广": 2004,
      "広": 2005,
      "庆": 2006,
      "店": 2007,
      "府": 2008,
      "庫": 2009,
      "庵": 2010,
      "康": 2011,
      "廈": 2012,
      "廊": 2013,
      "廣": 2014,
      "延": 2015,
      "建": 2016,
      "廻": 2017,
      "廽": 2018,
      "弁": 2019,
      "弄": 2020,
      "弋": 2021,
      "式": 2022,
      "引": 2023,
      "张": 2024,
      "張": 2025,
      "強": 2026,
      "强": 2027,
      "弼": 2028,
      "弾": 2029,
      "当": 2030,
      "录": 2031,
      "彝": 2032,
      "形": 2033,
      "彼": 2034,
      "後": 2035,
      "得": 2036,
      "御": 2037,
      "微": 2038,
      "德": 2039,
      "徽": 2040,
      "心": 2041,
      "志": 2042,
      "忘": 2043,
      "忠": 2044,
      "快": 2045,
      "念": 2046,
      "怎": 2047,
      "怒": 2048,
      "思": 2049,
      "怡": 2050,
      "性": 2051,
      "怨": 2052,
      "恋": 2053,
      "恭": 2054,
      "您": 2055,
      "悲": 2056,
      "情": 2057,
      "想": 2058,
      "意": 2059,
      "愛": 2060,
      "感": 2061,
      "慢": 2062,
      "慶": 2063,
      "懷": 2064,
      "戀": 2065,
      "戊": 2066,
      "戌": 2067,
      "戎": 2068,
      "成": 2069,
      "我": 2070,
      "战": 2071,
      "戦": 2072,
      "户": 2073,
      "戸": 2074,
      "房": 2075,
      "所": 2076,
      "手": 2077,
      "才": 2078,
      "打": 2079,
      "托": 2080,
      "扬": 2081,
      "把": 2082,
      "抠": 2083,
      "抹": 2084,
      "拂": 2085,
      "拉": 2086,
      "拌": 2087,
      "拍": 2088,
      "招": 2089,
      "括": 2090,
      "拳": 2091,
      "拼": 2092,
      "拿": 2093,
      "指": 2094,
      "按": 2095,
      "挑": 2096,
      "振": 2097,
      "授": 2098,
      "掐": 2099,
      "掩": 2100,
      "揚": 2101,
      "搜": 2102,
      "搯": 2103,
      "摘": 2104,
      "摩": 2105,
      "撃": 2106,
      "撒": 2107,
      "撥": 2108,
      "撫": 2109,
      "撮": 2110,
      "擇": 2111,
      "擊": 2112,
      "操": 2113,
      "攻": 2114,
      "放": 2115,
      "政": 2116,
      "故": 2117,
      "敏": 2118,
      "散": 2119,
      "敬": 2120,
      "敷": 2121,
      "文": 2122,
      "斡": 2123,
      "斯": 2124,
      "新": 2125,
      "方": 2126,
      "施": 2127,
      "族": 2128,
      "旗": 2129,
      "日": 2130,
      "时": 2131,
      "昂": 2132,
      "昇": 2133,
      "昌": 2134,
      "明": 2135,
      "易": 2136,
      "星": 2137,
      "映": 2138,
      "春": 2139,
      "是": 2140,
      "晚": 2141,
      "普": 2142,
      "景": 2143,
      "智": 2144,
      "暦": 2145,
      "曆": 2146,
      "曉": 2147,
      "曲": 2148,
      "書": 2149,
      "曹": 2150,
      "曾": 2151,
      "會": 2152,
      "月": 2153,
      "有": 2154,
      "朗": 2155,
      "望": 2156,
      "朝": 2157,
      "木": 2158,
      "未": 2159,
      "本": 2160,
      "术": 2161,
      "朱": 2162,
      "杀": 2163,
      "杉": 2164,
      "李": 2165,
      "村": 2166,
      "条": 2167,
      "来": 2168,
      "東": 2169,
      "杵": 2170,
      "松": 2171,
      "林": 2172,
      "果": 2173,
      "柑": 2174,
      "柔": 2175,
      "柚": 2176,
      "柯": 2177,
      "柱": 2178,
      "査": 2179,
      "校": 2180,
      "株": 2181,
      "样": 2182,
      "根": 2183,
      "格": 2184,
      "桃": 2185,
      "案": 2186,
      "桐": 2187,
      "桜": 2188,
      "梁": 2189,
      "梅": 2190,
      "梓": 2191,
      "梦": 2192,
      "梭": 2193,
      "棠": 2194,
      "植": 2195,
      "椎": 2196,
      "検": 2197,
      "楚": 2198,
      "楠": 2199,
      "業": 2200,
      "楳": 2201,
      "榆": 2202,
      "榜": 2203,
      "樂": 2204,
      "横": 2205,
      "樹": 2206,
      "橋": 2207,
      "橘": 2208,
      "機": 2209,
      "櫻": 2210,
      "歌": 2211,
      "歡": 2212,
      "止": 2213,
      "正": 2214,
      "武": 2215,
      "歩": 2216,
      "殊": 2217,
      "殖": 2218,
      "殺": 2219,
      "毒": 2220,
      "毛": 2221,
      "氏": 2222,
      "民": 2223,
      "气": 2224,
      "氣": 2225,
      "水": 2226,
      "汁": 2227,
      "汉": 2228,
      "江": 2229,
      "池": 2230,
      "汤": 2231,
      "沈": 2232,
      "沖": 2233,
      "沙": 2234,
      "沢": 2235,
      "河": 2236,
      "治": 2237,
      "沼": 2238,
      "泉": 2239,
      "法": 2240,
      "泛": 2241,
      "注": 2242,
      "泽": 2243,
      "洛": 2244,
      "洞": 2245,
      "洲": 2246,
      "派": 2247,
      "流": 2248,
      "浙": 2249,
      "浦": 2250,
      "浩": 2251,
      "浪": 2252,
      "海": 2253,
      "涙": 2254,
      "液": 2255,
      "淡": 2256,
      "清": 2257,
      "減": 2258,
      "渝": 2259,
      "温": 2260,
      "渭": 2261,
      "港": 2262,
      "湖": 2263,
      "湘": 2264,
      "湯": 2265,
      "湾": 2266,
      "満": 2267,
      "源": 2268,
      "溜": 2269,
      "溫": 2270,
      "滝": 2271,
      "满": 2272,
      "滸": 2273,
      "滾": 2274,
      "漆": 2275,
      "漢": 2276,
      "漫": 2277,
      "潭": 2278,
      "澎": 2279,
      "澤": 2280,
      "濟": 2281,
      "瀏": 2282,
      "瀟": 2283,
      "火": 2284,
      "炜": 2285,
      "為": 2286,
      "烈": 2287,
      "烏": 2288,
      "無": 2289,
      "然": 2290,
      "焼": 2291,
      "煙": 2292,
      "照": 2293,
      "煮": 2294,
      "熊": 2295,
      "熟": 2296,
      "熱": 2297,
      "燕": 2298,
      "燭": 2299,
      "爪": 2300,
      "爲": 2301,
      "爷": 2302,
      "片": 2303,
      "版": 2304,
      "牙": 2305,
      "物": 2306,
      "特": 2307,
      "犬": 2308,
      "状": 2309,
      "狗": 2310,
      "独": 2311,
      "狮": 2312,
      "猱": 2313,
      "猿": 2314,
      "玉": 2315,
      "王": 2316,
      "玟": 2317,
      "珞": 2318,
      "現": 2319,
      "球": 2320,
      "理": 2321,
      "琪": 2322,
      "琴": 2323,
      "瑶": 2324,
      "璐": 2325,
      "環": 2326,
      "瓊": 2327,
      "甌": 2328,
      "生": 2329,
      "產": 2330,
      "田": 2331,
      "甲": 2332,
      "男": 2333,
      "町": 2334,
      "画": 2335,
      "界": 2336,
      "留": 2337,
      "畲": 2338,
      "畿": 2339,
      "疊": 2340,
      "痕": 2341,
      "痛": 2342,
      "発": 2343,
      "白": 2344,
      "百": 2345,
      "的": 2346,
      "皇": 2347,
      "盆": 2348,
      "盟": 2349,
      "盦": 2350,
      "盧": 2351,
      "目": 2352,
      "直": 2353,
      "相": 2354,
      "省": 2355,
      "県": 2356,
      "瞿": 2357,
      "知": 2358,
      "石": 2359,
      "碟": 2360,
      "碣": 2361,
      "碧": 2362,
      "社": 2363,
      "祖": 2364,
      "祜": 2365,
      "神": 2366,
      "祥": 2367,
      "禎": 2368,
      "福": 2369,
      "禪": 2370,
      "禮": 2371,
      "禱": 2372,
      "秀": 2373,
      "私": 2374,
      "秋": 2375,
      "秘": 2376,
      "秦": 2377,
      "種": 2378,
      "空": 2379,
      "突": 2380,
      "竜": 2381,
      "章": 2382,
      "童": 2383,
      "竹": 2384,
      "笑": 2385,
      "第": 2386,
      "笳": 2387,
      "筒": 2388,
      "答": 2389,
      "筵": 2390,
      "筷": 2391,
      "箕": 2392,
      "箸": 2393,
      "節": 2394,
      "簡": 2395,
      "籟": 2396,
      "米": 2397,
      "粤": 2398,
      "粵": 2399,
      "精": 2400,
      "紀": 2401,
      "約": 2402,
      "紋": 2403,
      "納": 2404,
      "紙": 2405,
      "紫": 2406,
      "紹": 2407,
      "絃": 2408,
      "結": 2409,
      "絕": 2410,
      "給": 2411,
      "絨": 2412,
      "絲": 2413,
      "絵": 2414,
      "絹": 2415,
      "綏": 2416,
      "經": 2417,
      "綬": 2418,
      "維": 2419,
      "綿": 2420,
      "線": 2421,
      "編": 2422,
      "縄": 2423,
      "縣": 2424,
      "織": 2425,
      "级": 2426,
      "纳": 2427,
      "经": 2428,
      "维": 2429,
      "罗": 2430,
      "罨": 2431,
      "羅": 2432,
      "羌": 2433,
      "美": 2434,
      "羣": 2435,
      "群": 2436,
      "羹": 2437,
      "翁": 2438,
      "習": 2439,
      "翠": 2440,
      "翡": 2441,
      "翼": 2442,
      "老": 2443,
      "考": 2444,
      "者": 2445,
      "耒": 2446,
      "聖": 2447,
      "聲": 2448,
      "職": 2449,
      "背": 2450,
      "胡": 2451,
      "能": 2452,
      "脊": 2453,
      "脳": 2454,
      "腐": 2455,
      "自": 2456,
      "臯": 2457,
      "臺": 2458,
      "臼": 2459,
      "興": 2460,
      "舞": 2461,
      "航": 2462,
      "船": 2463,
      "良": 2464,
      "色": 2465,
      "艺": 2466,
      "芝": 2467,
      "花": 2468,
      "芸": 2469,
      "苗": 2470,
      "若": 2471,
      "英": 2472,
      "茶": 2473,
      "茸": 2474,
      "茹": 2475,
      "草": 2476,
      "药": 2477,
      "荷": 2478,
      "莊": 2479,
      "菊": 2480,
      "菜": 2481,
      "華": 2482,
      "萨": 2483,
      "萬": 2484,
      "落": 2485,
      "葆": 2486,
      "葉": 2487,
      "葛": 2488,
      "蒙": 2489,
      "蒜": 2490,
      "蒸": 2491,
      "蓑": 2492,
      "蓟": 2493,
      "蔚": 2494,
      "蔡": 2495,
      "蕤": 2496,
      "薫": 2497,
      "藏": 2498,
      "藤": 2499,
      "藥": 2500,
      "藩": 2501,
      "藻": 2502,
      "蘇": 2503,
      "蘭": 2504,
      "虞": 2505,
      "蛋": 2506,
      "蛙": 2507,
      "蜀": 2508,
      "蝶": 2509,
      "蠅": 2510,
      "行": 2511,
      "術": 2512,
      "街": 2513,
      "袋": 2514,
      "裁": 2515,
      "装": 2516,
      "裕": 2517,
      "補": 2518,
      "裤": 2519,
      "褒": 2520,
      "西": 2521,
      "要": 2522,
      "見": 2523,
      "親": 2524,
      "観": 2525,
      "角": 2526,
      "解": 2527,
      "触": 2528,
      "言": 2529,
      "計": 2530,
      "訓": 2531,
      "記": 2532,
      "訣": 2533,
      "話": 2534,
      "誕": 2535,
      "語": 2536,
      "読": 2537,
      "調": 2538,
      "諸": 2539,
      "謡": 2540,
      "識": 2541,
      "譜": 2542,
      "讀": 2543,
      "變": 2544,
      "讚": 2545,
      "访": 2546,
      "话": 2547,
      "语": 2548,
      "诺": 2549,
      "谈": 2550,
      "谷": 2551,
      "豆": 2552,
      "象": 2553,
      "豿": 2554,
      "貓": 2555,
      "貴": 2556,
      "資": 2557,
      "賔": 2558,
      "賦": 2559,
      "贛": 2560,
      "财": 2561,
      "赣": 2562,
      "赤": 2563,
      "赫": 2564,
      "走": 2565,
      "起": 2566,
      "超": 2567,
      "越": 2568,
      "足": 2569,
      "趾": 2570,
      "跆": 2571,
      "路": 2572,
      "蹊": 2573,
      "車": 2574,
      "軍": 2575,
      "転": 2576,
      "軫": 2577,
      "輪": 2578,
      "輯": 2579,
      "輸": 2580,
      "轄": 2581,
      "转": 2582,
      "辑": 2583,
      "農": 2584,
      "込": 2585,
      "达": 2586,
      "迪": 2587,
      "迴": 2588,
      "逆": 2589,
      "通": 2590,
      "逢": 2591,
      "連": 2592,
      "逥": 2593,
      "道": 2594,
      "邑": 2595,
      "邕": 2596,
      "那": 2597,
      "邱": 2598,
      "郎": 2599,
      "郑": 2600,
      "郡": 2601,
      "郭": 2602,
      "都": 2603,
      "鄂": 2604,
      "鄉": 2605,
      "鄭": 2606,
      "鄰": 2607,
      "酒": 2608,
      "酱": 2609,
      "醇": 2610,
      "醤": 2611,
      "采": 2612,
      "釋": 2613,
      "里": 2614,
      "重": 2615,
      "野": 2616,
      "金": 2617,
      "釜": 2618,
      "釣": 2619,
      "銀": 2620,
      "鋼": 2621,
      "錄": 2622,
      "鎖": 2623,
      "鎧": 2624,
      "鎮": 2625,
      "鐵": 2626,
      "钧": 2627,
      "铜": 2628,
      "银": 2629,
      "锡": 2630,
      "長": 2631,
      "长": 2632,
      "門": 2633,
      "開": 2634,
      "閣": 2635,
      "閩": 2636,
      "閻": 2637,
      "關": 2638,
      "门": 2639,
      "闽": 2640,
      "阪": 2641,
      "阯": 2642,
      "阳": 2643,
      "阿": 2644,
      "陈": 2645,
      "限": 2646,
      "陕": 2647,
      "陛": 2648,
      "院": 2649,
      "陰": 2650,
      "陳": 2651,
      "陵": 2652,
      "陸": 2653,
      "陽": 2654,
      "隊": 2655,
      "隋": 2656,
      "隴": 2657,
      "雁": 2658,
      "雄": 2659,
      "雅": 2660,
      "集": 2661,
      "雑": 2662,
      "雒": 2663,
      "離": 2664,
      "雲": 2665,
      "雷": 2666,
      "霄": 2667,
      "霊": 2668,
      "霜": 2669,
      "霞": 2670,
      "露": 2671,
      "霸": 2672,
      "靈": 2673,
      "青": 2674,
      "靖": 2675,
      "靜": 2676,
      "面": 2677,
      "革": 2678,
      "韋": 2679,
      "韓": 2680,
      "韦": 2681,
      "音": 2682,
      "須": 2683,
      "頭": 2684,
      "顏": 2685,
      "顾": 2686,
      "颇": 2687,
      "風": 2688,
      "飛": 2689,
      "食": 2690,
      "飢": 2691,
      "飲": 2692,
      "餅": 2693,
      "館": 2694,
      "饮": 2695,
      "饺": 2696,
      "香": 2697,
      "馨": 2698,
      "馬": 2699,
      "駅": 2700,
      "騷": 2701,
      "马": 2702,
      "骨": 2703,
      "髄": 2704,
      "體": 2705,
      "高": 2706,
      "髪": 2707,
      "鬼": 2708,
      "魚": 2709,
      "魯": 2710,
      "鮮": 2711,
      "鲜": 2712,
      "鳳": 2713,
      "鳴": 2714,
      "鴻": 2715,
      "鷄": 2716,
      "鷹": 2717,
      "鸡": 2718,
      "鹿": 2719,
      "麦": 2720,
      "麵": 2721,
      "麹": 2722,
      "麻": 2723,
      "黄": 2724,
      "黎": 2725,
      "黨": 2726,
      "齦": 2727,
      "龍": 2728,
      "龙": 2729,
      "가": 2730,
      "강": 2731,
      "격": 2732,
      "결": 2733,
      "경": 2734,
      "고": 2735,
      "광": 2736,
      "구": 2737,
      "국": 2738,
      "굴": 2739,
      "궁": 2740,
      "권": 2741,
      "귤": 2742,
      "근": 2743,
      "글": 2744,
      "금": 2745,
      "기": 2746,
      "길": 2747,
      "김": 2748,
      "나": 2749,
      "날": 2750,
      "남": 2751,
      "답": 2752,
      "대": 2753,
      "더": 2754,
      "도": 2755,
      "독": 2756,
      "동": 2757,
      "들": 2758,
      "라": 2759,
      "란": 2760,
      "려": 2761,
      "령": 2762,
      "례": 2763,
      "로": 2764,
      "리": 2765,
      "립": 2766,
      "마": 2767,
      "만": 2768,
      "말": 2769,
      "메": 2770,
      "명": 2771,
      "몽": 2772,
      "뫼": 2773,
      "무": 2774,
      "문": 2775,
      "미": 2776,
      "민": 2777,
      "박": 2778,
      "방": 2779,
      "밭": 2780,
      "백": 2781,
      "벌": 2782,
      "별": 2783,
      "보": 2784,
      "본": 2785,
      "부": 2786,
      "북": 2787,
      "빛": 2788,
      "산": 2789,
      "삼": 2790,
      "상": 2791,
      "서": 2792,
      "선": 2793,
      "성": 2794,
      "세": 2795,
      "수": 2796,
      "순": 2797,
      "스": 2798,
      "승": 2799,
      "시": 2800,
      "신": 2801,
      "실": 2802,
      "아": 2803,
      "애": 2804,
      "양": 2805,
      "어": 2806,
      "언": 2807,
      "역": 2808,
      "연": 2809,
      "영": 2810,
      "옥": 2811,
      "외": 2812,
      "요": 2813,
      "용": 2814,
      "우": 2815,
      "운": 2816,
      "울": 2817,
      "원": 2818,
      "월": 2819,
      "위": 2820,
      "유": 2821,
      "육": 2822,
      "윤": 2823,
      "은": 2824,
      "음": 2825,
      "의": 2826,
      "이": 2827,
      "인": 2828,
      "일": 2829,
      "자": 2830,
      "장": 2831,
      "재": 2832,
      "쟁": 2833,
      "전": 2834,
      "정": 2835,
      "제": 2836,
      "조": 2837,
      "종": 2838,
      "주": 2839,
      "중": 2840,
      "지": 2841,
      "직": 2842,
      "집": 2843,
      "천": 2844,
      "청": 2845,
      "충": 2846,
      "치": 2847,
      "침": 2848,
      "카": 2849,
      "키": 2850,
      "태": 2851,
      "택": 2852,
      "토": 2853,
      "투": 2854,
      "특": 2855,
      "평": 2856,
      "포": 2857,
      "플": 2858,
      "학": 2859,
      "한": 2860,
      "할": 2861,
      "항": 2862,
      "해": 2863,
      "혁": 2864,
      "현": 2865,
      "혜": 2866,
      "호": 2867,
      "화": 2868,
      "환": 2869,
      "훈": 2870,
      "희": 2871,
      "ﬁ": 2872,
      "️": 2873,
      "ﺍ": 2874,
      "ﺒ": 2875,
      "ﻟ": 2876,
      "ﻨ": 2877,
      "ﻲ": 2878,
      "！": 2879,
      "（": 2880,
      "）": 2881,
      "，": 2882,
      "－": 2883,
      "：": 2884,
      "；": 2885,
      "？": 2886,
      "Ｇ": 2887,
      "Ｐ": 2888,
      "Ｘ": 2889,
      "［": 2890,
      "］": 2891,
      "～": 2892,
      "￼": 2893,
      "𝄆": 2894,
      "𝄇": 2895,
      "𞤃": 2896,
      "𞤈": 2897,
      "𞤢": 2898,
      "𞤣": 2899,
      "𞤤": 2900,
      "𞤫": 2901,
      "𞤭": 2902,
      "𞤲": 2903,
      "𞥄": 2904,
      "𞥆": 2905,
      "🅐": 2906,
      "🅒": 2907,
      "🅓": 2908,
      "🅔": 2909,
      "🅕": 2910,
      "🅖": 2911,
      "🅗": 2912,
      "🅘": 2913,
      "🅚": 2914,
      "🅛": 2915,
      "🅜": 2916,
      "🅝": 2917,
      "🅞": 2918,
      "🅟": 2919,
      "🅠": 2920,
      "🅡": 2921,
      "🅢": 2922,
      "🅣": 2923,
      "🅤": 2924,
      "🅥": 2925,
      "🅦": 2926,
      "🅨": 2927,
      "📦": 2928,
      "🦭": 2929,
      "he": 2930,
      "an": 2931,
      "in": 2932,
      "er": 2933,
      "the": 2934,
      "on": 2935,
      "re": 2936,
      "is": 2937,
      "or": 2938,
      "es": 2939,
      "al": 2940,
      "at": 2941,
      "en": 2942,
      "ar": 2943,
      "it": 2944,
      "of": 2945,
      "ed": 2946,
      "ic": 2947,
      "and": 2948,
      "as": 2949,
      "to": 2950,
      "ou": 2951,
      "ing": 2952,
      "le": 2953,
      "om": 2954,
      "th": 2955,
      "st": 2956,
      "19": 2957,
      "ion": 2958,
      "il": 2959,
      "am": 2960,
      "ol": 2961,
      "ac": 2962,
      "The": 2963,
      "ent": 2964,
      "us": 2965,
      "el": 2966,
      "ro": 2967,
      "ad": 2968,
      "ch": 2969,
      "be": 2970,
      "all": 2971,
      "ter": 2972,
      "ur": 2973,
      "id": 2974,
      "ir": 2975,
      "im": 2976,
      "ay": 2977,
      "se": 2978,
      "for": 2979,
      "are": 2980,
      "ot": 2981,
      "ver": 2982,
      "op": 2983,
      "20": 2984,
      "ow": 2985,
      "ian": 2986,
      "ve": 2987,
      "ig": 2988,
      "was": 2989,
      "et": 2990,
      "un": 2991,
      "ag": 2992,
      "ist": 2993,
      "pe": 2994,
      "ce": 2995,
      "ul": 2996,
      "mo": 2997,
      "ct": 2998,
      "ther": 2999,
      "ation": 3000,
      "mer": 3001,
      "ap": 3002,
      "de": 3003,
      "fr": 3004,
      "oun": 3005,
      "man": 3006,
      "pl": 3007,
      "ut": 3008,
      "res": 3009,
      "ab": 3010,
      "ish": 3011,
      "tr": 3012,
      "com": 3013,
      "di": 3014,
      "ers": 3015,
      "li": 3016,
      "18": 3017,
      "wh": 3018,
      "by": 3019,
      "that": 3020,
      "ith": 3021,
      "ican": 3022,
      "In": 3023,
      "ain": 3024,
      "um": 3025,
      "ly": 3026,
      "em": 3027,
      "art": 3028,
      "ia": 3029,
      "ies": 3030,
      "os": 3031,
      "ak": 3032,
      "Amer": 3033,
      "con": 3034,
      "est": 3035,
      "with": 3036,
      "od": 3037,
      "from": 3038,
      "American": 3039,
      "ne": 3040,
      "so": 3041,
      "ber": 3042,
      "ill": 3043,
      "his": 3044,
      "It": 3045,
      "ha": 3046,
      "act": 3047,
      "rit": 3048,
      "te": 3049,
      "200": 3050,
      "ri": 3051,
      "ant": 3052,
      "ity": 3053,
      "sh": 3054,
      "pro": 3055,
      "ld": 3056,
      "one": 3057,
      "Ch": 3058,
      "ich": 3059,
      "ex": 3060,
      "igh": 3061,
      "cl": 3062,
      "su": 3063,
      "ople": 3064,
      "we": 3065,
      "ard": 3066,
      "not": 3067,
      "ame": 3068,
      "wor": 3069,
      "ge": 3070,
      "ces": 3071,
      "ate": 3072,
      "gr": 3073,
      "per": 3074,
      "fer": 3075,
      "land": 3076,
      "ong": 3077,
      "out": 3078,
      "ke": 3079,
      "St": 3080,
      "ci": 3081,
      "ie": 3082,
      "ome": 3083,
      "people": 3084,
      "can": 3085,
      "ell": 3086,
      "ust": 3087,
      "fe": 3088,
      "ary": 3089,
      "ment": 3090,
      "qu": 3091,
      "ast": 3092,
      "ort": 3093,
      "Re": 3094,
      "av": 3095,
      "end": 3096,
      "ear": 3097,
      "lo": 3098,
      "201": 3099,
      "Un": 3100,
      "ng": 3101,
      "00": 3102,
      "our": 3103,
      "ine": 3104,
      "He": 3105,
      "over": 3106,
      "ound": 3107,
      "ight": 3108,
      "ere": 3109,
      "other": 3110,
      "gh": 3111,
      "also": 3112,
      "have": 3113,
      "ran": 3114,
      "iv": 3115,
      "199": 3116,
      "has": 3117,
      "fo": 3118,
      "which": 3119,
      "use": 3120,
      "ra": 3121,
      "ated": 3122,
      "der": 3123,
      "ally": 3124,
      "were": 3125,
      "ren": 3126,
      "198": 3127,
      "ang": 3128,
      "pr": 3129,
      "own": 3130,
      "Eng": 3131,
      "197": 3132,
      "ph": 3133,
      "they": 3134,
      "ical": 3135,
      "ud": 3136,
      "whe": 3137,
      "An": 3138,
      "me": 3139,
      "ure": 3140,
      "irst": 3141,
      "ide": 3142,
      "ca": 3143,
      "her": 3144,
      "ass": 3145,
      "ive": 3146,
      "age": 3147,
      "ime": 3148,
      "ates": 3149,
      "comp": 3150,
      "og": 3151,
      "many": 3152,
      "call": 3153,
      "ess": 3154,
      "ub": 3155,
      "ok": 3156,
      "ack": 3157,
      "17": 3158,
      "ous": 3159,
      "ip": 3160,
      "but": 3161,
      "Ar": 3162,
      "lish": 3163,
      "pt": 3164,
      "used": 3165,
      "Al": 3166,
      "part": 3167,
      "play": 3168,
      "du": 3169,
      "ough": 3170,
      "194": 3171,
      "bo": 3172,
      "sp": 3173,
      "196": 3174,
      "ade": 3175,
      "called": 3176,
      "first": 3177,
      ").": 3178,
      "its": 3179,
      "ited": 3180,
      "ck": 3181,
      "writ": 3182,
      "ater": 3183,
      "co": 3184,
      "ath": 3185,
      "pol": 3186,
      "che": 3187,
      "Ne": 3188,
      "af": 3189,
      "Ger": 3190,
      "their": 3191,
      "do": 3192,
      "if": 3193,
      "up": 3194,
      "ans": 3195,
      "ician": 3196,
      "ree": 3197,
      "195": 3198,
      "ten": 3199,
      "ory": 3200,
      "ach": 3201,
      "who": 3202,
      "193": 3203,
      "Mar": 3204,
      "ress": 3205,
      "mon": 3206,
      "ry": 3207,
      "ru": 3208,
      "had": 3209,
      "De": 3210,
      "ind": 3211,
      "aw": 3212,
      "most": 3213,
      "wo": 3214,
      "ire": 3215,
      "),": 3216,
      "bs": 3217,
      "cent": 3218,
      "ace": 3219,
      "ice": 3220,
      "very": 3221,
      "United": 3222,
      "ake": 3223,
      "This": 3224,
      "year": 3225,
      "ions": 3226,
      "mus": 3227,
      "ts": 3228,
      "coun": 3229,
      "English": 3230,
      "iz": 3231,
      "ball": 3232,
      "form": 3233,
      "Jo": 3234,
      "ite": 3235,
      "Se": 3236,
      "old": 3237,
      "ial": 3238,
      "192": 3239,
      "au": 3240,
      "po": 3241,
      "ings": 3242,
      "kn": 3243,
      "sy": 3244,
      "this": 3245,
      "cre": 3246,
      "ould": 3247,
      "some": 3248,
      "16": 3249,
      "ty": 3250,
      "ord": 3251,
      "They": 3252,
      "ov": 3253,
      "them": 3254,
      "sing": 3255,
      "about": 3256,
      "port": 3257,
      "les": 3258,
      "ue": 3259,
      "mov": 3260,
      "ors": 3261,
      "feren": 3262,
      "15": 3263,
      "made": 3264,
      "orn": 3265,
      "any": 3266,
      "more": 3267,
      "tern": 3268,
      "dis": 3269,
      "cause": 3270,
      "II": 3271,
      "go": 3272,
      "ident": 3273,
      "work": 3274,
      "lect": 3275,
      "ign": 3276,
      "Brit": 3277,
      "ib": 3278,
      "ob": 3279,
      "att": 3280,
      "polit": 3281,
      "col": 3282,
      "amp": 3283,
      "spe": 3284,
      "ev": 3285,
      "gen": 3286,
      "ild": 3287,
      "way": 3288,
      "ics": 3289,
      "time": 3290,
      "ser": 3291,
      "ferences": 3292,
      "dif": 3293,
      "ict": 3294,
      "low": 3295,
      "States": 3296,
      "Fran": 3297,
      "two": 3298,
      "vers": 3299,
      "ins": 3300,
      "vis": 3301,
      "ult": 3302,
      "New": 3303,
      "Le": 3304,
      "when": 3305,
      "ick": 3306,
      "into": 3307,
      "Other": 3308,
      "References": 3309,
      "like": 3310,
      "Pr": 3311,
      "German": 3312,
      "io": 3313,
      "came": 3314,
      "ese": 3315,
      "countr": 3316,
      "lar": 3317,
      "ational": 3318,
      "als": 3319,
      "ence": 3320,
      "Nor": 3321,
      "there": 3322,
      "day": 3323,
      "ile": 3324,
      "after": 3325,
      "son": 3326,
      "ug": 3327,
      "Th": 3328,
      "bet": 3329,
      "mar": 3330,
      "cer": 3331,
      "incl": 3332,
      "row": 3333,
      "ral": 3334,
      "webs": 3335,
      "olog": 3336,
      "off": 3337,
      "ations": 3338,
      "ys": 3339,
      "King": 3340,
      "ites": 3341,
      "known": 3342,
      "resident": 3343,
      "than": 3344,
      "ages": 3345,
      "outh": 3346,
      "city": 3347,
      "ton": 3348,
      "ubl": 3349,
      "writer": 3350,
      "ens": 3351,
      "br": 3352,
      "10": 3353,
      "actor": 3354,
      "British": 3355,
      "War": 3356,
      "Ro": 3357,
      "Joh": 3358,
      "ents": 3359,
      "ma": 3360,
      "tain": 3361,
      "oup": 3362,
      "uss": 3363,
      "rench": 3364,
      "foot": 3365,
      "French": 3366,
      "oc": 3367,
      "red": 3368,
      "Sp": 3369,
      "14": 3370,
      "overn": 3371,
      "erson": 3372,
      "ters": 3373,
      "190": 3374,
      "been": 3375,
      "Aust": 3376,
      "because": 3377,
      "Pe": 3378,
      "uring": 3379,
      "ferent": 3380,
      "gan": 3381,
      "ition": 3382,
      "reat": 3383,
      "Con": 3384,
      "fam": 3385,
      "able": 3386,
      "ury": 3387,
      "car": 3388,
      "There": 3389,
      "ase": 3390,
      "publ": 3391,
      "imes": 3392,
      "ost": 3393,
      "ore": 3394,
      "12": 3395,
      "Is": 3396,
      "football": 3397,
      "ann": 3398,
      "air": 3399,
      "int": 3400,
      "only": 3401,
      "Be": 3402,
      "ica": 3403,
      "Wor": 3404,
      "rel": 3405,
      "Com": 3406,
      "different": 3407,
      "ames": 3408,
      "ince": 3409,
      "hel": 3410,
      "politician": 3411,
      "hy": 3412,
      "pop": 3413,
      "ism": 3414,
      "reg": 3415,
      "fl": 3416,
      "produ": 3417,
      "fore": 3418,
      "As": 3419,
      "years": 3420,
      "John": 3421,
      "new": 3422,
      "pos": 3423,
      "mber": 3424,
      "born": 3425,
      "13": 3426,
      "ually": 3427,
      "ah": 3428,
      "music": 3429,
      "found": 3430,
      "apan": 3431,
      "cr": 3432,
      "str": 3433,
      "Japan": 3434,
      "such": 3435,
      "Em": 3436,
      "websites": 3437,
      "oman": 3438,
      "no": 3439,
      "bu": 3440,
      "group": 3441,
      "ina": 3442,
      "singer": 3443,
      "des": 3444,
      "kill": 3445,
      "urn": 3446,
      "Can": 3447,
      "Ital": 3448,
      "ward": 3449,
      "became": 3450,
      "uro": 3451,
      "ular": 3452,
      "ved": 3453,
      "may": 3454,
      "ists": 3455,
      "him": 3456,
      "ction": 3457,
      "elect": 3458,
      "my": 3459,
      "person": 3460,
      "sm": 3461,
      "hen": 3462,
      "ep": 3463,
      "ks": 3464,
      "get": 3465,
      "For": 3466,
      "died": 3467,
      "ily": 3468,
      "ased": 3469,
      "where": 3470,
      "angu": 3471,
      "becom": 3472,
      "Sh": 3473,
      "sa": 3474,
      "min": 3475,
      "cy": 3476,
      "vel": 3477,
      "Ge": 3478,
      "word": 3479,
      "num": 3480,
      "make": 3481,
      "actress": 3482,
      "ween": 3483,
      "player": 3484,
      "ff": 3485,
      "inn": 3486,
      "main": 3487,
      "ale": 3488,
      "ance": 3489,
      "cond": 3490,
      "||": 3491,
      "ons": 3492,
      "ities": 3493,
      "world": 3494,
      "ik": 3495,
      "start": 3496,
      "World": 3497,
      "iss": 3498,
      "cho": 3499,
      "189": 3500,
      "ments": 3501,
      "lin": 3502,
      "Car": 3503,
      "Russ": 3504,
      "cap": 3505,
      "Euro": 3506,
      "hed": 3507,
      "Sc": 3508,
      "ced": 3509,
      "between": 3510,
      "often": 3511,
      "cess": 3512,
      "stem": 3513,
      "ember": 3514,
      "\".": 3515,
      "pres": 3516,
      "ix": 3517,
      "Par": 3518,
      "bir": 3519,
      "vision": 3520,
      "President": 3521,
      "ctor": 3522,
      "az": 3523,
      "Some": 3524,
      "ms": 3525,
      "ely": 3526,
      "will": 3527,
      "war": 3528,
      "let": 3529,
      "langu": 3530,
      "ove": 3531,
      "pre": 3532,
      "0s": 3533,
      "000": 3534,
      "Chr": 3535,
      "ond": 3536,
      "name": 3537,
      "then": 3538,
      "ths": 3539,
      "cord": 3540,
      "She": 3541,
      "includ": 3542,
      "would": 3543,
      "long": 3544,
      "grap": 3545,
      "Jan": 3546,
      "Europe": 3547,
      "cial": 3548,
      "med": 3549,
      "nor": 3550,
      "ful": 3551,
      "On": 3552,
      "ft": 3553,
      "bel": 3554,
      "gy": 3555,
      "she": 3556,
      "mun": 3557,
      "though": 3558,
      "istory": 3559,
      "Wil": 3560,
      "small": 3561,
      "eral": 3562,
      "gu": 3563,
      "song": 3564,
      "Ph": 3565,
      "akes": 3566,
      "under": 3567,
      "Bo": 3568,
      "well": 3569,
      "ower": 3570,
      "century": 3571,
      "vol": 3572,
      "dom": 3573,
      "again": 3574,
      "top": 3575,
      "ship": 3576,
      "band": 3577,
      "sk": 3578,
      "govern": 3579,
      "ister": 3580,
      "thr": 3581,
      "ros": 3582,
      "ose": 3583,
      "je": 3584,
      "footballer": 3585,
      "ever": 3586,
      "ier": 3587,
      "ax": 3588,
      "nam": 3589,
      "ail": 3590,
      "Canad": 3591,
      "iet": 3592,
      "men": 3593,
      "par": 3594,
      "At": 3595,
      "uch": 3596,
      "ash": 3597,
      "Sw": 3598,
      "eng": 3599,
      "ied": 3600,
      "Br": 3601,
      "Pol": 3602,
      "dire": 3603,
      "liam": 3604,
      "bl": 3605,
      "unt": 3606,
      "May": 3607,
      "Roman": 3608,
      "usually": 3609,
      "ivers": 3610,
      "ures": 3611,
      "met": 3612,
      "188": 3613,
      "compos": 3614,
      "Col": 3615,
      "Austral": 3616,
      "public": 3617,
      "ital": 3618,
      "lead": 3619,
      "inter": 3620,
      "ather": 3621,
      "show": 3622,
      "cle": 3623,
      "ants": 3624,
      "omet": 3625,
      "South": 3626,
      "cur": 3627,
      "char": 3628,
      "water": 3629,
      "movie": 3630,
      "gest": 3631,
      "sol": 3632,
      "dr": 3633,
      "same": 3634,
      "levision": 3635,
      "ving": 3636,
      "Jul": 3637,
      "dep": 3638,
      "death": 3639,
      "ual": 3640,
      "state": 3641,
      "Or": 3642,
      "ious": 3643,
      "Italian": 3644,
      "enn": 3645,
      "ley": 3646,
      "ves": 3647,
      "now": 3648,
      "lands": 3649,
      "king": 3650,
      "ric": 3651,
      "ution": 3652,
      "bers": 3653,
      "Scot": 3654,
      "fin": 3655,
      "Gr": 3656,
      "system": 3657,
      "iel": 3658,
      "set": 3659,
      "England": 3660,
      "during": 3661,
      "ample": 3662,
      "country": 3663,
      "Pro": 3664,
      "app": 3665,
      "number": 3666,
      "arch": 3667,
      "11": 3668,
      "hu": 3669,
      "Min": 3670,
      "ium": 3671,
      "sur": 3672,
      "une": 3673,
      "Af": 3674,
      "Rel": 3675,
      "ger": 3676,
      "cient": 3677,
      "ven": 3678,
      "ouse": 3679,
      "la": 3680,
      "cont": 3681,
      "France": 3682,
      "bum": 3683,
      "three": 3684,
      "ody": 3685,
      "these": 3686,
      "cts": 3687,
      "eb": 3688,
      "bert": 3689,
      "life": 3690,
      "thing": 3691,
      "led": 3692,
      "ology": 3693,
      "vent": 3694,
      "Christ": 3695,
      "example": 3696,
      "did": 3697,
      "back": 3698,
      "through": 3699,
      "ating": 3700,
      "When": 3701,
      "television": 3702,
      "Geor": 3703,
      "later": 3704,
      "187": 3705,
      "countries": 3706,
      "uary": 3707,
      "ative": 3708,
      "ste": 3709,
      "How": 3710,
      "how": 3711,
      "import": 3712,
      "common": 3713,
      "Aug": 3714,
      "186": 3715,
      "mill": 3716,
      "Ed": 3717,
      "North": 3718,
      "ork": 3719,
      "ble": 3720,
      "January": 3721,
      "right": 3722,
      "aking": 3723,
      "law": 3724,
      "tow": 3725,
      "read": 3726,
      "Ear": 3727,
      "August": 3728,
      "Germany": 3729,
      "Je": 3730,
      "Wh": 3731,
      "Ind": 3732,
      "rele": 3733,
      "book": 3734,
      "ature": 3735,
      "Ad": 3736,
      "help": 3737,
      "ometimes": 3738,
      "around": 3739,
      "ai": 3740,
      "ave": 3741,
      "cover": 3742,
      "rop": 3743,
      "estab": 3744,
      "ude": 3745,
      "child": 3746,
      "Japanese": 3747,
      "government": 3748,
      "Pl": 3749,
      "contr": 3750,
      "second": 3751,
      "bur": 3752,
      "leg": 3753,
      "ret": 3754,
      "ise": 3755,
      "These": 3756,
      "cal": 3757,
      "album": 3758,
      "offic": 3759,
      "itt": 3760,
      "power": 3761,
      "language": 3762,
      "Cl": 3763,
      "urch": 3764,
      "being": 3765,
      "ung": 3766,
      "light": 3767,
      "ians": 3768,
      "dist": 3769,
      "fol": 3770,
      "important": 3771,
      "could": 3772,
      "pages": 3773,
      "organ": 3774,
      "anish": 3775,
      "Afr": 3776,
      "ze": 3777,
      "anim": 3778,
      "Mus": 3779,
      "ars": 3780,
      "March": 3781,
      "Gu": 3782,
      "Char": 3783,
      "thern": 3784,
      "sim": 3785,
      "Bl": 3786,
      "depend": 3787,
      "US": 3788,
      "Oc": 3789,
      "each": 3790,
      "key": 3791,
      "ner": 3792,
      "means": 3793,
      "chool": 3794,
      "area": 3795,
      "After": 3796,
      "cell": 3797,
      "Mon": 3798,
      "ones": 3799,
      "place": 3800,
      "York": 3801,
      "People": 3802,
      "present": 3803,
      "plac": 3804,
      "things": 3805,
      "Her": 3806,
      "cons": 3807,
      "ator": 3808,
      "Related": 3809,
      "Sept": 3810,
      "25": 3811,
      "Fr": 3812,
      "add": 3813,
      "els": 3814,
      "musician": 3815,
      "before": 3816,
      "series": 3817,
      "oper": 3818,
      "sc": 3819,
      "live": 3820,
      "jo": 3821,
      "Bar": 3822,
      "Li": 3823,
      "His": 3824,
      "ink": 3825,
      "mil": 3826,
      "ished": 3827,
      "ony": 3828,
      "large": 3829,
      "town": 3830,
      "what": 3831,
      "Cal": 3832,
      "September": 3833,
      "ple": 3834,
      "\",": 3835,
      "30": 3836,
      "Ber": 3837,
      "Gree": 3838,
      "bro": 3839,
      "William": 3840,
      "21": 3841,
      "aur": 3842,
      "Many": 3843,
      "2014": 3844,
      "four": 3845,
      "yn": 3846,
      "Russian": 3847,
      "sel": 3848,
      "ches": 3849,
      "order": 3850,
      "big": 3851,
      "Dece": 3852,
      "less": 3853,
      "bre": 3854,
      "Apr": 3855,
      "said": 3856,
      "July": 3857,
      "Har": 3858,
      "Me": 3859,
      "ox": 3860,
      "ham": 3861,
      "December": 3862,
      "April": 3863,
      "near": 3864,
      "ural": 3865,
      "body": 3866,
      "giv": 3867,
      "Day": 3868,
      "ae": 3869,
      "until": 3870,
      "Mic": 3871,
      "tober": 3872,
      "Coun": 3873,
      "put": 3874,
      "bus": 3875,
      "rest": 3876,
      "much": 3877,
      "side": 3878,
      "October": 3879,
      "chan": 3880,
      "started": 3881,
      "iversity": 3882,
      "ats": 3883,
      "say": 3884,
      "aint": 3885,
      "phys": 3886,
      "dec": 3887,
      "famous": 3888,
      "ask": 3889,
      "against": 3890,
      "Ex": 3891,
      "mean": 3892,
      "attle": 3893,
      "human": 3894,
      "sub": 3895,
      "BC": 3896,
      "June": 3897,
      "chang": 3898,
      "inal": 3899,
      "Gen": 3900,
      "ler": 3901,
      "ason": 3902,
      "cted": 3903,
      "val": 3904,
      "sup": 3905,
      "last": 3906,
      "und": 3907,
      "veral": 3908,
      "ield": 3909,
      "family": 3910,
      "Nove": 3911,
      "2006": 3912,
      "Air": 3913,
      "2005": 3914,
      "November": 3915,
      "Kingdom": 3916,
      "record": 3917,
      "vi": 3918,
      "Feb": 3919,
      "National": 3920,
      "2017": 3921,
      "Febru": 3922,
      "February": 3923,
      "see": 3924,
      "uses": 3925,
      "million": 3926,
      "gram": 3927,
      "Tr": 3928,
      "Man": 3929,
      "mem": 3930,
      "including": 3931,
      "22": 3932,
      "popular": 3933,
      "All": 3934,
      "ways": 3935,
      "ible": 3936,
      "velop": 3937,
      "line": 3938,
      "cies": 3939,
      "185": 3940,
      "composer": 3941,
      "named": 3942,
      "Minister": 3943,
      "So": 3944,
      "both": 3945,
      "Co": 3946,
      "dia": 3947,
      "van": 3948,
      "rock": 3949,
      "City": 3950,
      "ods": 3951,
      "follow": 3952,
      "plan": 3953,
      "ulation": 3954,
      "every": 3955,
      "sign": 3956,
      "peri": 3957,
      "ines": 3958,
      "Ab": 3959,
      "ific": 3960,
      "ets": 3961,
      "tal": 3962,
      "mp": 3963,
      "high": 3964,
      "Prime": 3965,
      "lot": 3966,
      "2001": 3967,
      "team": 3968,
      "capital": 3969,
      "Lu": 3970,
      "However": 3971,
      "2000": 3972,
      "Canadian": 3973,
      "pire": 3974,
      "2007": 3975,
      "aul": 3976,
      "And": 3977,
      "still": 3978,
      "lex": 3979,
      "ef": 3980,
      "Spanish": 3981,
      "need": 3982,
      "vid": 3983,
      "build": 3984,
      "ison": 3985,
      "belie": 3986,
      "2015": 3987,
      "iver": 3988,
      "xt": 3989,
      "using": 3990,
      "groups": 3991,
      "trans": 3992,
      "ried": 3993,
      "En": 3994,
      "head": 3995,
      "que": 3996,
      "down": 3997,
      "stru": 3998,
      "since": 3999,
      "ope": 4000,
      "eas": 4001,
      "even": 4002,
      "becomes": 4003,
      "Ste": 4004,
      "ondon": 4005,
      "hes": 4006,
      "while": 4007,
      "does": 4008,
      "184": 4009,
      "23": 4010,
      "London": 4011,
      "run": 4012,
      "2004": 4013,
      "mb": 4014,
      "orig": 4015,
      "ney": 4016,
      "move": 4017,
      "idd": 4018,
      "several": 4019,
      "jor": 4020,
      "Mo": 4021,
      "sometimes": 4022,
      "charac": 4023,
      "births": 4024,
      "released": 4025,
      "History": 4026,
      "establish": 4027,
      "Phil": 4028,
      "Hen": 4029,
      "ele": 4030,
      "America": 4031,
      "gre": 4032,
      "game": 4033,
      "cept": 4034,
      "suc": 4035,
      "another": 4036,
      "ban": 4037,
      "stand": 4038,
      "develop": 4039,
      "former": 4040,
      "allow": 4041,
      "chem": 4042,
      "won": 4043,
      "want": 4044,
      "stud": 4045,
      "rad": 4046,
      "Most": 4047,
      "Scott": 4048,
      "Ser": 4049,
      "vil": 4050,
      "24": 4051,
      "ject": 4052,
      "var": 4053,
      "conom": 4054,
      "Sy": 4055,
      "ron": 4056,
      "grow": 4057,
      "aster": 4058,
      "ternational": 4059,
      "Part": 4060,
      "We": 4061,
      "beg": 4062,
      "West": 4063,
      "control": 4064,
      "University": 4065,
      "include": 4066,
      "One": 4067,
      "ius": 4068,
      "test": 4069,
      "2018": 4070,
      "fect": 4071,
      "Wal": 4072,
      "Hol": 4073,
      "ster": 4074,
      "mat": 4075,
      "tw": 4076,
      "rul": 4077,
      "happ": 4078,
      "ross": 4079,
      "good": 4080,
      "Republic": 4081,
      "ared": 4082,
      "contin": 4083,
      "ama": 4084,
      "peror": 4085,
      "Per": 4086,
      "become": 4087,
      "parts": 4088,
      "blo": 4089,
      "soci": 4090,
      "school": 4091,
      "ened": 4092,
      "gether": 4093,
      "James": 4094,
      "ional": 4095,
      "largest": 4096,
      "Govern": 4097,
      "If": 4098,
      "50": 4099,
      "fil": 4100,
      "ider": 4101,
      "Ang": 4102,
      "appe": 4103,
      "To": 4104,
      "George": 4105,
      "stit": 4106,
      "istor": 4107,
      "Award": 4108,
      "graphy": 4109,
      "movies": 4110,
      "cut": 4111,
      "estern": 4112,
      "left": 4113,
      "omen": 4114,
      "del": 4115,
      "just": 4116,
      "Indian": 4117,
      "pes": 4118,
      "Cent": 4119,
      "itary": 4120,
      "early": 4121,
      "written": 4122,
      "2003": 4123,
      "2016": 4124,
      "Su": 4125,
      "children": 4126,
      "Te": 4127,
      "class": 4128,
      "mark": 4129,
      "ends": 4130,
      "Bel": 4131,
      "Go": 4132,
      "serv": 4133,
      "Ac": 4134,
      "ling": 4135,
      "mag": 4136,
      "China": 4137,
      "based": 4138,
      "look": 4139,
      "cri": 4140,
      "Que": 4141,
      "kind": 4142,
      "phil": 4143,
      "Swed": 4144,
      "history": 4145,
      "establishments": 4146,
      "rent": 4147,
      "rote": 4148,
      "hand": 4149,
      "ized": 4150,
      "tem": 4151,
      "ague": 4152,
      "tre": 4153,
      "Du": 4154,
      "relig": 4155,
      "oney": 4156,
      "ting": 4157,
      "oss": 4158,
      "director": 4159,
      "together": 4160,
      "26": 4161,
      "formed": 4162,
      "uter": 4163,
      "words": 4164,
      "ilt": 4165,
      "sport": 4166,
      "Empire": 4167,
      "Paul": 4168,
      "ird": 4169,
      "species": 4170,
      "Bra": 4171,
      "far": 4172,
      "wrote": 4173,
      "iness": 4174,
      "Fl": 4175,
      "played": 4176,
      "ountain": 4177,
      "began": 4178,
      "cult": 4179,
      "El": 4180,
      "equ": 4181,
      "stor": 4182,
      "Australia": 4183,
      "ago": 4184,
      "Sov": 4185,
      "Dav": 4186,
      "poet": 4187,
      "times": 4188,
      "Soviet": 4189,
      "killed": 4190,
      "pass": 4191,
      "field": 4192,
      "Austr": 4193,
      "India": 4194,
      "father": 4195,
      "program": 4196,
      "attack": 4197,
      "itar": 4198,
      "omb": 4199,
      "ana": 4200,
      "Church": 4201,
      "nia": 4202,
      "Lou": 4203,
      "commun": 4204,
      "Charles": 4205,
      "expl": 4206,
      "28": 4207,
      "lim": 4208,
      "short": 4209,
      "Union": 4210,
      "makes": 4211,
      "III": 4212,
      "actors": 4213,
      "Ma": 4214,
      "iter": 4215,
      "home": 4216,
      "Med": 4217,
      "oto": 4218,
      "rain": 4219,
      "sex": 4220,
      "change": 4221,
      "Port": 4222,
      "Greek": 4223,
      "aut": 4224,
      "hard": 4225,
      "great": 4226,
      "27": 4227,
      "ener": 4228,
      "net": 4229,
      "2002": 4230,
      "Australian": 4231,
      "deaths": 4232,
      "iew": 4233,
      "2019": 4234,
      "themat": 4235,
      "aves": 4236,
      "ford": 4237,
      "Rich": 4238,
      "major": 4239,
      "2013": 4240,
      "cor": 4241,
      "population": 4242,
      "osop": 4243,
      "augh": 4244,
      "few": 4245,
      "vide": 4246,
      "alt": 4247,
      "food": 4248,
      "ought": 4249,
      "point": 4250,
      "Christian": 4251,
      "alth": 4252,
      "Henry": 4253,
      "roy": 4254,
      "created": 4255,
      "ices": 4256,
      "183": 4257,
      "2010": 4258,
      "rown": 4259,
      "God": 4260,
      "dies": 4261,
      "flu": 4262,
      "activ": 4263,
      ".\"": 4264,
      "Sch": 4265,
      "trad": 4266,
      "29": 4267,
      "states": 4268,
      "Death": 4269,
      "built": 4270,
      "Scottish": 4271,
      "come": 4272,
      "2008": 4273,
      "ped": 4274,
      "take": 4275,
      "ges": 4276,
      "partic": 4277,
      "Great": 4278,
      "type": 4279,
      "president": 4280,
      "ene": 4281,
      "na": 4282,
      "gar": 4283,
      "ata": 4284,
      "best": 4285,
      "ides": 4286,
      "2012": 4287,
      "har": 4288,
      "econom": 4289,
      "Chin": 4290,
      "formation": 4291,
      "uc": 4292,
      "river": 4293,
      "ald": 4294,
      "ically": 4295,
      "hol": 4296,
      "pat": 4297,
      "Ir": 4298,
      "Cali": 4299,
      "members": 4300,
      "leader": 4301,
      "From": 4302,
      "making": 4303,
      "term": 4304,
      "Kore": 4305,
      "Mc": 4306,
      "ids": 4307,
      "prote": 4308,
      "Tur": 4309,
      "mal": 4310,
      "went": 4311,
      "Emperor": 4312,
      "press": 4313,
      "European": 4314,
      "ize": 4315,
      "design": 4316,
      "thought": 4317,
      "moder": 4318,
      "ush": 4319,
      "pen": 4320,
      "By": 4321,
      "..": 4322,
      "iddle": 4323,
      "cour": 4324,
      "divid": 4325,
      "given": 4326,
      "East": 4327,
      "uel": 4328,
      "west": 4329,
      "ilar": 4330,
      "stop": 4331,
      "ases": 4332,
      "istan": 4333,
      "Robert": 4334,
      "pain": 4335,
      "ired": 4336,
      "ended": 4337,
      "view": 4338,
      "burg": 4339,
      "2009": 4340,
      "vo": 4341,
      "strong": 4342,
      "Cath": 4343,
      "ground": 4344,
      "ount": 4345,
      "Off": 4346,
      "gian": 4347,
      "list": 4348,
      "north": 4349,
      "ho": 4350,
      "ico": 4351,
      "success": 4352,
      "za": 4353,
      "180": 4354,
      "official": 4355,
      "aren": 4356,
      "Chinese": 4357,
      "took": 4358,
      "Earth": 4359,
      "2011": 4360,
      "omin": 4361,
      "atic": 4362,
      "ps": 4363,
      "sto": 4364,
      "Ev": 4365,
      "km": 4366,
      "you": 4367,
      "moved": 4368,
      "Dut": 4369,
      "pie": 4370,
      "Califor": 4371,
      "bar": 4372,
      "Party": 4373,
      "Pal": 4374,
      "ots": 4375,
      "south": 4376,
      "por": 4377,
      "Oly": 4378,
      "vir": 4379,
      "mathemat": 4380,
      "Olymp": 4381,
      "Alex": 4382,
      "bi": 4383,
      "Battle": 4384,
      "independ": 4385,
      "games": 4386,
      "Hu": 4387,
      "gl": 4388,
      "ality": 4389,
      "proble": 4390,
      "Am": 4391,
      "general": 4392,
      "ey": 4393,
      "zer": 4394,
      "wood": 4395,
      "Lat": 4396,
      "cop": 4397,
      "try": 4398,
      "special": 4399,
      "1999": 4400,
      "California": 4401,
      "ples": 4402,
      "100": 4403,
      "Cr": 4404,
      "national": 4405,
      "sound": 4406,
      "nat": 4407,
      "179": 4408,
      "thor": 4409,
      "philosop": 4410,
      "Str": 4411,
      "ummer": 4412,
      "modern": 4413,
      "fic": 4414,
      "Mex": 4415,
      "nu": 4416,
      "hal": 4417,
      "nal": 4418,
      "ives": 4419,
      "Africa": 4420,
      "San": 4421,
      "support": 4422,
      "ards": 4423,
      "self": 4424,
      "should": 4425,
      "First": 4426,
      "ander": 4427,
      "histor": 4428,
      "living": 4429,
      "Dis": 4430,
      "But": 4431,
      "money": 4432,
      "cities": 4433,
      "energy": 4434,
      "oung": 4435,
      "Not": 4436,
      "Canada": 4437,
      "gener": 4438,
      "Up": 4439,
      "ino": 4440,
      "stu": 4441,
      "Act": 4442,
      "house": 4443,
      "hig": 4444,
      "Cathol": 4445,
      "know": 4446,
      "works": 4447,
      "ont": 4448,
      "yle": 4449,
      "Dutch": 4450,
      "animals": 4451,
      "member": 4452,
      "scient": 4453,
      "ility": 4454,
      "military": 4455,
      "period": 4456,
      "fun": 4457,
      "1990": 4458,
      "ank": 4459,
      "fall": 4460,
      "winn": 4461,
      "arn": 4462,
      "Gre": 4463,
      "House": 4464,
      "Russia": 4465,
      "1975": 4466,
      "Mal": 4467,
      "win": 4468,
      "without": 4469,
      "ls": 4470,
      "fri": 4471,
      "prof": 4472,
      "inv": 4473,
      "care": 4474,
      "similar": 4475,
      "color": 4476,
      "business": 4477,
      "astr": 4478,
      "comm": 4479,
      "rich": 4480,
      "island": 4481,
      "1976": 4482,
      "gypt": 4483,
      "Don": 4484,
      "too": 4485,
      "those": 4486,
      "1996": 4487,
      "1991": 4488,
      "ues": 4489,
      "Armen": 4490,
      "1989": 4491,
      "cean": 4492,
      "mother": 4493,
      "rug": 4494,
      "region": 4495,
      "got": 4496,
      "uk": 4497,
      "1998": 4498,
      "Thom": 4499,
      "1900": 4500,
      "1945": 4501,
      "days": 4502,
      "International": 4503,
      "defe": 4504,
      "find": 4505,
      "guitar": 4506,
      "poss": 4507,
      "here": 4508,
      "base": 4509,
      "flow": 4510,
      "Mor": 4511,
      "zil": 4512,
      "During": 4513,
      "hold": 4514,
      "idge": 4515,
      "aim": 4516,
      "must": 4517,
      "chn": 4518,
      "comes": 4519,
      "Louis": 4520,
      "ness": 4521,
      "ittle": 4522,
      "bab": 4523,
      "languages": 4524,
      "graph": 4525,
      "Egypt": 4526,
      "discover": 4527,
      "cience": 4528,
      "level": 4529,
      "ization": 4530,
      "ement": 4531,
      "sent": 4532,
      "political": 4533,
      "sou": 4534,
      "fight": 4535,
      "--": 4536,
      "avy": 4537,
      "1980": 4538,
      "descri": 4539,
      "Italy": 4540,
      "River": 4541,
      "producer": 4542,
      "1994": 4543,
      "volution": 4544,
      "types": 4545,
      "Mac": 4546,
      "cis": 4547,
      "Che": 4548,
      "ark": 4549,
      "Jew": 4550,
      "Brazil": 4551,
      "Richard": 4552,
      "oy": 4553,
      "requ": 4554,
      "five": 4555,
      "lived": 4556,
      "1995": 4557,
      "away": 4558,
      "Spain": 4559,
      "join": 4560,
      "places": 4561,
      "Ca": 4562,
      "songwriter": 4563,
      "40": 4564,
      "jour": 4565,
      "David": 4566,
      "Val": 4567,
      "computer": 4568,
      "stead": 4569,
      "founded": 4570,
      "Governor": 4571,
      "itions": 4572,
      "tell": 4573,
      "Bu": 4574,
      "Pope": 4575,
      "Pri": 4576,
      "Sal": 4577,
      "god": 4578,
      "1979": 4579,
      "African": 4580,
      "ds": 4581,
      "ops": 4582,
      "ety": 4583,
      "real": 4584,
      "1997": 4585,
      "next": 4586,
      "ming": 4587,
      "1981": 4588,
      "onom": 4589,
      "Sim": 4590,
      "Do": 4591,
      "den": 4592,
      "mass": 4593,
      "lam": 4594,
      "Sun": 4595,
      "fem": 4596,
      "1992": 4597,
      "cast": 4598,
      "stre": 4599,
      "clear": 4600,
      "urr": 4601,
      "six": 4602,
      "held": 4603,
      "sw": 4604,
      "Jer": 4605,
      "face": 4606,
      "cil": 4607,
      "1986": 4608,
      "1901": 4609,
      "1950": 4610,
      "turn": 4611,
      "books": 4612,
      "Cam": 4613,
      "Mary": 4614,
      "ropical": 4615,
      "atom": 4616,
      "trav": 4617,
      "iving": 4618,
      "1993": 4619,
      "ted": 4620,
      "Jack": 4621,
      "hael": 4622,
      "eat": 4623,
      "dam": 4624,
      "mbol": 4625,
      "Mart": 4626,
      "dest": 4627,
      "sea": 4628,
      "fish": 4629,
      "imate": 4630,
      "women": 4631,
      "ays": 4632,
      "gent": 4633,
      "1987": 4634,
      "blood": 4635,
      "action": 4636,
      "comed": 4637,
      "season": 4638,
      "keep": 4639,
      "Frank": 4640,
      "vin": 4641,
      "La": 4642,
      "1988": 4643,
      "ument": 4644,
      "ife": 4645,
      "miss": 4646,
      "sl": 4647,
      "1982": 4648,
      "Qu": 4649,
      "Dr": 4650,
      "contain": 4651,
      "third": 4652,
      "story": 4653,
      "1985": 4654,
      "consider": 4655,
      "Queen": 4656,
      "bed": 4657,
      "1973": 4658,
      "rael": 4659,
      "Roy": 4660,
      "mountain": 4661,
      "Arab": 4662,
      "Bir": 4663,
      "others": 4664,
      "fire": 4665,
      "Comp": 4666,
      "train": 4667,
      "ta": 4668,
      "stat": 4669,
      "berg": 4670,
      "pian": 4671,
      "1983": 4672,
      "Jose": 4673,
      "Peter": 4674,
      "author": 4675,
      "60": 4676,
      "My": 4677,
      "host": 4678,
      "engine": 4679,
      "raft": 4680,
      "1984": 4681,
      "ington": 4682,
      "character": 4683,
      "31": 4684,
      "ei": 4685,
      "No": 4686,
      "ute": 4687,
      "non": 4688,
      "changed": 4689,
      "178": 4690,
      "tit": 4691,
      "cycl": 4692,
      "free": 4693,
      "Irish": 4694,
      "Sam": 4695,
      "along": 4696,
      "aper": 4697,
      "single": 4698,
      "plants": 4699,
      "Israel": 4700,
      "State": 4701,
      "married": 4702,
      "study": 4703,
      "|-": 4704,
      "ery": 4705,
      "Edward": 4706,
      "Catholic": 4707,
      "killing": 4708,
      "board": 4709,
      "1951": 4710,
      "tar": 4711,
      "wanted": 4712,
      "something": 4713,
      "creen": 4714,
      "viol": 4715,
      "Ire": 4716,
      "1974": 4717,
      "website": 4718,
      "aken": 4719,
      "Red": 4720,
      "space": 4721,
      "open": 4722,
      "struct": 4723,
      "songs": 4724,
      "seen": 4725,
      "1944": 4726,
      "Portug": 4727,
      "1970": 4728,
      "sen": 4729,
      "symbol": 4730,
      "1971": 4731,
      "NA": 4732,
      "bon": 4733,
      "Ze": 4734,
      "nov": 4735,
      "Arch": 4736,
      "ured": 4737,
      "1972": 4738,
      "Park": 4739,
      "learn": 4740,
      "1969": 4741,
      "Bro": 4742,
      "return": 4743,
      "Mil": 4744,
      "night": 4745,
      "invent": 4746,
      "ara": 4747,
      "ull": 4748,
      "Er": 4749,
      "anc": 4750,
      "Michael": 4751,
      "istr": 4752,
      "osaur": 4753,
      "hor": 4754,
      "meaning": 4755,
      "force": 4756,
      "ised": 4757,
      "Thomas": 4758,
      "Ter": 4759,
      "gg": 4760,
      "areas": 4761,
      "lines": 4762,
      "bor": 4763,
      "natural": 4764,
      "Fer": 4765,
      "Saint": 4766,
      "tle": 4767,
      "temper": 4768,
      "iction": 4769,
      "Black": 4770,
      "reed": 4771,
      "Asia": 4772,
      "Deaths": 4773,
      "Pat": 4774,
      "chemical": 4775,
      "star": 4776,
      "forms": 4777,
      "Sm": 4778,
      "certain": 4779,
      "Offic": 4780,
      "forces": 4781,
      "ref": 4782,
      "version": 4783,
      "Ireland": 4784,
      "bad": 4785,
      "General": 4786,
      "1967": 4787,
      "mostly": 4788,
      "meas": 4789,
      "current": 4790,
      "numbers": 4791,
      "Atl": 4792,
      "cul": 4793,
      "1968": 4794,
      "acc": 4795,
      "cially": 4796,
      "metal": 4797,
      "ynast": 4798,
      "Po": 4799,
      "gas": 4800,
      "hi": 4801,
      "aterial": 4802,
      "1920": 4803,
      "ades": 4804,
      "separ": 4805,
      "raw": 4806,
      "bal": 4807,
      "mocr": 4808,
      "black": 4809,
      "acy": 4810,
      "cir": 4811,
      "fact": 4812,
      "Hung": 4813,
      "Mer": 4814,
      "You": 4815,
      "eth": 4816,
      "Nob": 4817,
      "Swedish": 4818,
      "1942": 4819,
      "bin": 4820,
      "ula": 4821,
      "shire": 4822,
      "Pre": 4823,
      "round": 4824,
      "1978": 4825,
      "Best": 4826,
      "Its": 4827,
      "1977": 4828,
      "Ot": 4829,
      "adem": 4830,
      "ows": 4831,
      "1946": 4832,
      "squ": 4833,
      "white": 4834,
      "Kar": 4835,
      "clo": 4836,
      "Philip": 4837,
      "vot": 4838,
      "instr": 4839,
      "ologist": 4840,
      "Polish": 4841,
      "Cor": 4842,
      "video": 4843,
      "bas": 4844,
      "1960": 4845,
      "1964": 4846,
      "east": 4847,
      "company": 4848,
      "half": 4849,
      "refer": 4850,
      "GB": 4851,
      "artist": 4852,
      "cret": 4853,
      "painter": 4854,
      "rac": 4855,
      "1941": 4856,
      "journal": 4857,
      "da": 4858,
      "Vir": 4859,
      "1940": 4860,
      "philosopher": 4861,
      "Sol": 4862,
      "1947": 4863,
      "Mag": 4864,
      "done": 4865,
      "ris": 4866,
      "ships": 4867,
      "direct": 4868,
      "antic": 4869,
      "stant": 4870,
      "List": 4871,
      "ning": 4872,
      "Scotland": 4873,
      "Latin": 4874,
      "remain": 4875,
      "decl": 4876,
      "That": 4877,
      "Events": 4878,
      "give": 4879,
      "process": 4880,
      "range": 4881,
      "ked": 4882,
      "Western": 4883,
      "Bas": 4884,
      "League": 4885,
      "condu": 4886,
      "uan": 4887,
      "Sea": 4888,
      "fur": 4889,
      "material": 4890,
      "1948": 4891,
      "Because": 4892,
      "profess": 4893,
      "Tom": 4894,
      "plant": 4895,
      "bour": 4896,
      "film": 4897,
      "177": 4898,
      "tro": 4899,
      "ston": 4900,
      "earth": 4901,
      "almost": 4902,
      "clos": 4903,
      "liament": 4904,
      "cu": 4905,
      "wife": 4906,
      "Bur": 4907,
      "think": 4908,
      "placed": 4909,
      "ived": 4910,
      "position": 4911,
      "Paris": 4912,
      "Sat": 4913,
      "craft": 4914,
      "gin": 4915,
      "takes": 4916,
      "today": 4917,
      "cannot": 4918,
      "speak": 4919,
      "yr": 4920,
      "ockey": 4921,
      "bit": 4922,
      "UK": 4923,
      "always": 4924,
      "ply": 4925,
      "following": 4926,
      "1925": 4927,
      "Prince": 4928,
      ".,": 4929,
      "social": 4930,
      "wind": 4931,
      "Cap": 4932,
      "von": 4933,
      "yl": 4934,
      "ti": 4935,
      "enter": 4936,
      "1929": 4937,
      "treat": 4938,
      "1930": 4939,
      "aged": 4940,
      "Official": 4941,
      "mot": 4942,
      "uments": 4943,
      "Britain": 4944,
      "Wind": 4945,
      "ida": 4946,
      "cus": 4947,
      "army": 4948,
      "soldi": 4949,
      "sure": 4950,
      "electric": 4951,
      "tradition": 4952,
      "information": 4953,
      "pri": 4954,
      "1918": 4955,
      "1926": 4956,
      "1961": 4957,
      "Sing": 4958,
      "pur": 4959,
      "Gl": 4960,
      "might": 4961,
      "issu": 4962,
      "wee": 4963,
      "building": 4964,
      "1965": 4965,
      "Dan": 4966,
      "cording": 4967,
      "hot": 4968,
      "center": 4969,
      "never": 4970,
      "caused": 4971,
      "aver": 4972,
      "conne": 4973,
      "ography": 4974,
      "sour": 4975,
      "lete": 4976,
      "thod": 4977,
      "1949": 4978,
      "1939": 4979,
      "elf": 4980,
      "Angel": 4981,
      "woman": 4982,
      "1936": 4983,
      "cher": 4984,
      "loc": 4985,
      "origin": 4986,
      "Gold": 4987,
      "Living": 4988,
      "result": 4989,
      "science": 4990,
      "Duke": 4991,
      "gave": 4992,
      "event": 4993,
      "resp": 4994,
      "1928": 4995,
      "rece": 4996,
      "1963": 4997,
      "Francis": 4998,
      "influ": 4999,
      "claim": 5000,
      "Islam": 5001,
      "oot": 5002,
      "ait": 5003,
      "vince": 5004,
      "birth": 5005,
      "County": 5006,
      "ynasty": 5007,
      "icist": 5008,
      "1943": 5009,
      "stitution": 5010,
      "Island": 5011,
      "1962": 5012,
      "arian": 5013,
      "espe": 5014,
      "style": 5015,
      "indust": 5016,
      "Ap": 5017,
      "young": 5018,
      "arm": 5019,
      "having": 5020,
      "Ben": 5021,
      "tin": 5022,
      "tour": 5023,
      "oph": 5024,
      "asket": 5025,
      "Iran": 5026,
      "Den": 5027,
      "Ham": 5028,
      "ival": 5029,
      "daugh": 5030,
      "osp": 5031,
      "original": 5032,
      "1932": 5033,
      "brother": 5034,
      "With": 5035,
      "Pak": 5036,
      "ched": 5037,
      "screen": 5038,
      "taken": 5039,
      "20th": 5040,
      "better": 5041,
      "ane": 5042,
      "atch": 5043,
      "Mov": 5044,
      "1966": 5045,
      "includes": 5046,
      "era": 5047,
      "especially": 5048,
      "uck": 5049,
      "ampion": 5050,
      "1924": 5051,
      "mix": 5052,
      "ference": 5053,
      "Royal": 5054,
      "1934": 5055,
      "ena": 5056,
      "box": 5057,
      "civil": 5058,
      "die": 5059,
      "ump": 5060,
      "techn": 5061,
      "coast": 5062,
      "olf": 5063,
      "sey": 5064,
      "1956": 5065,
      "mach": 5066,
      "inside": 5067,
      "Res": 5068,
      "late": 5069,
      "1933": 5070,
      "Spe": 5071,
      "rec": 5072,
      "eds": 5073,
      "def": 5074,
      "vice": 5075,
      "published": 5076,
      "writing": 5077,
      "elected": 5078,
      "sch": 5079,
      "urrican": 5080,
      "1927": 5081,
      "cells": 5082,
      "Mad": 5083,
      "ager": 5084,
      "mathematician": 5085,
      "considered": 5086,
      "anger": 5087,
      "Lo": 5088,
      "Argent": 5089,
      "related": 5090,
      "model": 5091,
      "ini": 5092,
      "Art": 5093,
      "pal": 5094,
      "exist": 5095,
      "amples": 5096,
      "rap": 5097,
      "incre": 5098,
      "White": 5099,
      "1922": 5100,
      "IV": 5101,
      "cup": 5102,
      "1937": 5103,
      "bser": 5104,
      "astern": 5105,
      "Met": 5106,
      "TV": 5107,
      "1923": 5108,
      "ours": 5109,
      "ators": 5110,
      "wall": 5111,
      "ories": 5112,
      "1931": 5113,
      "Tran": 5114,
      "1938": 5115,
      "1958": 5116,
      "problems": 5117,
      "zo": 5118,
      "Miss": 5119,
      "ease": 5120,
      "ams": 5121,
      "idea": 5122,
      "Ocean": 5123,
      "Wash": 5124,
      "ged": 5125,
      "unk": 5126,
      "proper": 5127,
      "bot": 5128,
      "ially": 5129,
      "concer": 5130,
      "journalist": 5131,
      "Book": 5132,
      "Commun": 5133,
      "Fre": 5134,
      "Ty": 5135,
      "lost": 5136,
      "occur": 5137,
      "cel": 5138,
      "least": 5139,
      "players": 5140,
      "continu": 5141,
      "instead": 5142,
      "characters": 5143,
      "Joseph": 5144,
      "either": 5145,
      "Jean": 5146,
      "Austrian": 5147,
      "shows": 5148,
      "prison": 5149,
      "camp": 5150,
      "role": 5151,
      "changes": 5152,
      "Andre": 5153,
      "ka": 5154,
      "radio": 5155,
      "lab": 5156,
      "little": 5157,
      "possible": 5158,
      "asketball": 5159,
      "Sou": 5160,
      "break": 5161,
      "aland": 5162,
      "Pakistan": 5163,
      "Des": 5164,
      "ky": 5165,
      "1959": 5166,
      "exe": 5167,
      "successful": 5168,
      "Fil": 5169,
      "mic": 5170,
      "heart": 5171,
      "1952": 5172,
      "1957": 5173,
      "someone": 5174,
      "destroy": 5175,
      "din": 5176,
      "Cast": 5177,
      "lav": 5178,
      "80": 5179,
      "hip": 5180,
      "oft": 5181,
      "1954": 5182,
      "paint": 5183,
      "oll": 5184,
      "1935": 5185,
      "Mi": 5186,
      "crit": 5187,
      "dri": 5188,
      "Their": 5189,
      "church": 5190,
      "Eli": 5191,
      "appear": 5192,
      "Lord": 5193,
      "atures": 5194,
      "disease": 5195,
      "worked": 5196,
      "Cup": 5197,
      "Im": 5198,
      "dio": 5199,
      "text": 5200,
      "ayer": 5201,
      "useum": 5202,
      "Gi": 5203,
      "amount": 5204,
      "Grand": 5205,
      "ancient": 5206,
      "1921": 5207,
      "developed": 5208,
      "active": 5209,
      "Star": 5210,
      "physicist": 5211,
      "begins": 5212,
      "dy": 5213,
      "western": 5214,
      "ental": 5215,
      "ances": 5216,
      "local": 5217,
      "Mass": 5218,
      "stra": 5219,
      "defin": 5220,
      "photo": 5221,
      "within": 5222,
      "flo": 5223,
      "ences": 5224,
      "educ": 5225,
      "hockey": 5226,
      "enough": 5227,
      "aps": 5228,
      "hest": 5229,
      "exp": 5230,
      "electr": 5231,
      "Prize": 5232,
      "says": 5233,
      "Nobel": 5234,
      "appro": 5235,
      "wards": 5236,
      "Central": 5237,
      "culture": 5238,
      "vict": 5239,
      "Reg": 5240,
      "ports": 5241,
      "Cong": 5242,
      "Tex": 5243,
      "ified": 5244,
      "37": 5245,
      "kills": 5246,
      "ady": 5247,
      "territ": 5248,
      "represent": 5249,
      "Mexico": 5250,
      "paren": 5251,
      "wide": 5252,
      "Jes": 5253,
      "Middle": 5254,
      "Poland": 5255,
      "agon": 5256,
      "35": 5257,
      "mit": 5258,
      "1955": 5259,
      "capt": 5260,
      "cas": 5261,
      "hab": 5262,
      "ellow": 5263,
      "aker": 5264,
      "ending": 5265,
      "Year": 5266,
      "room": 5267,
      "jects": 5268,
      "beth": 5269,
      "Georg": 5270,
      "ided": 5271,
      "Washington": 5272,
      "Viet": 5273,
      "pi": 5274,
      "alk": 5275,
      "production": 5276,
      "Vict": 5277,
      "umb": 5278,
      "itch": 5279,
      "1917": 5280,
      "fig": 5281,
      "mur": 5282,
      "ode": 5283,
      "ga": 5284,
      "ring": 5285,
      "mann": 5286,
      "ties": 5287,
      "smaller": 5288,
      "ola": 5289,
      "Northern": 5290,
      "Otto": 5291,
      "Ver": 5292,
      "ato": 5293,
      "rights": 5294,
      "itect": 5295,
      "announ": 5296,
      "Old": 5297,
      "mult": 5298,
      "daughter": 5299,
      "tra": 5300,
      "believe": 5301,
      "1953": 5302,
      "independent": 5303,
      "divided": 5304,
      "drug": 5305,
      "theory": 5306,
      "Army": 5307,
      "syn": 5308,
      "Bill": 5309,
      "bass": 5310,
      "Il": 5311,
      "Music": 5312,
      "novel": 5313,
      "mi": 5314,
      "ogn": 5315,
      "Rom": 5316,
      "Vietnam": 5317,
      "super": 5318,
      "party": 5319,
      "size": 5320,
      "icle": 5321,
      "Lin": 5322,
      "ny": 5323,
      "lege": 5324,
      "teen": 5325,
      "Zealand": 5326,
      "Di": 5327,
      "ender": 5328,
      "club": 5329,
      "Cur": 5330,
      "19th": 5331,
      "nic": 5332,
      "ately": 5333,
      "among": 5334,
      "lower": 5335,
      "Sometimes": 5336,
      "thes": 5337,
      "ency": 5338,
      "ishop": 5339,
      "urricane": 5340,
      "burn": 5341,
      "dro": 5342,
      "due": 5343,
      "collect": 5344,
      "humans": 5345,
      "playing": 5346,
      "1st": 5347,
      "once": 5348,
      "Martin": 5349,
      "mas": 5350,
      "ood": 5351,
      "Muslim": 5352,
      "sold": 5353,
      "names": 5354,
      "chemist": 5355,
      "Tod": 5356,
      "Flor": 5357,
      "invol": 5358,
      "basketball": 5359,
      "tropical": 5360,
      "eder": 5361,
      "establ": 5362,
      "Since": 5363,
      "Super": 5364,
      "Fin": 5365,
      "Nether": 5366,
      "site": 5367,
      "baseball": 5368,
      "1919": 5369,
      "uni": 5370,
      "ains": 5371,
      "odes": 5372,
      "working": 5373,
      "fast": 5374,
      "Virgin": 5375,
      "Prin": 5376,
      "female": 5377,
      "post": 5378,
      "religious": 5379,
      "aj": 5380,
      "health": 5381,
      "pha": 5382,
      "sil": 5383,
      "Austria": 5384,
      "Mos": 5385,
      "dead": 5386,
      "Islands": 5387,
      "90": 5388,
      "allowed": 5389,
      "Civ": 5390,
      "don": 5391,
      "ands": 5392,
      "seven": 5393,
      "Korea": 5394,
      "compet": 5395,
      "kinds": 5396,
      "mission": 5397,
      "bac": 5398,
      "ication": 5399,
      "legal": 5400,
      "above": 5401,
      "write": 5402,
      "goes": 5403,
      "bands": 5404,
      "Ke": 5405,
      "Mel": 5406,
      "hit": 5407,
      "posed": 5408,
      "lor": 5409,
      "past": 5410,
      "FA": 5411,
      "outside": 5412,
      "sych": 5413,
      "Rock": 5414,
      "bran": 5415,
      "inning": 5416,
      "longer": 5417,
      "iger": 5418,
      "ief": 5419,
      "Mat": 5420,
      "Rome": 5421,
      "close": 5422,
      "Netherlands": 5423,
      "sha": 5424,
      "Hel": 5425,
      "stri": 5426,
      "Naz": 5427,
      "vill": 5428,
      "forest": 5429,
      "ror": 5430,
      "icip": 5431,
      "highest": 5432,
      "spir": 5433,
      "45": 5434,
      "case": 5435,
      "Civil": 5436,
      "Common": 5437,
      "Os": 5438,
      "Pac": 5439,
      "itz": 5440,
      "empt": 5441,
      "ideas": 5442,
      "activist": 5443,
      "ales": 5444,
      "ij": 5445,
      "Bor": 5446,
      "ole": 5447,
      "across": 5448,
      "aid": 5449,
      "road": 5450,
      "himself": 5451,
      "Lake": 5452,
      "47": 5453,
      "ached": 5454,
      "ounds": 5455,
      "Hy": 5456,
      "cit": 5457,
      "Green": 5458,
      "Sax": 5459,
      "iles": 5460,
      "ological": 5461,
      "Bud": 5462,
      "lie": 5463,
      "aff": 5464,
      "Chris": 5465,
      "selves": 5466,
      "Fam": 5467,
      "High": 5468,
      "ois": 5469,
      "compan": 5470,
      "interest": 5471,
      "dess": 5472,
      "rail": 5473,
      "ption": 5474,
      "rule": 5475,
      "ternet": 5476,
      "sell": 5477,
      "friend": 5478,
      "Gal": 5479,
      "ani": 5480,
      "pract": 5481,
      "tom": 5482,
      "School": 5483,
      "piece": 5484,
      "established": 5485,
      "card": 5486,
      "ctions": 5487,
      "object": 5488,
      "execut": 5489,
      "Victor": 5490,
      "colon": 5491,
      "produced": 5492,
      "discovered": 5493,
      "pot": 5494,
      "ares": 5495,
      "175": 5496,
      "Alexander": 5497,
      "travel": 5498,
      "Mario": 5499,
      "fac": 5500,
      "Life": 5501,
      "surv": 5502,
      "Mu": 5503,
      "Births": 5504,
      "included": 5505,
      "total": 5506,
      "architect": 5507,
      "\")": 5508,
      "temperature": 5509,
      "ba": 5510,
      "Later": 5511,
      "Elect": 5512,
      "Sweden": 5513,
      "Early": 5514,
      "islands": 5515,
      "stein": 5516,
      "176": 5517,
      "themselves": 5518,
      "Swiss": 5519,
      "33": 5520,
      "1914": 5521,
      "full": 5522,
      "asons": 5523,
      "lives": 5524,
      "ems": 5525,
      "Dar": 5526,
      "Pan": 5527,
      "oil": 5528,
      "earli": 5529,
      "Bob": 5530,
      "joined": 5531,
      "intro": 5532,
      "quick": 5533,
      "ona": 5534,
      "ume": 5535,
      "complet": 5536,
      "Law": 5537,
      "bomb": 5538,
      "fru": 5539,
      "various": 5540,
      "ya": 5541,
      "icles": 5542,
      "systems": 5543,
      "effect": 5544,
      "70": 5545,
      "Mod": 5546,
      "Revolution": 5547,
      "engineer": 5548,
      "Ru": 5549,
      "laws": 5550,
      "liter": 5551,
      "Carl": 5552,
      "albums": 5553,
      "guitarist": 5554,
      "ints": 5555,
      "helped": 5556,
      "quest": 5557,
      "tens": 5558,
      "Democr": 5559,
      "gets": 5560,
      "animal": 5561,
      "nis": 5562,
      "pict": 5563,
      "Korean": 5564,
      "Anton": 5565,
      "azz": 5566,
      "surface": 5567,
      "biggest": 5568,
      "gold": 5569,
      "yer": 5570,
      "cele": 5571,
      "northern": 5572,
      "title": 5573,
      "Sen": 5574,
      "Tri": 5575,
      "election": 5576,
      "Cub": 5577,
      "Pers": 5578,
      "prom": 5579,
      "introdu": 5580,
      "going": 5581,
      "fail": 5582,
      "amin": 5583,
      "months": 5584,
      "data": 5585,
      "Hex": 5586,
      "mad": 5587,
      "ively": 5588,
      "recogn": 5589,
      "Hall": 5590,
      "Tour": 5591,
      "bat": 5592,
      "southern": 5593,
      "Sha": 5594,
      "events": 5595,
      "green": 5596,
      "mainly": 5597,
      "ification": 5598,
      "Atlantic": 5599,
      "ville": 5600,
      "Over": 5601,
      "dig": 5602,
      "opera": 5603,
      "itive": 5604,
      "Second": 5605,
      "average": 5606,
      "Vol": 5607,
      "indu": 5608,
      "stay": 5609,
      "lies": 5610,
      "Eliza": 5611,
      "Tim": 5612,
      "Mark": 5613,
      "bill": 5614,
      "stage": 5615,
      "Academ": 5616,
      "han": 5617,
      "USA": 5618,
      "mand": 5619,
      "36": 5620,
      "Jewish": 5621,
      "Jim": 5622,
      "border": 5623,
      "anti": 5624,
      "religion": 5625,
      "rese": 5626,
      "gir": 5627,
      "ength": 5628,
      "Two": 5629,
      "tree": 5630,
      "Rh": 5631,
      "nd": 5632,
      "fly": 5633,
      "):": 5634,
      "movement": 5635,
      "sun": 5636,
      "inj": 5637,
      "1912": 5638,
      "buildings": 5639,
      "fort": 5640,
      "ults": 5641,
      "Armenian": 5642,
      "Greece": 5643,
      "det": 5644,
      "egg": 5645,
      "meet": 5646,
      "true": 5647,
      "agan": 5648,
      "viron": 5649,
      "ki": 5650,
      "stone": 5651,
      "feel": 5652,
      "Del": 5653,
      "illa": 5654,
      "zech": 5655,
      "broad": 5656,
      "Olympics": 5657,
      "acher": 5658,
      "orders": 5659,
      "Council": 5660,
      "Texas": 5661,
      "ries": 5662,
      "ability": 5663,
      "astronom": 5664,
      "dog": 5665,
      "court": 5666,
      "Brazilian": 5667,
      "Max": 5668,
      "apt": 5669,
      "plays": 5670,
      "diffic": 5671,
      "hair": 5672,
      "birds": 5673,
      "believed": 5674,
      "1916": 5675,
      "Uk": 5676,
      "saw": 5677,
      "ederal": 5678,
      "2020": 5679,
      "Another": 5680,
      "Lee": 5681,
      "Czech": 5682,
      "central": 5683,
      "Holy": 5684,
      "quar": 5685,
      "particular": 5686,
      "bes": 5687,
      "Bul": 5688,
      "RGB": 5689,
      "ww": 5690,
      "career": 5691,
      "hom": 5692,
      "international": 5693,
      "sky": 5694,
      ".)": 5695,
      "Rob": 5696,
      "org": 5697,
      "thin": 5698,
      "auto": 5699,
      "myth": 5700,
      "1910": 5701,
      "weight": 5702,
      "conf": 5703,
      "Eastern": 5704,
      "Wel": 5705,
      "Lab": 5706,
      "vious": 5707,
      "ern": 5708,
      "Chic": 5709,
      "transl": 5710,
      "Gar": 5711,
      "ient": 5712,
      "Carol": 5713,
      "99": 5714,
      "ll": 5715,
      "itself": 5716,
      "although": 5717,
      "soldiers": 5718,
      "inc": 5719,
      "Ira": 5720,
      "ado": 5721,
      "Parliament": 5722,
      "spread": 5723,
      "province": 5724,
      "climate": 5725,
      "voice": 5726,
      "murder": 5727,
      "date": 5728,
      "wear": 5729,
      "speed": 5730,
      "Nap": 5731,
      "weap": 5732,
      "Ag": 5733,
      "va": 5734,
      "except": 5735,
      "musical": 5736,
      "Polit": 5737,
      "ali": 5738,
      "500": 5739,
      "Cour": 5740,
      "skin": 5741,
      "tran": 5742,
      "added": 5743,
      "Elizabeth": 5744,
      "Es": 5745,
      "bul": 5746,
      "Los": 5747,
      "Stu": 5748,
      "oldest": 5749,
      "ministr": 5750,
      "Pacific": 5751,
      "Ukrain": 5752,
      "tax": 5753,
      "1908": 5754,
      "relation": 5755,
      "needed": 5756,
      "Today": 5757,
      "shown": 5758,
      "Ancient": 5759,
      "grapher": 5760,
      "larger": 5761,
      "Cy": 5762,
      "pow": 5763,
      "zy": 5764,
      "Each": 5765,
      "Ros": 5766,
      "cks": 5767,
      "hon": 5768,
      "station": 5769,
      "opened": 5770,
      "soon": 5771,
      "audi": 5772,
      "Jac": 5773,
      "pay": 5774,
      "rid": 5775,
      "front": 5776,
      "professional": 5777,
      "1911": 5778,
      "bridge": 5779,
      "race": 5780,
      "storm": 5781,
      "Jesus": 5782,
      "amm": 5783,
      "independence": 5784,
      "tt": 5785,
      "ready": 5786,
      "Wales": 5787,
      "(\"": 5788,
      "ita": 5789,
      "edia": 5790,
      "arts": 5791,
      "fects": 5792,
      "Albert": 5793,
      "sports": 5794,
      "Time": 5795,
      "itzer": 5796,
      "ols": 5797,
      "sit": 5798,
      "draw": 5799,
      "1915": 5800,
      "rules": 5801,
      "endar": 5802,
      "Iraq": 5803,
      "pet": 5804,
      "whole": 5805,
      "epis": 5806,
      "onic": 5807,
      "ibr": 5808,
      "battle": 5809,
      "thous": 5810,
      "Inter": 5811,
      "troops": 5812,
      "onto": 5813,
      "1913": 5814,
      "however": 5815,
      "Kur": 5816,
      "middle": 5817,
      "32": 5818,
      "iation": 5819,
      "occup": 5820,
      "comedian": 5821,
      "AD": 5822,
      "Mem": 5823,
      "Pier": 5824,
      "ano": 5825,
      "ski": 5826,
      "Bern": 5827,
      "parents": 5828,
      "Tor": 5829,
      "wid": 5830,
      "aria": 5831,
      "oftw": 5832,
      "icine": 5833,
      "service": 5834,
      "kil": 5835,
      "actions": 5836,
      "composers": 5837,
      "oftware": 5838,
      "male": 5839,
      "Academy": 5840,
      "Then": 5841,
      "produce": 5842,
      "ires": 5843,
      "pring": 5844,
      "ruled": 5845,
      "stories": 5846,
      "Florida": 5847,
      "Virginia": 5848,
      "Far": 5849,
      "Nic": 5850,
      "Sil": 5851,
      "tic": 5852,
      "evol": 5853,
      "brought": 5854,
      "decided": 5855,
      "38": 5856,
      "Bay": 5857,
      "orer": 5858,
      "pect": 5859,
      "prim": 5860,
      "oken": 5861,
      "Johann": 5862,
      "higher": 5863,
      "bell": 5864,
      "mph": 5865,
      "heavy": 5866,
      "forman": 5867,
      "mis": 5868,
      "prin": 5869,
      "attr": 5870,
      "Sir": 5871,
      "About": 5872,
      "Love": 5873,
      "grand": 5874,
      "aches": 5875,
      "love": 5876,
      "electron": 5877,
      "continued": 5878,
      "edy": 5879,
      "sequ": 5880,
      "vironment": 5881,
      "probab": 5882,
      "screenwriter": 5883,
      "tried": 5884,
      "tennis": 5885,
      "told": 5886,
      "()": 5887,
      "Ken": 5888,
      "mid": 5889,
      "Bre": 5890,
      "mir": 5891,
      "mouth": 5892,
      "aries": 5893,
      "appl": 5894,
      "causes": 5895,
      "moving": 5896,
      "Sa": 5897,
      "Arth": 5898,
      "Haw": 5899,
      "blue": 5900,
      "undred": 5901,
      "pp": 5902,
      "quickly": 5903,
      "Games": 5904,
      "ech": 5905,
      "kin": 5906,
      "atre": 5907,
      "development": 5908,
      "sociation": 5909,
      "plom": 5910,
      "writers": 5911,
      "Of": 5912,
      "bio": 5913,
      "Sar": 5914,
      "hydro": 5915,
      "happen": 5916,
      "sexual": 5917,
      "Chicago": 5918,
      "anda": 5919,
      "carbon": 5920,
      "Sup": 5921,
      "Class": 5922,
      "Pop": 5923,
      "lik": 5924,
      "iana": 5925,
      "igr": 5926,
      "rial": 5927,
      "48": 5928,
      "rom": 5929,
      "sal": 5930,
      "reason": 5931,
      "ights": 5932,
      "Turk": 5933,
      "Also": 5934,
      "Rad": 5935,
      "jud": 5936,
      "page": 5937,
      "phen": 5938,
      "laun": 5939,
      "mel": 5940,
      "oth": 5941,
      "leaves": 5942,
      "acts": 5943,
      "Smith": 5944,
      "Just": 5945,
      "ision": 5946,
      "normal": 5947,
      "leaders": 5948,
      "=\"": 5949,
      "ami": 5950,
      "wan": 5951,
      "rence": 5952,
      "create": 5953,
      "Bon": 5954,
      "Dou": 5955,
      "bishop": 5956,
      "1990s": 5957,
      "oxy": 5958,
      "hous": 5959,
      "ni": 5960,
      "rd": 5961,
      "39": 5962,
      "Nations": 5963,
      "obser": 5964,
      "office": 5965,
      "pil": 5966,
      "istics": 5967,
      "Bet": 5968,
      "Pet": 5969,
      "align": 5970,
      "trade": 5971,
      "exper": 5972,
      "aving": 5973,
      "print": 5974,
      "Denmark": 5975,
      "ker": 5976,
      "appeared": 5977,
      "fel": 5978,
      "utes": 5979,
      "police": 5980,
      "recorded": 5981,
      "iverse": 5982,
      "instruments": 5983,
      "source": 5984,
      "habit": 5985,
      "icated": 5986,
      "Before": 5987,
      "ari": 5988,
      "psych": 5989,
      "Angeles": 5990,
      "ria": 5991,
      "ained": 5992,
      "Berlin": 5993,
      "Olympic": 5994,
      "Wall": 5995,
      "via": 5996,
      "oul": 5997,
      "ills": 5998,
      "cost": 5999,
      "160": 6000,
      "plane": 6001,
      "Disney": 6002,
      "atives": 6003,
      "Sto": 6004,
      "ert": 6005,
      "length": 6006,
      "oo": 6007,
      "recent": 6008,
      "speci": 6009,
      "commonly": 6010,
      "Windows": 6011,
      "More": 6012,
      "heat": 6013,
      "difficult": 6014,
      "Arthur": 6015,
      "cancer": 6016,
      "county": 6017,
      "points": 6018,
      "Norwe": 6019,
      "49": 6020,
      "VI": 6021,
      "nes": 6022,
      "pred": 6023,
      "understand": 6024,
      "celebr": 6025,
      "anta": 6026,
      "gives": 6027,
      "gun": 6028,
      "beginning": 6029,
      "friends": 6030,
      "cross": 6031,
      "Lady": 6032,
      "slow": 6033,
      "goddess": 6034,
      "Portugu": 6035,
      "conductor": 6036,
      "job": 6037,
      "iest": 6038,
      "companies": 6039,
      "officially": 6040,
      "Portuguese": 6041,
      "ils": 6042,
      "Greg": 6043,
      "your": 6044,
      "accept": 6045,
      "ctors": 6046,
      "Independ": 6047,
      "aircraft": 6048,
      "pieces": 6049,
      "enced": 6050,
      "uries": 6051,
      "1980s": 6052,
      "Au": 6053,
      "voc": 6054,
      "Mun": 6055,
      "phe": 6056,
      "ulf": 6057,
      "Human": 6058,
      "cing": 6059,
      "report": 6060,
      "replaced": 6061,
      "Geography": 6062,
      "simple": 6063,
      "Hor": 6064,
      "Mah": 6065,
      "ada": 6066,
      "Norwegian": 6067,
      "ques": 6068,
      "150": 6069,
      "Georgia": 6070,
      "sat": 6071,
      "uture": 6072,
      "boy": 6073,
      "Mexican": 6074,
      "received": 6075,
      "Vi": 6076,
      "element": 6077,
      "Organ": 6078,
      "75": 6079,
      "ube": 6080,
      "performed": 6081,
      "Alf": 6082,
      "Although": 6083,
      "pressure": 6084,
      "Harry": 6085,
      "Awards": 6086,
      "Gall": 6087,
      "kept": 6088,
      "Ron": 6089,
      "Slo": 6090,
      "powerful": 6091,
      "Flo": 6092,
      "Maria": 6093,
      "Musical": 6094,
      "Portugal": 6095,
      "Bab": 6096,
      "cat": 6097,
      "syl": 6098,
      "Leon": 6099,
      "regions": 6100,
      "winning": 6101,
      "1905": 6102,
      "Play": 6103,
      "Rog": 6104,
      "mn": 6105,
      "atory": 6106,
      "Ven": 6107,
      "diplom": 6108,
      "spoken": 6109,
      "musicians": 6110,
      "theast": 6111,
      "attempt": 6112,
      "Leg": 6113,
      "destroyed": 6114,
      "While": 6115,
      "schools": 6116,
      "shape": 6117,
      "64": 6118,
      "paper": 6119,
      "liqu": 6120,
      "icians": 6121,
      "According": 6122,
      "businessman": 6123,
      "Jud": 6124,
      "cold": 6125,
      "grad": 6126,
      "carry": 6127,
      "students": 6128,
      "protect": 6129,
      "nuclear": 6130,
      "rol": 6131,
      "System": 6132,
      "Bol": 6133,
      "Hungarian": 6134,
      "Ep": 6135,
      "Treat": 6136,
      "dan": 6137,
      "ential": 6138,
      "Americans": 6139,
      "170": 6140,
      "elements": 6141,
      "34": 6142,
      "Mount": 6143,
      "Secret": 6144,
      "charge": 6145,
      "planet": 6146,
      "earthqu": 6147,
      "hus": 6148,
      "pul": 6149,
      "track": 6150,
      "Internet": 6151,
      "ination": 6152,
      "ications": 6153,
      "peace": 6154,
      "manager": 6155,
      "market": 6156,
      "trees": 6157,
      "final": 6158,
      "inger": 6159,
      "core": 6160,
      "Men": 6161,
      "ping": 6162,
      "sug": 6163,
      "avail": 6164,
      "served": 6165,
      "Movies": 6166,
      "Land": 6167,
      "coach": 6168,
      "Switzer": 6169,
      "Congress": 6170,
      "Cro": 6171,
      "mole": 6172,
      "starts": 6173,
      "wrest": 6174,
      "below": 6175,
      "College": 6176,
      "bury": 6177,
      "historian": 6178,
      "Tam": 6179,
      "brain": 6180,
      "mes": 6181,
      "calendar": 6182,
      "Ox": 6183,
      "addition": 6184,
      "towns": 6185,
      "Summer": 6186,
      "Van": 6187,
      "feet": 6188,
      "piano": 6189,
      "ctic": 6190,
      "problem": 6191,
      "arri": 6192,
      "Penn": 6193,
      "SA": 6194,
      "Phys": 6195,
      "Switzerland": 6196,
      "Danish": 6197,
      "Museum": 6198,
      "Writ": 6199,
      "eight": 6200,
      "fought": 6201,
      "pan": 6202,
      "ense": 6203,
      "wealth": 6204,
      "ansas": 6205,
      "organism": 6206,
      "Fire": 6207,
      "combin": 6208,
      "ella": 6209,
      "doc": 6210,
      "fruit": 6211,
      "Foot": 6212,
      "Kr": 6213,
      "amed": 6214,
      "Liber": 6215,
      "Government": 6216,
      "Nat": 6217,
      "Town": 6218,
      "older": 6219,
      "Stan": 6220,
      "monarch": 6221,
      "1906": 6222,
      "Hindu": 6223,
      "Soci": 6224,
      "leep": 6225,
      "distr": 6226,
      "week": 6227,
      "driver": 6228,
      "Stre": 6229,
      "function": 6230,
      "measure": 6231,
      "Hal": 6232,
      "168": 6233,
      "traditional": 6234,
      "Golden": 6235,
      "Jackson": 6236,
      "Welsh": 6237,
      "1970s": 6238,
      "1907": 6239,
      "distance": 6240,
      "uters": 6241,
      "oud": 6242,
      "Conf": 6243,
      "Constant": 6244,
      "eastern": 6245,
      "scientist": 6246,
      "redu": 6247,
      "mob": 6248,
      "log": 6249,
      "Jos": 6250,
      "Pen": 6251,
      "teams": 6252,
      "Jr": 6253,
      "count": 6254,
      "web": 6255,
      "Norway": 6256,
      "Press": 6257,
      "95": 6258,
      "ux": 6259,
      "ador": 6260,
      "aine": 6261,
      "shap": 6262,
      "regular": 6263,
      "What": 6264,
      "fle": 6265,
      "riage": 6266,
      "Turkey": 6267,
      "Ottoman": 6268,
      "Mountain": 6269,
      "Han": 6270,
      "Sur": 6271,
      "adop": 6272,
      "ott": 6273,
      "previous": 6274,
      "scale": 6275,
      "ko": 6276,
      "individ": 6277,
      "vert": 6278,
      "mythology": 6279,
      "available": 6280,
      "hundred": 6281,
      "orche": 6282,
      "month": 6283,
      "shar": 6284,
      "spl": 6285,
      "Child": 6286,
      "...": 6287,
      "summer": 6288,
      "release": 6289,
      "ables": 6290,
      "ibut": 6291,
      "shel": 6292,
      "Chile": 6293,
      "icks": 6294,
      "letter": 6295,
      "Social": 6296,
      "Actors": 6297,
      "probably": 6298,
      "dou": 6299,
      "hur": 6300,
      "impro": 6301,
      "square": 6302,
      "Big": 6303,
      "jazz": 6304,
      "chess": 6305,
      "succe": 6306,
      "44": 6307,
      "Free": 6308,
      "Now": 6309,
      "Court": 6310,
      "ua": 6311,
      "stars": 6312,
      "municip": 6313,
      "figure": 6314,
      "cases": 6315,
      "itude": 6316,
      "Anne": 6317,
      "1903": 6318,
      "sett": 6319,
      "happened": 6320,
      "priv": 6321,
      "UN": 6322,
      "jan": 6323,
      "yan": 6324,
      "Kenn": 6325,
      "ala": 6326,
      "ribut": 6327,
      "itted": 6328,
      "struction": 6329,
      "economy": 6330,
      "65": 6331,
      "toms": 6332,
      "Wars": 6333,
      "damage": 6334,
      "MP": 6335,
      "cow": 6336,
      "visit": 6337,
      "generally": 6338,
      "Armenia": 6339,
      "apart": 6340,
      "Mont": 6341,
      "Song": 6342,
      "fiction": 6343,
      "worth": 6344,
      "1904": 6345,
      "Earl": 6346,
      "RA": 6347,
      "Sub": 6348,
      "hero": 6349,
      "athlete": 6350,
      "airs": 6351,
      "cli": 6352,
      "Champion": 6353,
      "Airlines": 6354,
      "separate": 6355,
      "Tre": 6356,
      "Ur": 6357,
      "rat": 6358,
      "anal": 6359,
      "rect": 6360,
      "shot": 6361,
      "ext": 6362,
      "miles": 6363,
      "nation": 6364,
      "forced": 6365,
      "ising": 6366,
      "lets": 6367,
      "stance": 6368,
      "ota": 6369,
      "istic": 6370,
      "rather": 6371,
      "2021": 6372,
      "2nd": 6373,
      "idence": 6374,
      "Argentine": 6375,
      "leave": 6376,
      "ura": 6377,
      "notes": 6378,
      "Beat": 6379,
      "ails": 6380,
      "signed": 6381,
      "Finn": 6382,
      "gods": 6383,
      "district": 6384,
      "Div": 6385,
      "environment": 6386,
      "formance": 6387,
      "Kim": 6388,
      "Oh": 6389,
      "sister": 6390,
      "hail": 6391,
      "critic": 6392,
      "suggest": 6393,
      "why": 6394,
      "mier": 6395,
      "experi": 6396,
      "Notes": 6397,
      "mechan": 6398,
      "Budd": 6399,
      "66": 6400,
      "endo": 6401,
      "meant": 6402,
      "compounds": 6403,
      "ulture": 6404,
      "covered": 6405,
      "territory": 6406,
      "ffer": 6407,
      "letters": 6408,
      "medical": 6409,
      "followed": 6410,
      "Bang": 6411,
      "Jones": 6412,
      "Wik": 6413,
      "fs": 6414,
      "software": 6415,
      "oxygen": 6416,
      "1909": 6417,
      "famil": 6418,
      "scientists": 6419,
      "citiz": 6420,
      "onia": 6421,
      "rivers": 6422,
      "programs": 6423,
      "Si": 6424,
      "nar": 6425,
      "oid": 6426,
      "cohol": 6427,
      "grew": 6428,
      "Tai": 6429,
      "entire": 6430,
      "Fe": 6431,
      "hours": 6432,
      "abs": 6433,
      "described": 6434,
      "frequ": 6435,
      "itor": 6436,
      "havi": 6437,
      "getting": 6438,
      "becoming": 6439,
      "Hungary": 6440,
      "Andrew": 6441,
      "kes": 6442,
      "isto": 6443,
      "sho": 6444,
      "CD": 6445,
      "cos": 6446,
      "mally": 6447,
      "Princess": 6448,
      "43": 6449,
      "Dynasty": 6450,
      "tery": 6451,
      "Williams": 6452,
      "Democratic": 6453,
      "isters": 6454,
      "'.": 6455,
      "Domin": 6456,
      "Philipp": 6457,
      "Francisco": 6458,
      "Sk": 6459,
      "dry": 6460,
      "bey": 6461,
      "step": 6462,
      "estival": 6463,
      "Ann": 6464,
      "Orig": 6465,
      "Freder": 6466,
      "pianist": 6467,
      "asked": 6468,
      "originally": 6469,
      "Clar": 6470,
      "Fore": 6471,
      "mist": 6472,
      "alpha": 6473,
      "1902": 6474,
      "1895": 6475,
      "Protest": 6476,
      "Southern": 6477,
      "Corn": 6478,
      "Ram": 6479,
      "fif": 6480,
      "disc": 6481,
      "contains": 6482,
      "Eth": 6483,
      "Even": 6484,
      "dynasty": 6485,
      "tor": 6486,
      "fighting": 6487,
      "Cities": 6488,
      "quer": 6489,
      "Blo": 6490,
      "ID": 6491,
      "Out": 6492,
      "nob": 6493,
      "cook": 6494,
      "society": 6495,
      "osaurus": 6496,
      "osis": 6497,
      "Under": 6498,
      "product": 6499,
      "starting": 6500,
      "1899": 6501,
      "Jews": 6502,
      "46": 6503,
      "nut": 6504,
      "anth": 6505,
      "thed": 6506,
      "Pict": 6507,
      "adium": 6508,
      "ateg": 6509,
      "ources": 6510,
      "1960s": 6511,
      "Islamic": 6512,
      "reedom": 6513,
      "bacter": 6514,
      "42": 6515,
      "danger": 6516,
      "lad": 6517,
      "tells": 6518,
      "300": 6519,
      "Gir": 6520,
      "Ko": 6521,
      "ancy": 6522,
      "moon": 6523,
      "Columb": 6524,
      "easily": 6525,
      "announced": 6526,
      "Lar": 6527,
      "hind": 6528,
      "rie": 6529,
      "aven": 6530,
      "talk": 6531,
      "iro": 6532,
      "ns": 6533,
      "tall": 6534,
      "taking": 6535,
      "ao": 6536,
      "urches": 6537,
      "----": 6538,
      "Ray": 6539,
      "ploy": 6540,
      "belong": 6541,
      "happens": 6542,
      "FI": 6543,
      "inse": 6544,
      "rey": 6545,
      "reach": 6546,
      "cand": 6547,
      "ken": 6548,
      "table": 6549,
      "quite": 6550,
      "minister": 6551,
      "economic": 6552,
      "aign": 6553,
      "gal": 6554,
      "pron": 6555,
      "Israeli": 6556,
      "instrument": 6557,
      "Mr": 6558,
      "isher": 6559,
      "administr": 6560,
      "unit": 6561,
      "ulpt": 6562,
      "partment": 6563,
      "schol": 6564,
      "Mid": 6565,
      "inet": 6566,
      "acid": 6567,
      "Game": 6568,
      "lic": 6569,
      "etc": 6570,
      "Like": 6571,
      "husband": 6572,
      "Brown": 6573,
      "yo": 6574,
      "throughout": 6575,
      "value": 6576,
      "bra": 6577,
      "ange": 6578,
      "ero": 6579,
      "aval": 6580,
      "cape": 6581,
      "objects": 6582,
      "industry": 6583,
      "alities": 6584,
      "agre": 6585,
      "mers": 6586,
      "awa": 6587,
      "award": 6588,
      "flat": 6589,
      "Belgian": 6590,
      "violin": 6591,
      "introduced": 6592,
      "hr": 6593,
      "termin": 6594,
      "Club": 6595,
      "Som": 6596,
      "lay": 6597,
      "wr": 6598,
      "Bush": 6599,
      "Tit": 6600,
      "xim": 6601,
      "winners": 6602,
      "swim": 6603,
      "Every": 6604,
      "Squ": 6605,
      "feature": 6606,
      "cam": 6607,
      "zz": 6608,
      "newsp": 6609,
      "matter": 6610,
      "neg": 6611,
      "coll": 6612,
      "Good": 6613,
      "Saturn": 6614,
      "weapons": 6615,
      "sylvan": 6616,
      "Ve": 6617,
      "icy": 6618,
      "teacher": 6619,
      "Basic": 6620,
      "Ant": 6621,
      "achus": 6622,
      "Light": 6623,
      "dark": 6624,
      "enem": 6625,
      "mond": 6626,
      "Long": 6627,
      "Oper": 6628,
      "astic": 6629,
      "Center": 6630,
      ",\"": 6631,
      "Gra": 6632,
      "mor": 6633,
      "mess": 6634,
      "volcan": 6635,
      "Bulgar": 6636,
      "Pres": 6637,
      "Order": 6638,
      "Michel": 6639,
      "Water": 6640,
      "Association": 6641,
      "studied": 6642,
      "98": 6643,
      "future": 6644,
      "stan": 6645,
      "avel": 6646,
      "165": 6647,
      "migr": 6648,
      "wer": 6649,
      "already": 6650,
      "aka": 6651,
      "nomin": 6652,
      "code": 6653,
      "gress": 6654,
      "provid": 6655,
      "azine": 6656,
      "surround": 6657,
      "97": 6658,
      "Dor": 6659,
      "rot": 6660,
      "singers": 6661,
      "Blue": 6662,
      "needs": 6663,
      "hood": 6664,
      "returned": 6665,
      "Ho": 6666,
      "aters": 6667,
      "aces": 6668,
      "ett": 6669,
      "etts": 6670,
      "akh": 6671,
      "tainment": 6672,
      "earthquake": 6673,
      "Hill": 6674,
      "Mir": 6675,
      "fix": 6676,
      "wins": 6677,
      "beaut": 6678,
      "mod": 6679,
      "ript": 6680,
      "Anim": 6681,
      "centre": 6682,
      "distribut": 6683,
      "Tem": 6684,
      "Winter": 6685,
      "secret": 6686,
      "poly": 6687,
      "folk": 6688,
      "Independence": 6689,
      "oppos": 6690,
      "cular": 6691,
      "tru": 6692,
      "Four": 6693,
      "pun": 6694,
      "typ": 6695,
      "Nazi": 6696,
      "liver": 6697,
      "Company": 6698,
      "Cle": 6699,
      "houses": 6700,
      "Ball": 6701,
      "Fort": 6702,
      "drop": 6703,
      "izes": 6704,
      "Pruss": 6705,
      "Mas": 6706,
      "coup": 6707,
      "rare": 6708,
      "behavi": 6709,
      "computers": 6710,
      "ternal": 6711,
      "anned": 6712,
      "Egyptian": 6713,
      "Massachus": 6714,
      "structure": 6715,
      "Mur": 6716,
      "Young": 6717,
      "annel": 6718,
      "Massachusetts": 6719,
      "ocean": 6720,
      "univers": 6721,
      "invented": 6722,
      "Football": 6723,
      "Hon": 6724,
      "Mill": 6725,
      "ament": 6726,
      "poor": 6727,
      "Christmas": 6728,
      "sculpt": 6729,
      "standard": 6730,
      "Pierre": 6731,
      "alcohol": 6732,
      "normally": 6733,
      "Both": 6734,
      "netic": 6735,
      "located": 6736,
      "Ba": 6737,
      "Ford": 6738,
      "uation": 6739,
      "equal": 6740,
      "mountains": 6741,
      "arrest": 6742,
      "whether": 6743,
      "lots": 6744,
      "designed": 6745,
      "inventor": 6746,
      "education": 6747,
      "earlier": 6748,
      "transport": 6749,
      "sylvania": 6750,
      "Econom": 6751,
      "Glo": 6752,
      "Lith": 6753,
      "nature": 6754,
      "vor": 6755,
      "ille": 6756,
      "ote": 6757,
      "products": 6758,
      "stitute": 6759,
      "Pu": 6760,
      "oxide": 6761,
      "network": 6762,
      "royal": 6763,
      "Ern": 6764,
      "Av": 6765,
      "media": 6766,
      "len": 6767,
      "bodies": 6768,
      "racing": 6769,
      "bow": 6770,
      "1897": 6771,
      "community": 6772,
      "eggs": 6773,
      "note": 6774,
      "pose": 6775,
      "vention": 6776,
      "vote": 6777,
      "Victoria": 6778,
      "Secretary": 6779,
      "Society": 6780,
      "Ali": 6781,
      "Hot": 6782,
      "Kong": 6783,
      "Cat": 6784,
      "speaking": 6785,
      "sail": 6786,
      "1896": 6787,
      "bigger": 6788,
      "machine": 6789,
      "Finnish": 6790,
      "Bible": 6791,
      "fa": 6792,
      "155": 6793,
      "Night": 6794,
      "features": 6795,
      "kingdom": 6796,
      "Enter": 6797,
      "defeated": 6798,
      "electricity": 6799,
      "ammals": 6800,
      "Turkish": 6801,
      "Bad": 6802,
      "BBC": 6803,
      "ji": 6804,
      "wis": 6805,
      "terms": 6806,
      "etic": 6807,
      "1898": 6808,
      "physical": 6809,
      "effects": 6810,
      "ospital": 6811,
      "champion": 6812,
      "centuries": 6813,
      "physics": 6814,
      "Serb": 6815,
      "Jersey": 6816,
      "Az": 6817,
      "Web": 6818,
      "mind": 6819,
      "sn": 6820,
      "complex": 6821,
      "Sand": 6822,
      "solid": 6823,
      "Stephen": 6824,
      "stopped": 6825,
      "Daniel": 6826,
      "Sports": 6827,
      "Tru": 6828,
      "inary": 6829,
      "teach": 6830,
      "Boy": 6831,
      "Walter": 6832,
      "IS": 6833,
      "Nint": 6834,
      "dol": 6835,
      "elly": 6836,
      "Record": 6837,
      "hammad": 6838,
      "research": 6839,
      "85": 6840,
      "university": 6841,
      "Histor": 6842,
      "hum": 6843,
      "billion": 6844,
      "Bil": 6845,
      "2022": 6846,
      "2000s": 6847,
      "Republ": 6848,
      "iful": 6849,
      "Joe": 6850,
      "1892": 6851,
      "express": 6852,
      "colors": 6853,
      "Johnson": 6854,
      "Jeff": 6855,
      "Belg": 6856,
      "vinces": 6857,
      "Carolina": 6858,
      "Nintendo": 6859,
      "reached": 6860,
      "angel": 6861,
      "whose": 6862,
      "enna": 6863,
      "services": 6864,
      "Donald": 6865,
      "defeat": 6866,
      "Family": 6867,
      "Win": 6868,
      "sla": 6869,
      "artists": 6870,
      "1890": 6871,
      "Treaty": 6872,
      "ben": 6873,
      "Examples": 6874,
      "passed": 6875,
      "ads": 6876,
      "Persian": 6877,
      "arden": 6878,
      "streng": 6879,
      "likely": 6880,
      "Vis": 6881,
      "rate": 6882,
      "carto": 6883,
      "drugs": 6884,
      "rick": 6885,
      "union": 6886,
      "Christianity": 6887,
      "96": 6888,
      "Die": 6889,
      "Edu": 6890,
      "minor": 6891,
      "Icel": 6892,
      "Stor": 6893,
      "complete": 6894,
      "ensive": 6895,
      "41": 6896,
      "Bah": 6897,
      "simply": 6898,
      "turned": 6899,
      "Hit": 6900,
      "winter": 6901,
      "igan": 6902,
      "examples": 6903,
      "fourth": 6904,
      "eding": 6905,
      "crime": 6906,
      "liquid": 6907,
      "Iceland": 6908,
      "revolution": 6909,
      "cycle": 6910,
      "Jon": 6911,
      "asy": 6912,
      "olas": 6913,
      "usion": 6914,
      "phy": 6915,
      "1889": 6916,
      "issue": 6917,
      "dancer": 6918,
      "Cer": 6919,
      "Fried": 6920,
      "Ha": 6921,
      "Hurricane": 6922,
      "Will": 6923,
      "owned": 6924,
      "Three": 6925,
      "nearly": 6926,
      "Micros": 6927,
      "Bat": 6928,
      "Tok": 6929,
      "offer": 6930,
      "iron": 6931,
      "helps": 6932,
      "astronomer": 6933,
      "families": 6934,
      "Eston": 6935,
      "Little": 6936,
      "founder": 6937,
      "reading": 6938,
      "Indones": 6939,
      "Columbia": 6940,
      "Nik": 6941,
      "suffer": 6942,
      "doctor": 6943,
      "Hay": 6944,
      "doing": 6945,
      "ledge": 6946,
      "attacks": 6947,
      "TA": 6948,
      "Finland": 6949,
      "Bi": 6950,
      "employ": 6951,
      "BA": 6952,
      "glo": 6953,
      "behind": 6954,
      "clim": 6955,
      "method": 6956,
      "Constitution": 6957,
      "warm": 6958,
      "physician": 6959,
      "glass": 6960,
      "village": 6961,
      "Way": 6962,
      "ais": 6963,
      "exact": 6964,
      "controlled": 6965,
      "Les": 6966,
      "Rud": 6967,
      "Ul": 6968,
      "string": 6969,
      "Modern": 6970,
      "Cuba": 6971,
      "experim": 6972,
      "swe": 6973,
      "inks": 6974,
      "aret": 6975,
      "weak": 6976,
      "statesman": 6977,
      "Hans": 6978,
      "acted": 6979,
      "crim": 6980,
      "Orthod": 6981,
      "Person": 6982,
      "kins": 6983,
      "unn": 6984,
      "Only": 6985,
      "Gram": 6986,
      "running": 6987,
      "CO": 6988,
      "ses": 6989,
      "See": 6990,
      "smo": 6991,
      "yellow": 6992,
      "particles": 6993,
      "ding": 6994,
      "tur": 6995,
      "youn": 6996,
      "18th": 6997,
      "perform": 6998,
      "ricts": 6999,
      "allows": 7000,
      "Belgium": 7001,
      "emperor": 7002,
      "ogy": 7003,
      "easy": 7004,
      "copy": 7005,
      "eventually": 7006,
      "claimed": 7007,
      "multi": 7008,
      "Cop": 7009,
      "cles": 7010,
      "Karl": 7011,
      "Frederick": 7012,
      "Bus": 7013,
      "weather": 7014,
      "eyes": 7015,
      "thedral": 7016,
      "nine": 7017,
      "iang": 7018,
      "neigh": 7019,
      "elling": 7020,
      "flag": 7021,
      "fully": 7022,
      "Microsoft": 7023,
      "Camp": 7024,
      "Ele": 7025,
      "Navy": 7026,
      "SS": 7027,
      "ias": 7028,
      "rough": 7029,
      "ye": 7030,
      "commer": 7031,
      "wrestler": 7032,
      "wave": 7033,
      "ela": 7034,
      "else": 7035,
      "idae": 7036,
      "grav": 7037,
      "ify": 7038,
      "Afgh": 7039,
      "DNA": 7040,
      "dium": 7041,
      "extre": 7042,
      "ardo": 7043,
      "orial": 7044,
      "workers": 7045,
      "prevent": 7046,
      "lawyer": 7047,
      "Fle": 7048,
      "fat": 7049,
      "til": 7050,
      "oration": 7051,
      "ently": 7052,
      "bird": 7053,
      "cyclop": 7054,
      "accident": 7055,
      "rub": 7056,
      "vak": 7057,
      "resign": 7058,
      "finished": 7059,
      "400": 7060,
      "ighter": 7061,
      "ivity": 7062,
      "chen": 7063,
      "Jane": 7064,
      "girl": 7065,
      "wing": 7066,
      "symp": 7067,
      "Space": 7068,
      "access": 7069,
      "ums": 7070,
      "Lincol": 7071,
      "Ak": 7072,
      "Maur": 7073,
      "Pur": 7074,
      "fill": 7075,
      "iop": 7076,
      "sleep": 7077,
      "reasons": 7078,
      "icide": 7079,
      "coming": 7080,
      "1894": 7081,
      "leading": 7082,
      "ür": 7083,
      "actually": 7084,
      "associ": 7085,
      "concept": 7086,
      "gency": 7087,
      "Oxford": 7088,
      "Pennsylvania": 7089,
      "Lincoln": 7090,
      "77": 7091,
      "Are": 7092,
      "Federal": 7093,
      "crown": 7094,
      "hurricane": 7095,
      "demon": 7096,
      "rane": 7097,
      "influence": 7098,
      "Bru": 7099,
      "Eu": 7100,
      "Gab": 7101,
      "Kansas": 7102,
      "goal": 7103,
      "bank": 7104,
      "thousands": 7105,
      "Wood": 7106,
      "towards": 7107,
      "ysis": 7108,
      "throne": 7109,
      "officer": 7110,
      "growing": 7111,
      "supported": 7112,
      "Street": 7113,
      "\").": 7114,
      "according": 7115,
      "Former": 7116,
      "alphabet": 7117,
      "Bell": 7118,
      "hunt": 7119,
      "pson": 7120,
      "buy": 7121,
      "iety": 7122,
      "greatest": 7123,
      "structures": 7124,
      "Napole": 7125,
      "Republican": 7126,
      "units": 7127,
      "assass": 7128,
      "Illin": 7129,
      "Bal": 7130,
      "Dre": 7131,
      "comedy": 7132,
      "powers": 7133,
      "diplomat": 7134,
      "Balt": 7135,
      "Publ": 7136,
      "lif": 7137,
      "Chan": 7138,
      "Byz": 7139,
      "horse": 7140,
      "Hard": 7141,
      "foss": 7142,
      "wel": 7143,
      "inte": 7144,
      "symbols": 7145,
      "episode": 7146,
      "Illinois": 7147,
      "Cas": 7148,
      "layer": 7149,
      "heim": 7150,
      "bring": 7151,
      "Television": 7152,
      "atoms": 7153,
      "Taiwan": 7154,
      "Tropical": 7155,
      "arg": 7156,
      "ava": 7157,
      "iva": 7158,
      "upon": 7159,
      "3rd": 7160,
      "67": 7161,
      "iday": 7162,
      "princi": 7163,
      "Ash": 7164,
      "FC": 7165,
      "Fall": 7166,
      "Ri": 7167,
      "pus": 7168,
      "snow": 7169,
      "perial": 7170,
      "genus": 7171,
      "directed": 7172,
      "holds": 7173,
      "basic": 7174,
      "Bow": 7175,
      "Pap": 7176,
      "stations": 7177,
      "ova": 7178,
      "foreign": 7179,
      "weeks": 7180,
      "Byzant": 7181,
      "mut": 7182,
      "speech": 7183,
      "records": 7184,
      "explorer": 7185,
      "sounds": 7186,
      "declared": 7187,
      "Age": 7188,
      "cha": 7189,
      "neut": 7190,
      "elled": 7191,
      "Airport": 7192,
      "Lithuan": 7193,
      "Live": 7194,
      "Marg": 7195,
      "Premier": 7196,
      "split": 7197,
      "Afghan": 7198,
      "image": 7199,
      "news": 7200,
      "personal": 7201,
      "hall": 7202,
      "performance": 7203,
      "milk": 7204,
      "campaign": 7205,
      "Hom": 7206,
      "sides": 7207,
      "article": 7208,
      "cars": 7209,
      "1893": 7210,
      "cardinal": 7211,
      "Mand": 7212,
      "inhabit": 7213,
      "politan": 7214,
      "directly": 7215,
      "Hart": 7216,
      "Niger": 7217,
      "select": 7218,
      "deep": 7219,
      "raised": 7220,
      "Romania": 7221,
      "runs": 7222,
      "referred": 7223,
      "Hawai": 7224,
      "opposite": 7225,
      "Mong": 7226,
      "cry": 7227,
      "removed": 7228,
      "Anth": 7229,
      "flight": 7230,
      "Argentina": 7231,
      "resist": 7232,
      "ashion": 7233,
      "curity": 7234,
      "Main": 7235,
      "lake": 7236,
      "issues": 7237,
      "widely": 7238,
      "Dire": 7239,
      "mom": 7240,
      "asion": 7241,
      "aded": 7242,
      "ira": 7243,
      "showed": 7244,
      "Orthodox": 7245,
      "cum": 7246,
      "deal": 7247,
      "tele": 7248,
      "Reagan": 7249,
      "span": 7250,
      "moves": 7251,
      "materials": 7252,
      "Muslims": 7253,
      "private": 7254,
      "Kennedy": 7255,
      "hear": 7256,
      "ropolitan": 7257,
      "protest": 7258,
      "ruler": 7259,
      "looks": 7260,
      "Bun": 7261,
      "Hong": 7262,
      "path": 7263,
      "imp": 7264,
      "constitution": 7265,
      "Romanian": 7266,
      "bourne": 7267,
      "evolution": 7268,
      "fair": 7269,
      "course": 7270,
      "Mol": 7271,
      "Peace": 7272,
      "regn": 7273,
      "describe": 7274,
      "relationship": 7275,
      "OS": 7276,
      "fan": 7277,
      "pected": 7278,
      "izations": 7279,
      "giving": 7280,
      "Alexand": 7281,
      "Tay": 7282,
      "arms": 7283,
      "ashes": 7284,
      "begin": 7285,
      "Peru": 7286,
      "inated": 7287,
      "throw": 7288,
      "spent": 7289,
      "direction": 7290,
      "Ari": 7291,
      "Fox": 7292,
      "Mot": 7293,
      "dance": 7294,
      "emer": 7295,
      "fav": 7296,
      "pit": 7297,
      "veget": 7298,
      "earn": 7299,
      "medicine": 7300,
      "1887": 7301,
      "pictures": 7302,
      "BS": 7303,
      "lat": 7304,
      "ufact": 7305,
      "sphere": 7306,
      "1891": 7307,
      "ior": 7308,
      "native": 7309,
      "vey": 7310,
      "Found": 7311,
      "MS": 7312,
      "Mich": 7313,
      "itals": 7314,
      "compl": 7315,
      "grass": 7316,
      "lock": 7317,
      "phone": 7318,
      "playw": 7319,
      "Marie": 7320,
      "majority": 7321,
      "sense": 7322,
      "amber": 7323,
      "agn": 7324,
      "quant": 7325,
      "tons": 7326,
      "Colomb": 7327,
      "drink": 7328,
      "mobile": 7329,
      "Rod": 7330,
      "fected": 7331,
      "1882": 7332,
      "correct": 7333,
      "specific": 7334,
      "Gil": 7335,
      "Rose": 7336,
      "conditions": 7337,
      "Line": 7338,
      "ja": 7339,
      "ati": 7340,
      "studio": 7341,
      "connected": 7342,
      "Langu": 7343,
      "threat": 7344,
      "democr": 7345,
      "shoot": 7346,
      "Christians": 7347,
      "script": 7348,
      "graphic": 7349,
      "Nu": 7350,
      "gor": 7351,
      "sum": 7352,
      "trial": 7353,
      "Chap": 7354,
      "ictional": 7355,
      "Major": 7356,
      "Tenn": 7357,
      "ón": 7358,
      "growth": 7359,
      "block": 7360,
      "78": 7361,
      "orbit": 7362,
      "bean": 7363,
      "verse": 7364,
      "empire": 7365,
      "occurs": 7366,
      "Pot": 7367,
      "reign": 7368,
      "ito": 7369,
      "trying": 7370,
      "//": 7371,
      "Distr": 7372,
      "veh": 7373,
      "itting": 7374,
      "Care": 7375,
      "sugar": 7376,
      "ifican": 7377,
      "flower": 7378,
      "document": 7379,
      "pronoun": 7380,
      "92": 7381,
      "Lind": 7382,
      "semb": 7383,
      "settle": 7384,
      "anton": 7385,
      "Station": 7386,
      "ression": 7387,
      "parliament": 7388,
      "classical": 7389,
      "literature": 7390,
      "Mik": 7391,
      "vere": 7392,
      "versions": 7393,
      "1888": 7394,
      "District": 7395,
      "Bav": 7396,
      "adel": 7397,
      "tries": 7398,
      "liked": 7399,
      "acting": 7400,
      "politicians": 7401,
      "Show": 7402,
      "burgh": 7403,
      "treatment": 7404,
      "Ohio": 7405,
      "Protestant": 7406,
      "Dun": 7407,
      "Lev": 7408,
      "asing": 7409,
      "terror": 7410,
      "fee": 7411,
      "inner": 7412,
      "Bridge": 7413,
      "captured": 7414,
      "bacteria": 7415,
      "FIFA": 7416,
      "Home": 7417,
      "universe": 7418,
      "estim": 7419,
      "marriage": 7420,
      "minutes": 7421,
      "clean": 7422,
      "eye": 7423,
      "scientific": 7424,
      "respons": 7425,
      "aste": 7426,
      "bec": 7427,
      "Moon": 7428,
      "views": 7429,
      "closed": 7430,
      "organisms": 7431,
      "Kat": 7432,
      "loss": 7433,
      "ises": 7434,
      "oma": 7435,
      "churches": 7436,
      "sets": 7437,
      "chester": 7438,
      "Prof": 7439,
      "Juan": 7440,
      "ishes": 7441,
      "ensus": 7442,
      "1865": 7443,
      "forests": 7444,
      "Kent": 7445,
      "ored": 7446,
      "rison": 7447,
      "watch": 7448,
      "1885": 7449,
      "grown": 7450,
      "store": 7451,
      "invest": 7452,
      "Moscow": 7453,
      "Ages": 7454,
      "Nick": 7455,
      "iny": 7456,
      "tee": 7457,
      "rugby": 7458,
      "executed": 7459,
      "Muhammad": 7460,
      "1800": 7461,
      "Force": 7462,
      "industrial": 7463,
      "Apple": 7464,
      "Confeder": 7465,
      "Nich": 7466,
      "Tony": 7467,
      "sar": 7468,
      "really": 7469,
      "isation": 7470,
      "currently": 7471,
      "Film": 7472,
      "reported": 7473,
      "68": 7474,
      "una": 7475,
      "evidence": 7476,
      "difference": 7477,
      "Simon": 7478,
      "motor": 7479,
      "technology": 7480,
      "completely": 7481,
      "inhabitants": 7482,
      "Ti": 7483,
      "Tro": 7484,
      "pel": 7485,
      "aki": 7486,
      "soil": 7487,
      "meat": 7488,
      "huge": 7489,
      "studies": 7490,
      "Alfred": 7491,
      "Vlad": 7492,
      "pa": 7493,
      "tes": 7494,
      "atar": 7495,
      "agu": 7496,
      "pointed": 7497,
      "eer": 7498,
      "vation": 7499,
      "osen": 7500,
      "project": 7501,
      "mathematics": 7502,
      "ili": 7503,
      "tha": 7504,
      "dev": 7505,
      "News": 7506,
      "Commonwealth": 7507,
      ");": 7508,
      "sort": 7509,
      "yd": 7510,
      "isa": 7511,
      "worship": 7512,
      "iple": 7513,
      "deg": 7514,
      "comic": 7515,
      "rier": 7516,
      "medi": 7517,
      "Croat": 7518,
      "Ethiop": 7519,
      "Ban": 7520,
      "Der": 7521,
      "tos": 7522,
      "agree": 7523,
      "upper": 7524,
      "ffic": 7525,
      "Adam": 7526,
      "Bos": 7527,
      "sources": 7528,
      "Athen": 7529,
      "án": 7530,
      "agreed": 7531,
      "match": 7532,
      "activity": 7533,
      "hydrogen": 7534,
      "hib": 7535,
      "uals": 7536,
      "percent": 7537,
      "prime": 7538,
      "cules": 7539,
      "Communist": 7540,
      "Let": 7541,
      "Ol": 7542,
      "rics": 7543,
      "waves": 7544,
      "ista": 7545,
      "resh": 7546,
      "ift": 7547,
      "Movie": 7548,
      "concert": 7549,
      "Wo": 7550,
      "fashion": 7551,
      "pers": 7552,
      "herit": 7553,
      "amb": 7554,
      "17th": 7555,
      "ordan": 7556,
      "historical": 7557,
      "remains": 7558,
      "ging": 7559,
      "izing": 7560,
      "designer": 7561,
      "candid": 7562,
      "CA": 7563,
      "Ker": 7564,
      "lan": 7565,
      "sac": 7566,
      "Group": 7567,
      "eases": 7568,
      "magn": 7569,
      "individual": 7570,
      "Institute": 7571,
      "involved": 7572,
      "pilot": 7573,
      "Beatles": 7574,
      "Philippines": 7575,
      "Native": 7576,
      "los": 7577,
      "map": 7578,
      "ores": 7579,
      "wal": 7580,
      "academ": 7581,
      "cerem": 7582,
      "1886": 7583,
      "atherine": 7584,
      "subject": 7585,
      "novelist": 7586,
      "broadcast": 7587,
      "Ukrainian": 7588,
      "construction": 7589,
      "phal": 7590,
      "diseases": 7591,
      "serious": 7592,
      "cultural": 7593,
      "Cross": 7594,
      "Rem": 7595,
      "lip": 7596,
      "conquer": 7597,
      "Fur": 7598,
      "wild": 7599,
      "popul": 7600,
      "1883": 7601,
      "buried": 7602,
      "organization": 7603,
      "Valley": 7604,
      "status": 7605,
      "mart": 7606,
      "mammals": 7607,
      "ori": 7608,
      "mixed": 7609,
      "launched": 7610,
      "Gallery": 7611,
      "Gulf": 7612,
      "bai": 7613,
      "dict": 7614,
      "spring": 7615,
      "ora": 7616,
      "parties": 7617,
      "aska": 7618,
      "rocks": 7619,
      "Caes": 7620,
      "adesh": 7621,
      "Azer": 7622,
      "Lim": 7623,
      "division": 7624,
      "inea": 7625,
      "hands": 7626,
      "Moroc": 7627,
      "further": 7628,
      "Usu": 7629,
      "insula": 7630,
      "worldwide": 7631,
      "Carib": 7632,
      "Brand": 7633,
      "Post": 7634,
      "tail": 7635,
      "composed": 7636,
      "Christop": 7637,
      "adopted": 7638,
      "55": 7639,
      "69": 7640,
      "Kaz": 7641,
      "aked": 7642,
      "Chief": 7643,
      "Anna": 7644,
      "Solar": 7645,
      "spirit": 7646,
      "oon": 7647,
      "158": 7648,
      "relat": 7649,
      "Syd": 7650,
      "Singap": 7651,
      "www": 7652,
      "Sie": 7653,
      "hour": 7654,
      "orb": 7655,
      "operating": 7656,
      "explos": 7657,
      "winner": 7658,
      "Mike": 7659,
      "Cit": 7660,
      "cers": 7661,
      "onaut": 7662,
      "significan": 7663,
      "baby": 7664,
      "wrong": 7665,
      "sembly": 7666,
      "Ga": 7667,
      "VIII": 7668,
      "lers": 7669,
      "pregn": 7670,
      "wa": 7671,
      "results": 7672,
      "Hein": 7673,
      "Count": 7674,
      "fuel": 7675,
      "icke": 7676,
      "helm": 7677,
      "Luther": 7678,
      "refers": 7679,
      "playwright": 7680,
      "DC": 7681,
      "beat": 7682,
      "teeth": 7683,
      "extin": 7684,
      "clothing": 7685,
      "soldier": 7686,
      "Iranian": 7687,
      "Romans": 7688,
      "Singapore": 7689,
      "Bio": 7690,
      "Net": 7691,
      "hem": 7692,
      "ention": 7693,
      "inson": 7694,
      "aught": 7695,
      "double": 7696,
      "Friedrich": 7697,
      "850": 7698,
      "pair": 7699,
      "stall": 7700,
      "Build": 7701,
      "Storm": 7702,
      "94": 7703,
      "Ly": 7704,
      "Sel": 7705,
      "Test": 7706,
      "ique": 7707,
      "wick": 7708,
      "reme": 7709,
      "usual": 7710,
      "respect": 7711,
      "confl": 7712,
      "Santa": 7713,
      "WW": 7714,
      "fell": 7715,
      "ios": 7716,
      "standing": 7717,
      "osaurs": 7718,
      "Dif": 7719,
      "dress": 7720,
      "isl": 7721,
      "ingu": 7722,
      "calcul": 7723,
      "bottom": 7724,
      "Roger": 7725,
      "Pas": 7726,
      "hop": 7727,
      "hits": 7728,
      "share": 7729,
      "Stone": 7730,
      "Usually": 7731,
      "Cel": 7732,
      "Kir": 7733,
      "Sus": 7734,
      "aya": 7735,
      "carried": 7736,
      "Carter": 7737,
      "1881": 7738,
      "radiation": 7739,
      "Writers": 7740,
      "shaped": 7741,
      "Hitler": 7742,
      "Fred": 7743,
      "Vene": 7744,
      "atmo": 7745,
      "manufact": 7746,
      "useful": 7747,
      "Wilson": 7748,
      "districts": 7749,
      "copies": 7750,
      "Afghanistan": 7751,
      "Jordan": 7752,
      "htt": 7753,
      "1879": 7754,
      "castle": 7755,
      "orchestra": 7756,
      "Bost": 7757,
      "ES": 7758,
      "pack": 7759,
      "iance": 7760,
      "presidential": 7761,
      "71": 7762,
      "://": 7763,
      "Scient": 7764,
      "ded": 7765,
      "oes": 7766,
      "trib": 7767,
      "legs": 7768,
      "appears": 7769,
      "Queens": 7770,
      "Members": 7771,
      "negative": 7772,
      "degree": 7773,
      "IA": 7774,
      "museum": 7775,
      "opens": 7776,
      "magazine": 7777,
      "scholar": 7778,
      "Ky": 7779,
      "Obser": 7780,
      "rig": 7781,
      "thick": 7782,
      "deb": 7783,
      "1884": 7784,
      "drama": 7785,
      "picture": 7786,
      "Records": 7787,
      "bond": 7788,
      "enty": 7789,
      "debut": 7790,
      "1880": 7791,
      "nucle": 7792,
      "Py": 7793,
      "ek": 7794,
      "ilities": 7795,
      "agen": 7796,
      "suicide": 7797,
      "Steve": 7798,
      "looking": 7799,
      "Napoleon": 7800,
      "Azerbai": 7801,
      "Christopher": 7802,
      "Ob": 7803,
      "lung": 7804,
      "Allen": 7805,
      "religions": 7806,
      "Trans": 7807,
      "Margaret": 7808,
      "Here": 7809,
      "Vo": 7810,
      "dre": 7811,
      "user": 7812,
      "adult": 7813,
      "meth": 7814,
      "Adams": 7815,
      "defined": 7816,
      "Sydney": 7817,
      "cru": 7818,
      "soft": 7819,
      "yet": 7820,
      "init": 7821,
      "online": 7822,
      "stick": 7823,
      "enger": 7824,
      "Mayor": 7825,
      "numer": 7826,
      "practice": 7827,
      "moment": 7828,
      "4th": 7829,
      "Hell": 7830,
      "rum": 7831,
      "iced": 7832,
      "chlor": 7833,
      "wheel": 7834,
      "cool": 7835,
      "Ferdin": 7836,
      "Ferdinand": 7837,
      "72": 7838,
      "Ah": 7839,
      "Ten": 7840,
      "league": 7841,
      "chosen": 7842,
      "ustr": 7843,
      "door": 7844,
      "oven": 7845,
      "1876": 7846,
      "onym": 7847,
      "saying": 7848,
      "corpor": 7849,
      "Mississ": 7850,
      "Antonio": 7851,
      "dangerous": 7852,
      "insects": 7853,
      "Caribbean": 7854,
      "Ku": 7855,
      "Vin": 7856,
      "bound": 7857,
      "ii": 7858,
      "wig": 7859,
      "16th": 7860,
      "volt": 7861,
      "1861": 7862,
      "Tal": 7863,
      "horn": 7864,
      "sus": 7865,
      "Album": 7866,
      "politics": 7867,
      "electrons": 7868,
      "beautiful": 7869,
      "Boston": 7870,
      "Dick": 7871,
      "Son": 7872,
      "paid": 7873,
      "tel": 7874,
      "enberg": 7875,
      "unknown": 7876,
      "positive": 7877,
      "Color": 7878,
      "Relig": 7879,
      "Taylor": 7880,
      "vest": 7881,
      "plat": 7882,
      "phr": 7883,
      "1864": 7884,
      "philosophy": 7885,
      "levels": 7886,
      "Brother": 7887,
      "selling": 7888,
      "symptoms": 7889,
      "creation": 7890,
      "eaten": 7891,
      "drive": 7892,
      "branch": 7893,
      "citizens": 7894,
      "freedom": 7895,
      "provinces": 7896,
      "property": 7897,
      "Books": 7898,
      "Bank": 7899,
      "chrom": 7900,
      "iano": 7901,
      "apers": 7902,
      "diale": 7903,
      "umber": 7904,
      "longest": 7905,
      "Wilhelm": 7906,
      "Guinea": 7907,
      "pattern": 7908,
      "Cre": 7909,
      "ilton": 7910,
      "quality": 7911,
      "Senate": 7912,
      "Supreme": 7913,
      "120": 7914,
      "Ok": 7915,
      "icate": 7916,
      "Days": 7917,
      "newspaper": 7918,
      "76": 7919,
      "stro": 7920,
      "clar": 7921,
      "centr": 7922,
      "ultan": 7923,
      "governor": 7924,
      "Service": 7925,
      "biology": 7926,
      "borough": 7927,
      "labor": 7928,
      "CE": 7929,
      "Ra": 7930,
      "brown": 7931,
      "ugh": 7932,
      "alone": 7933,
      "edge": 7934,
      "drummer": 7935,
      "animated": 7936,
      "Webs": 7937,
      "Holly": 7938,
      "ethnic": 7939,
      "Back": 7940,
      "Cost": 7941,
      "Hem": 7942,
      "Women": 7943,
      "gender": 7944,
      "Stat": 7945,
      "atomic": 7946,
      "Entertainment": 7947,
      "Cir": 7948,
      "Fel": 7949,
      "Ret": 7950,
      "Sud": 7951,
      "pu": 7952,
      "rhy": 7953,
      "extra": 7954,
      "phia": 7955,
      "Seven": 7956,
      "colour": 7957,
      "1873": 7958,
      "Fol": 7959,
      "sens": 7960,
      "itis": 7961,
      "abol": 7962,
      "dissol": 7963,
      "Conserv": 7964,
      "anni": 7965,
      "solo": 7966,
      "command": 7967,
      "Arabic": 7968,
      "learned": 7969,
      "Vide": 7970,
      "1867": 7971,
      "broke": 7972,
      "everyone": 7973,
      "bom": 7974,
      "faster": 7975,
      "counties": 7976,
      "solar": 7977,
      "1872": 7978,
      "cellor": 7979,
      "Moz": 7980,
      "ranean": 7981,
      "Mes": 7982,
      "meters": 7983,
      "cricke": 7984,
      "1863": 7985,
      "Series": 7986,
      "influenced": 7987,
      "Mongol": 7988,
      "Loc": 7989,
      "Libr": 7990,
      "Tan": 7991,
      "bought": 7992,
      "crew": 7993,
      "Leban": 7994,
      "José": 7995,
      "Pictures": 7996,
      "Fa": 7997,
      "Science": 7998,
      "sand": 7999,
      "device": 8000,
      "liber": 8001,
      "background": 8002,
      "Baron": 8003,
      "walls": 8004,
      "thesis": 8005,
      "dogs": 8006,
      "salt": 8007,
      "taught": 8008,
      "tex": 8009,
      "Bangl": 8010,
      "Byzantine": 8011,
      "walk": 8012,
      "opt": 8013,
      "utions": 8014,
      "Clau": 8015,
      "slaves": 8016,
      "iat": 8017,
      "chi": 8018,
      "suit": 8019,
      "ippi": 8020,
      "anything": 8021,
      "Asian": 8022,
      "joy": 8023,
      "invasion": 8024,
      "priest": 8025,
      "metals": 8026,
      "altern": 8027,
      "acre": 8028,
      "regard": 8029,
      "Shar": 8030,
      "everything": 8031,
      "fields": 8032,
      "attacked": 8033,
      "glas": 8034,
      "knowledge": 8035,
      "athe": 8036,
      "immun": 8037,
      "Maced": 8038,
      "Types": 8039,
      "competition": 8040,
      "Vienna": 8041,
      "Michigan": 8042,
      "Last": 8043,
      "Sav": 8044,
      "Well": 8045,
      "pite": 8046,
      "wise": 8047,
      "conserv": 8048,
      "provide": 8049,
      "colony": 8050,
      "dim": 8051,
      "hospital": 8052,
      "Theatre": 8053,
      "ears": 8054,
      "pret": 8055,
      "memory": 8056,
      "Bavaria": 8057,
      "Tun": 8058,
      "VII": 8059,
      "nations": 8060,
      "wants": 8061,
      "ania": 8062,
      "tools": 8063,
      "rod": 8064,
      "1878": 8065,
      "signs": 8066,
      "iterranean": 8067,
      "opening": 8068,
      "associated": 8069,
      "Lud": 8070,
      "maker": 8071,
      "plate": 8072,
      "Howard": 8073,
      "cricketer": 8074,
      "Ale": 8075,
      "inate": 8076,
      "theatre": 8077,
      "chief": 8078,
      "Marsh": 8079,
      "flowers": 8080,
      "collection": 8081,
      "Venez": 8082,
      "Pun": 8083,
      "Wat": 8084,
      "iers": 8085,
      "touch": 8086,
      "antasy": 8087,
      "evil": 8088,
      "condition": 8089,
      "steel": 8090,
      "operation": 8091,
      "Samuel": 8092,
      "declares": 8093,
      "Indonesia": 8094,
      "Dom": 8095,
      "Down": 8096,
      "Knight": 8097,
      "Len": 8098,
      "Nar": 8099,
      "bing": 8100,
      "oke": 8101,
      "elle": 8102,
      "mos": 8103,
      "1875": 8104,
      "strength": 8105,
      "Dog": 8106,
      "cia": 8107,
      "dish": 8108,
      "eing": 8109,
      "fund": 8110,
      "master": 8111,
      "adv": 8112,
      "ips": 8113,
      "mont": 8114,
      "student": 8115,
      "Mediterranean": 8116,
      "Tokyo": 8117,
      "Grammy": 8118,
      "imal": 8119,
      "lyrics": 8120,
      "poison": 8121,
      "1868": 8122,
      "1848": 8123,
      "Division": 8124,
      "Educ": 8125,
      "Eric": 8126,
      "Ring": 8127,
      "fal": 8128,
      "ram": 8129,
      "sons": 8130,
      "personality": 8131,
      "park": 8132,
      "Province": 8133,
      "jobs": 8134,
      "Expl": 8135,
      "Philadel": 8136,
      "cultures": 8137,
      "Douglas": 8138,
      "Kon": 8139,
      "Power": 8140,
      "kid": 8141,
      "onse": 8142,
      "neur": 8143,
      "Lead": 8144,
      "Castle": 8145,
      "painting": 8146,
      "victim": 8147,
      "Radio": 8148,
      "Caesar": 8149,
      "phas": 8150,
      "”.": 8151,
      "anch": 8152,
      "urban": 8153,
      "perm": 8154,
      "Alan": 8155,
      "Mars": 8156,
      "pool": 8157,
      "icket": 8158,
      "Stock": 8159,
      "arran": 8160,
      "worn": 8161,
      "Story": 8162,
      "mental": 8163,
      "orning": 8164,
      "consist": 8165,
      "changing": 8166,
      "Territ": 8167,
      "territories": 8168,
      "question": 8169,
      "electronic": 8170,
      "Cart": 8171,
      "Spring": 8172,
      "ien": 8173,
      "imir": 8174,
      "umn": 8175,
      "counter": 8176,
      "planes": 8177,
      "easier": 8178,
      "continue": 8179,
      "Palest": 8180,
      "properties": 8181,
      "Years": 8182,
      "executive": 8183,
      "Philadelphia": 8184,
      "Da": 8185,
      "Gust": 8186,
      "Open": 8187,
      "Rol": 8188,
      "cury": 8189,
      "Norman": 8190,
      "increase": 8191,
      "earliest": 8192,
      "Feder": 8193,
      "VD": 8194,
      "crop": 8195,
      "heav": 8196,
      "leaving": 8197,
      "coal": 8198,
      "End": 8199,
      "agreement": 8200,
      "sculptor": 8201,
      "Mississippi": 8202,
      "Dam": 8203,
      "Tu": 8204,
      "eating": 8205,
      "height": 8206,
      "ologists": 8207,
      "1871": 8208,
      "activities": 8209,
      "Ukraine": 8210,
      "Bruce": 8211,
      "Cold": 8212,
      "zone": 8213,
      "asia": 8214,
      "illegal": 8215,
      "irty": 8216,
      "council": 8217,
      "presenter": 8218,
      "defeats": 8219,
      "victory": 8220,
      "Vill": 8221,
      "iding": 8222,
      "1874": 8223,
      "vari": 8224,
      "generation": 8225,
      "Special": 8226,
      "accepted": 8227,
      "Personal": 8228,
      "eru": 8229,
      "tox": 8230,
      "thus": 8231,
      "section": 8232,
      "visible": 8233,
      "economist": 8234,
      "Palace": 8235,
      "railway": 8236,
      "significant": 8237,
      "pup": 8238,
      "divor": 8239,
      "Who": 8240,
      "Encyclop": 8241,
      "happy": 8242,
      "equip": 8243,
      "Epis": 8244,
      "cartoon": 8245,
      "arily": 8246,
      "ieval": 8247,
      "spect": 8248,
      "marine": 8249,
      "queen": 8250,
      "Techn": 8251,
      "primary": 8252,
      "Base": 8253,
      "fro": 8254,
      "inem": 8255,
      "agement": 8256,
      "rix": 8257,
      "planets": 8258,
      "Ren": 8259,
      "Theod": 8260,
      "berry": 8261,
      "formal": 8262,
      "singing": 8263,
      "micro": 8264,
      "recognized": 8265,
      "borders": 8266,
      "factor": 8267,
      "iga": 8268,
      "aph": 8269,
      "elections": 8270,
      "1870": 8271,
      "particularly": 8272,
      "arrested": 8273,
      "commercial": 8274,
      "Venezuel": 8275,
      "Lie": 8276,
      "gam": 8277,
      "heard": 8278,
      "usal": 8279,
      "otic": 8280,
      "boat": 8281,
      "spin": 8282,
      "achie": 8283,
      "Abd": 8284,
      "Hait": 8285,
      "Khan": 8286,
      "iology": 8287,
      "slight": 8288,
      "reaction": 8289,
      "ouri": 8290,
      "thy": 8291,
      "hai": 8292,
      "Road": 8293,
      "Form": 8294,
      "oe": 8295,
      "igg": 8296,
      "athan": 8297,
      "Lewis": 8298,
      "bright": 8299,
      "1877": 8300,
      "discuss": 8301,
      "pronounced": 8302,
      "Hun": 8303,
      "categ": 8304,
      "federal": 8305,
      "Andr": 8306,
      "Henri": 8307,
      "rapper": 8308,
      "increased": 8309,
      "silver": 8310,
      "Labour": 8311,
      "fifth": 8312,
      "Anthony": 8313,
      "CC": 8314,
      "sty": 8315,
      "recording": 8316,
      "vances": 8317,
      "hurt": 8318,
      "saint": 8319,
      "oral": 8320,
      "pton": 8321,
      "Brian": 8322,
      "nearby": 8323,
      "flood": 8324,
      "electrical": 8325,
      "estimated": 8326,
      "61": 8327,
      "93": 8328,
      "Sri": 8329,
      "vit": 8330,
      "inian": 8331,
      "oslav": 8332,
      "Stand": 8333,
      "earch": 8334,
      "limited": 8335,
      "6th": 8336,
      "Indo": 8337,
      "Heart": 8338,
      "Antar": 8339,
      "1950s": 8340,
      "variety": 8341,
      "Franklin": 8342,
      "universities": 8343,
      "Saudi": 8344,
      "130": 8345,
      "falls": 8346,
      "stream": 8347,
      "location": 8348,
      "Dominican": 8349,
      "''": 8350,
      "Por": 8351,
      "Thail": 8352,
      "retired": 8353,
      "appearance": 8354,
      "judge": 8355,
      "Thailand": 8356,
      "88": 8357,
      "Sab": 8358,
      "Ut": 8359,
      "ably": 8360,
      "ements": 8361,
      "necess": 8362,
      "penis": 8363,
      "separated": 8364,
      "clothes": 8365,
      "Rena": 8366,
      "ware": 8367,
      "seem": 8368,
      "perfect": 8369,
      "disestablishments": 8370,
      "1860": 8371,
      "1859": 8372,
      "idden": 8373,
      "discovery": 8374,
      "trains": 8375,
      "unior": 8376,
      "slowly": 8377,
      "molecules": 8378,
      "sav": 8379,
      "onent": 8380,
      "perman": 8381,
      "Franz": 8382,
      "choose": 8383,
      "address": 8384,
      "operas": 8385,
      "bourg": 8386,
      "typically": 8387,
      "Website": 8388,
      "cod": 8389,
      "eland": 8390,
      "igen": 8391,
      "rows": 8392,
      "Iron": 8393,
      "Rail": 8394,
      "Sem": 8395,
      "stances": 8396,
      "Jacques": 8397,
      "succeed": 8398,
      "Library": 8399,
      "Dal": 8400,
      "mud": 8401,
      "punk": 8402,
      "send": 8403,
      "ture": 8404,
      "ão": 8405,
      "inde": 8406,
      "Several": 8407,
      "DS": 8408,
      "Hand": 8409,
      "Var": 8410,
      "ders": 8411,
      "Instead": 8412,
      "Def": 8413,
      "1862": 8414,
      "pression": 8415,
      "Det": 8416,
      "Father": 8417,
      "Nov": 8418,
      "dens": 8419,
      "verte": 8420,
      "icted": 8421,
      "crashes": 8422,
      "Julian": 8423,
      "Cambridge": 8424,
      "purpose": 8425,
      "Video": 8426,
      "74": 8427,
      "Kings": 8428,
      "Nel": 8429,
      "Tower": 8430,
      "uto": 8431,
      "anne": 8432,
      "aled": 8433,
      "warf": 8434,
      "91": 8435,
      "Catherine": 8436,
      "Lyn": 8437,
      "theolog": 8438,
      "icas": 8439,
      "elli": 8440,
      "causing": 8441,
      "5th": 8442,
      "63": 8443,
      "gro": 8444,
      "gang": 8445,
      "saf": 8446,
      "ellig": 8447,
      "Univers": 8448,
      "compared": 8449,
      "aurus": 8450,
      "onomy": 8451,
      "Stanley": 8452,
      "batt": 8453,
      "stable": 8454,
      "mund": 8455,
      "Know": 8456,
      "mention": 8457,
      "raham": 8458,
      "Newton": 8459,
      "intellig": 8460,
      "leads": 8461,
      "measured": 8462,
      "Current": 8463,
      "Mountains": 8464,
      "Children": 8465,
      "Get": 8466,
      "ike": 8467,
      "seats": 8468,
      "college": 8469,
      "distin": 8470,
      "Syria": 8471,
      "floor": 8472,
      "stayed": 8473,
      "Puer": 8474,
      "Dur": 8475,
      "Gun": 8476,
      "wart": 8477,
      "inking": 8478,
      "velt": 8479,
      "apped": 8480,
      "chemicals": 8481,
      "Morocco": 8482,
      "Ross": 8483,
      "dor": 8484,
      "asc": 8485,
      "adults": 8486,
      "agric": 8487,
      "boys": 8488,
      "bled": 8489,
      "depression": 8490,
      "Jerusal": 8491,
      "ancest": 8492,
      "Patrick": 8493,
      "risk": 8494,
      "Tamil": 8495,
      "Championship": 8496,
      "Origin": 8497,
      "Jerusalem": 8498,
      "Mit": 8499,
      "Rand": 8500,
      "Vik": 8501,
      "enburg": 8502,
      "irt": 8503,
      "shop": 8504,
      "gene": 8505,
      "Third": 8506,
      "issance": 8507,
      "Cape": 8508,
      "Giov": 8509,
      "DVD": 8510,
      "Field": 8511,
      "Sl": 8512,
      "tu": 8513,
      "concentr": 8514,
      "Roose": 8515,
      "Brook": 8516,
      "nickn": 8517,
      "Rhine": 8518,
      "meeting": 8519,
      "Band": 8520,
      "Jup": 8521,
      "hang": 8522,
      "sick": 8523,
      "Plan": 8524,
      "treated": 8525,
      "zero": 8526,
      "completed": 8527,
      "Slovak": 8528,
      "Prussia": 8529,
      "Ay": 8530,
      "Wes": 8531,
      "Arts": 8532,
      "Dead": 8533,
      "flows": 8534,
      "remained": 8535,
      "Ever": 8536,
      "Ta": 8537,
      "ray": 8538,
      "orph": 8539,
      "ometers": 8540,
      "Short": 8541,
      "broken": 8542,
      "decide": 8543,
      "Abraham": 8544,
      "possib": 8545,
      "73": 8546,
      "Final": 8547,
      "Kin": 8548,
      "Tar": 8549,
      "Wag": 8550,
      "Wolf": 8551,
      "bri": 8552,
      "finger": 8553,
      "remember": 8554,
      "edition": 8555,
      "libr": 8556,
      "differences": 8557,
      "Boeing": 8558,
      "domest": 8559,
      "Brad": 8560,
      "beliefs": 8561,
      "Military": 8562,
      "failure": 8563,
      "Flight": 8564,
      "Sul": 8565,
      "Won": 8566,
      "fit": 8567,
      "reve": 8568,
      "offee": 8569,
      "bear": 8570,
      "||||": 8571,
      "capture": 8572,
      "improve": 8573,
      "exactly": 8574,
      "Fri": 8575,
      "Jour": 8576,
      "knew": 8577,
      "aco": 8578,
      "ache": 8579,
      "seat": 8580,
      "ette": 8581,
      "cious": 8582,
      "content": 8583,
      "Country": 8584,
      "particip": 8585,
      "Missouri": 8586,
      "nominated": 8587,
      "http": 8588,
      "Festival": 8589,
      "ju": 8590,
      "pick": 8591,
      "wit": 8592,
      "chain": 8593,
      "seasons": 8594,
      "Channel": 8595,
      "lose": 8596,
      "anning": 8597,
      "Medicine": 8598,
      "listed": 8599,
      "definition": 8600,
      "Roosevelt": 8601,
      "Ein": 8602,
      "Kal": 8603,
      "lit": 8604,
      "escape": 8605,
      "aga": 8606,
      "Alban": 8607,
      "goods": 8608,
      "Ontar": 8609,
      "twice": 8610,
      "Broad": 8611,
      "failed": 8612,
      "Ontario": 8613,
      "MA": 8614,
      "bones": 8615,
      "lord": 8616,
      "erve": 8617,
      "ounts": 8618,
      "Health": 8619,
      "functions": 8620,
      "Doctor": 8621,
      "Capital": 8622,
      "Square": 8623,
      "',": 8624,
      "aud": 8625,
      "nie": 8626,
      "pub": 8627,
      "constant": 8628,
      "neck": 8629,
      "Head": 8630,
      "contro": 8631,
      "twenty": 8632,
      "circle": 8633,
      "straight": 8634,
      "chemistry": 8635,
      "experience": 8636,
      "Ivan": 8637,
      "Pa": 8638,
      "Six": 8639,
      "Wild": 8640,
      "cm": 8641,
      "oh": 8642,
      "search": 8643,
      "desc": 8644,
      "presents": 8645,
      "depending": 8646,
      "Saxony": 8647,
      "quarters": 8648,
      "Florence": 8649,
      "Further": 8650,
      "atmosphere": 8651,
      "Turn": 8652,
      "cope": 8653,
      "pray": 8654,
      "ordered": 8655,
      "Malays": 8656,
      "Arabia": 8657,
      "training": 8658,
      "colonies": 8659,
      "Nicholas": 8660,
      "academic": 8661,
      "Cha": 8662,
      "PC": 8663,
      "cards": 8664,
      "iod": 8665,
      "articles": 8666,
      "Rober": 8667,
      "Cook": 8668,
      "classification": 8669,
      "street": 8670,
      "gradu": 8671,
      "Yug": 8672,
      "fir": 8673,
      "mm": 8674,
      "wait": 8675,
      "repe": 8676,
      "aging": 8677,
      "singles": 8678,
      "1869": 8679,
      "continent": 8680,
      "required": 8681,
      "Jerry": 8682,
      "cyclist": 8683,
      "Region": 8684,
      "Hawaii": 8685,
      "equipment": 8686,
      "Card": 8687,
      "Gh": 8688,
      "Nam": 8689,
      "Ped": 8690,
      "appointed": 8691,
      "Alger": 8692,
      "brid": 8693,
      "respond": 8694,
      "Melbourne": 8695,
      "honor": 8696,
      "hundreds": 8697,
      "enemy": 8698,
      "Education": 8699,
      "Call": 8700,
      "Fair": 8701,
      "Lau": 8702,
      "Site": 8703,
      "fresh": 8704,
      "elve": 8705,
      "2023": 8706,
      "fried": 8707,
      "maz": 8708,
      "Once": 8709,
      "volume": 8710,
      "brew": 8711,
      "Coast": 8712,
      "boxer": 8713,
      "Puerto": 8714,
      "Top": 8715,
      "corn": 8716,
      "mort": 8717,
      "pig": 8718,
      "agle": 8719,
      "planned": 8720,
      "aints": 8721,
      "ultural": 8722,
      "Leo": 8723,
      "145": 8724,
      "Online": 8725,
      "Buff": 8726,
      "Simpson": 8727,
      "Giovanni": 8728,
      "Rain": 8729,
      "Sky": 8730,
      "plastic": 8731,
      "wars": 8732,
      "particle": 8733,
      "Serbia": 8734,
      "Jupiter": 8735,
      "items": 8736,
      "Cho": 8737,
      "poses": 8738,
      "crimes": 8739,
      "equation": 8740,
      "clubs": 8741,
      "Bulgaria": 8742,
      "Different": 8743,
      "Kh": 8744,
      "Lank": 8745,
      "Mach": 8746,
      "determin": 8747,
      "1857": 8748,
      "grees": 8749,
      "ancing": 8750,
      "Kelly": 8751,
      "Non": 8752,
      "Op": 8753,
      "lack": 8754,
      "aling": 8755,
      "amounts": 8756,
      "Real": 8757,
      "producers": 8758,
      "prey": 8759,
      "legisl": 8760,
      "movements": 8761,
      "Benj": 8762,
      "Liter": 8763,
      "zen": 8764,
      "resources": 8765,
      "gry": 8766,
      "disput": 8767,
      "architecture": 8768,
      "Foundation": 8769,
      "7th": 8770,
      "Cass": 8771,
      "Dark": 8772,
      "Jay": 8773,
      "Jama": 8774,
      "Times": 8775,
      "immedi": 8776,
      "Marx": 8777,
      "Guy": 8778,
      "looked": 8779,
      "photographer": 8780,
      "Chancellor": 8781,
      "Kev": 8782,
      "wich": 8783,
      "lying": 8784,
      "harmon": 8785,
      "Cathedral": 8786,
      "Saxe": 8787,
      "occupied": 8788,
      "Constantin": 8789,
      "noble": 8790,
      "awarded": 8791,
      "methods": 8792,
      "Dol": 8793,
      "Dem": 8794,
      "Lenn": 8795,
      "Pit": 8796,
      "Sultan": 8797,
      "Vice": 8798,
      "een": 8799,
      "fans": 8800,
      "thew": 8801,
      "alum": 8802,
      "Inc": 8803,
      "therefore": 8804,
      "brand": 8805,
      "Project": 8806,
      "astronaut": 8807,
      "extrem": 8808,
      "Lam": 8809,
      "NH": 8810,
      "cot": 8811,
      "phere": 8812,
      "visions": 8813,
      "slightly": 8814,
      "Master": 8815,
      "gers": 8816,
      "wine": 8817,
      "ila": 8818,
      "sole": 8819,
      "anna": 8820,
      "fecture": 8821,
      "programming": 8822,
      "communication": 8823,
      "hole": 8824,
      "voted": 8825,
      "multiple": 8826,
      "Natural": 8827,
      "Benjamin": 8828,
      "Rub": 8829,
      "fre": 8830,
      "rise": 8831,
      "aux": 8832,
      "Work": 8833,
      "guil": 8834,
      "finally": 8835,
      "motion": 8836,
      "Gregor": 8837,
      "distribution": 8838,
      "Tol": 8839,
      "gate": 8840,
      "lah": 8841,
      "oms": 8842,
      "rose": 8843,
      "fection": 8844,
      "marry": 8845,
      "Shiva": 8846,
      "safe": 8847,
      "Office": 8848,
      "Archbishop": 8849,
      "Jimmy": 8850,
      "vocals": 8851,
      "rhyth": 8852,
      "Mess": 8853,
      "fictional": 8854,
      "mate": 8855,
      "Frances": 8856,
      "covers": 8857,
      "1850": 8858,
      "runner": 8859,
      "conflict": 8860,
      "tribes": 8861,
      "IP": 8862,
      "catch": 8863,
      "gain": 8864,
      "uts": 8865,
      "visited": 8866,
      "Russell": 8867,
      "curren": 8868,
      "organized": 8869,
      "Harrison": 8870,
      "treaty": 8871,
      "Bernard": 8872,
      "theologian": 8873,
      "ML": 8874,
      "Vers": 8875,
      "isis": 8876,
      "enjoy": 8877,
      "sters": 8878,
      "ading": 8879,
      "tered": 8880,
      "degrees": 8881,
      "colate": 8882,
      "skater": 8883,
      "contest": 8884,
      "1866": 8885,
      "Hugo": 8886,
      "thinking": 8887,
      "combined": 8888,
      "younger": 8889,
      "roll": 8890,
      "sco": 8891,
      "onian": 8892,
      "seas": 8893,
      "lyn": 8894,
      "cream": 8895,
      "governments": 8896,
      "Brun": 8897,
      "Colum": 8898,
      "substance": 8899,
      "Manchester": 8900,
      "Ethiopia": 8901,
      "Bach": 8902,
      "Gor": 8903,
      "Wis": 8904,
      "flies": 8905,
      "erals": 8906,
      "ropol": 8907,
      "Arn": 8908,
      "poll": 8909,
      "affected": 8910,
      "disorder": 8911,
      "Convention": 8912,
      "Assembly": 8913,
      "concerts": 8914,
      "expensive": 8915,
      "Justice": 8916,
      "Estonian": 8917,
      "Ow": 8918,
      "Pow": 8919,
      "Sum": 8920,
      "zona": 8921,
      "income": 8922,
      "opp": 8923,
      "illness": 8924,
      "foods": 8925,
      "Nept": 8926,
      "rupt": 8927,
      "Department": 8928,
      "cred": 8929,
      "occas": 8930,
      "minster": 8931,
      "Trump": 8932,
      "Davis": 8933,
      "municipality": 8934,
      "MPs": 8935,
      "Azerbaijan": 8936,
      "Hollywood": 8937,
      "Bed": 8938,
      "Clin": 8939,
      "dates": 8940,
      "sites": 8941,
      "theastern": 8942,
      "Musicians": 8943,
      "virus": 8944,
      "Computer": 8945,
      "Shah": 8946,
      "Las": 8947,
      "RC": 8948,
      "SP": 8949,
      "eor": 8950,
      "opin": 8951,
      "geo": 8952,
      "kee": 8953,
      "answer": 8954,
      "ension": 8955,
      "flav": 8956,
      "Johnny": 8957,
      "organizations": 8958,
      "learning": 8959,
      "Imperial": 8960,
      "extinct": 8961,
      "Nag": 8962,
      "Set": 8963,
      "Word": 8964,
      "jum": 8965,
      "zi": 8966,
      "iling": 8967,
      "rob": 8968,
      "rank": 8969,
      "iki": 8970,
      "smallest": 8971,
      "Anderson": 8972,
      "Quebec": 8973,
      "powder": 8974,
      "Gabri": 8975,
      "Profess": 8976,
      "Bros": 8977,
      "Bird": 8978,
      "brit": 8979,
      "sed": 8980,
      "omes": 8981,
      "seeds": 8982,
      "feed": 8983,
      "creating": 8984,
      "serve": 8985,
      "dram": 8986,
      "Produ": 8987,
      "contribut": 8988,
      "organs": 8989,
      "theore": 8990,
      "Stud": 8991,
      "iolet": 8992,
      "crust": 8993,
      "crash": 8994,
      "Coll": 8995,
      "interested": 8996,
      "1000": 8997,
      "onso": 8998,
      "alle": 8999,
      "users": 9000,
      "adm": 9001,
      "iders": 9002,
      "episodes": 9003,
      "miral": 9004,
      "Bac": 9005,
      "Bapt": 9006,
      "Ian": 9007,
      "Orange": 9008,
      "Sid": 9009,
      "Sex": 9010,
      "bone": 9011,
      "chance": 9012,
      "tri": 9013,
      "148": 9014,
      "films": 9015,
      "machines": 9016,
      "confir": 9017,
      "mphony": 9018,
      "Vladimir": 9019,
      "79": 9020,
      "Mother": 9021,
      "bach": 9022,
      "rian": 9023,
      "ayan": 9024,
      "comb": 9025,
      "marks": 9026,
      "prep": 9027,
      "homes": 9028,
      "administrative": 9029,
      "62": 9030,
      "Cry": 9031,
      "Gro": 9032,
      "TO": 9033,
      "bath": 9034,
      "images": 9035,
      "illes": 9036,
      "hism": 9037,
      "Media": 9038,
      "porary": 9039,
      "represented": 9040,
      "engineering": 9041,
      "girls": 9042,
      "Globe": 9043,
      "Public": 9044,
      "Syn": 9045,
      "Wy": 9046,
      "itage": 9047,
      "extens": 9048,
      "expected": 9049,
      "avoid": 9050,
      "Heritage": 9051,
      "Captain": 9052,
      "Amaz": 9053,
      "roots": 9054,
      "renamed": 9055,
      "Lux": 9056,
      "Catholics": 9057,
      "claims": 9058,
      "prisoners": 9059,
      "600": 9060,
      "Burn": 9061,
      "Gord": 9062,
      "Hind": 9063,
      "effic": 9064,
      "Alaska": 9065,
      "Franç": 9066,
      "Those": 9067,
      "Hamilton": 9068,
      "potential": 9069,
      "felt": 9070,
      "celebrated": 9071,
      "Billy": 9072,
      "Cob": 9073,
      "Gran": 9074,
      "ners": 9075,
      "sor": 9076,
      "uz": 9077,
      "urg": 9078,
      "immigr": 9079,
      "moons": 9080,
      "dioxide": 9081,
      "Champ": 9082,
      "orses": 9083,
      "anny": 9084,
      "strings": 9085,
      "osex": 9086,
      "metres": 9087,
      "archae": 9088,
      "greater": 9089,
      "magnetic": 9090,
      "femin": 9091,
      "survive": 9092,
      "Wagner": 9093,
      "800": 9094,
      "Bag": 9095,
      "bread": 9096,
      "gall": 9097,
      "rice": 9098,
      "ün": 9099,
      "stadium": 9100,
      "angle": 9101,
      "simpl": 9102,
      "Anglo": 9103,
      "giant": 9104,
      "devices": 9105,
      "Athens": 9106,
      "Citiz": 9107,
      "Renaissance": 9108,
      "Columbus": 9109,
      "Jenn": 9110,
      "Must": 9111,
      "Uru": 9112,
      "Your": 9113,
      "stal": 9114,
      "Information": 9115,
      "Contin": 9116,
      "ission": 9117,
      "consists": 9118,
      "1858": 9119,
      "violence": 9120,
      "ictionary": 9121,
      "winds": 9122,
      "recently": 9123,
      "Kevin": 9124,
      "Vas": 9125,
      "XX": 9126,
      "hun": 9127,
      "reci": 9128,
      "outer": 9129,
      "acu": 9130,
      "advent": 9131,
      "ima": 9132,
      "Isa": 9133,
      "Ass": 9134,
      "Pho": 9135,
      "finan": 9136,
      "organic": 9137,
      "Harold": 9138,
      "Team": 9139,
      "stronger": 9140,
      "Louisiana": 9141,
      "brothers": 9142,
      "Cab": 9143,
      "Lower": 9144,
      "Yellow": 9145,
      "pse": 9146,
      "onze": 9147,
      "leap": 9148,
      "dios": 9149,
      "aks": 9150,
      "Ark": 9151,
      "pole": 9152,
      "produces": 9153,
      "contact": 9154,
      "highly": 9155,
      "Upper": 9156,
      "speakers": 9157,
      "paintings": 9158,
      "Vietnamese": 9159,
      "thousand": 9160,
      "Forest": 9161,
      "Arizona": 9162,
      "Beng": 9163,
      "jump": 9164,
      "sul": 9165,
      "rif": 9166,
      "goals": 9167,
      "eva": 9168,
      "Commit": 9169,
      "Advent": 9170,
      "protected": 9171,
      "rooms": 9172,
      "Colombia": 9173,
      "Pom": 9174,
      "soc": 9175,
      "illustr": 9176,
      "ellite": 9177,
      "biography": 9178,
      "sweet": 9179,
      "Ce": 9180,
      "Cos": 9181,
      "cution": 9182,
      "score": 9183,
      "ined": 9184,
      "imore": 9185,
      "owner": 9186,
      "transfer": 9187,
      "classes": 9188,
      "dictator": 9189,
      "Nelson": 9190,
      "Gy": 9191,
      "Kö": 9192,
      "gol": 9193,
      "hill": 9194,
      "1812": 9195,
      "assic": 9196,
      "soul": 9197,
      "temperatures": 9198,
      "unique": 9199,
      "Carlos": 9200,
      "Bangladesh": 9201,
      "Jam": 9202,
      "oute": 9203,
      "Any": 9204,
      "Photo": 9205,
      "USS": 9206,
      "dynam": 9207,
      "shell": 9208,
      "Dream": 9209,
      "conquered": 9210,
      "Est": 9211,
      "Pass": 9212,
      "cab": 9213,
      "emot": 9214,
      "conver": 9215,
      "assist": 9216,
      "affect": 9217,
      "Colon": 9218,
      "belief": 9219,
      "passes": 9220,
      "males": 9221,
      "damaged": 9222,
      "responsible": 9223,
      "texts": 9224,
      "Culture": 9225,
      "Sic": 9226,
      "inherit": 9227,
      "iller": 9228,
      "medal": 9229,
      "engers": 9230,
      "Transport": 9231,
      "Community": 9232,
      "expand": 9233,
      "Political": 9234,
      "analysis": 9235,
      "soccer": 9236,
      "ifer": 9237,
      "leton": 9238,
      "eline": 9239,
      "excl": 9240,
      "Alab": 9241,
      "policy": 9242,
      "metropolitan": 9243,
      "follows": 9244,
      "Salv": 9245,
      "Matthew": 9246,
      "roads": 9247,
      "Hinduism": 9248,
      "punish": 9249,
      "Business": 9250,
      "Heinrich": 9251,
      "Neptune": 9252,
      "EP": 9253,
      "Hend": 9254,
      "Id": 9255,
      "department": 9256,
      "doctors": 9257,
      "values": 9258,
      "1801": 9259,
      "historic": 9260,
      "response": 9261,
      "Ronald": 9262,
      "extremely": 9263,
      "UE": 9264,
      "iy": 9265,
      "itation": 9266,
      "chart": 9267,
      "Nepal": 9268,
      "disk": 9269,
      "NASA": 9270,
      "label": 9271,
      "Toronto": 9272,
      "global": 9273,
      "crowned": 9274,
      "Yugoslav": 9275,
      "Rights": 9276,
      "pir": 9277,
      "tend": 9278,
      "wings": 9279,
      "inth": 9280,
      "alive": 9281,
      "iden": 9282,
      "proof": 9283,
      "Hebrew": 9284,
      "surren": 9285,
      "1851": 9286,
      "gravity": 9287,
      "Observances": 9288,
      "morning": 9289,
      "nit": 9290,
      "inum": 9291,
      "oples": 9292,
      "Anti": 9293,
      "aug": 9294,
      "identity": 9295,
      "require": 9296,
      "Sunday": 9297,
      "professor": 9298,
      "faith": 9299,
      "fossil": 9300,
      "Lithuania": 9301,
      "Alabama": 9302,
      "Jur": 9303,
      "vary": 9304,
      "aly": 9305,
      "subs": 9306,
      "Around": 9307,
      "attention": 9308,
      "Beach": 9309,
      "1856": 9310,
      "faces": 9311,
      "Temple": 9312,
      "distinct": 9313,
      "AC": 9314,
      "Cra": 9315,
      "Lad": 9316,
      "haps": 9317,
      "enes": 9318,
      "imag": 9319,
      "cler": 9320,
      "maintain": 9321,
      "ika": 9322,
      "link": 9323,
      "Calvin": 9324,
      "turns": 9325,
      "entered": 9326,
      "Labor": 9327,
      "Colorado": 9328,
      "Cher": 9329,
      "festival": 9330,
      "wet": 9331,
      "inches": 9332,
      "eless": 9333,
      "keys": 9334,
      "price": 9335,
      "vanced": 9336,
      "Westminster": 9337,
      "continental": 9338,
      "Lawrence": 9339,
      "magnitude": 9340,
      "Aqu": 9341,
      "chap": 9342,
      "akers": 9343,
      "foc": 9344,
      "guard": 9345,
      "21st": 9346,
      "1849": 9347,
      "approxim": 9348,
      "healthy": 9349,
      "Sarah": 9350,
      "Organization": 9351,
      "Constantine": 9352,
      "Urugu": 9353,
      "pion": 9354,
      "vess": 9355,
      "grade": 9356,
      "ciences": 9357,
      "restaur": 9358,
      "Dragon": 9359,
      "translation": 9360,
      "kilomet": 9361,
      "Claude": 9362,
      "Fame": 9363,
      "zes": 9364,
      "whom": 9365,
      "140": 9366,
      "steam": 9367,
      "Baltimore": 9368,
      "Eis": 9369,
      "Low": 9370,
      "Minn": 9371,
      "Pi": 9372,
      "Rab": 9373,
      "stated": 9374,
      "oles": 9375,
      "chair": 9376,
      "Franco": 9377,
      "Whit": 9378,
      "copper": 9379,
      "Patri": 9380,
      "reflect": 9381,
      "Munich": 9382,
      "Clinton": 9383,
      "Bou": 9384,
      "LGB": 9385,
      "Od": 9386,
      "Oliver": 9387,
      "Pink": 9388,
      "pine": 9389,
      "tube": 9390,
      "lia": 9391,
      "shared": 9392,
      "Unlike": 9393,
      "spot": 9394,
      "nothing": 9395,
      "engines": 9396,
      "1844": 9397,
      "circum": 9398,
      "Madrid": 9399,
      "Cuban": 9400,
      "dete": 9401,
      "Tennes": 9402,
      "Haiti": 9403,
      "51": 9404,
      "Gard": 9405,
      "OC": 9406,
      "tea": 9407,
      "Stadium": 9408,
      "Beck": 9409,
      "laus": 9410,
      "Climate": 9411,
      "bara": 9412,
      "Chem": 9413,
      "target": 9414,
      "rapid": 9415,
      "printed": 9416,
      "couple": 9417,
      "Tennessee": 9418,
      "Na": 9419,
      "Rac": 9420,
      "Sher": 9421,
      "Sah": 9422,
      "fighter": 9423,
      "rand": 9424,
      "tim": 9425,
      "vian": 9426,
      "eler": 9427,
      "iment": 9428,
      "extr": 9429,
      "positions": 9430,
      "lingu": 9431,
      "protection": 9432,
      "graphics": 9433,
      "Famous": 9434,
      "models": 9435,
      "Committee": 9436,
      "\"|": 9437,
      "Bishop": 9438,
      "och": 9439,
      "replace": 9440,
      "uten": 9441,
      "ocide": 9442,
      "unders": 9443,
      "Filip": 9444,
      "murdered": 9445,
      "Luxem": 9446,
      "Bh": 9447,
      "Dist": 9448,
      "Tele": 9449,
      "bast": 9450,
      "fold": 9451,
      "eda": 9452,
      "otes": 9453,
      "hypo": 9454,
      "Orche": 9455,
      "cription": 9456,
      "Senator": 9457,
      "Bundes": 9458,
      "Scientists": 9459,
      "LGBT": 9460,
      "52": 9461,
      "Gon": 9462,
      "Rap": 9463,
      "gs": 9464,
      "infect": 9465,
      "entry": 9466,
      "semi": 9467,
      "anyone": 9468,
      "Conne": 9469,
      "ixon": 9470,
      "twelve": 9471,
      "Research": 9472,
      "feld": 9473,
      "demonstr": 9474,
      "Phoen": 9475,
      "census": 9476,
      "kick": 9477,
      "urus": 9478,
      "ously": 9479,
      "13th": 9480,
      "supply": 9481,
      "Philosop": 9482,
      "grows": 9483,
      "ucky": 9484,
      "--------": 9485,
      "surrounded": 9486,
      "UEFA": 9487,
      "Dave": 9488,
      "kings": 9489,
      "oca": 9490,
      "account": 9491,
      "advert": 9492,
      "grant": 9493,
      "Universe": 9494,
      "Develop": 9495,
      "Peters": 9496,
      "legend": 9497,
      "keyboard": 9498,
      "1847": 9499,
      "Walt": 9500,
      "Disco": 9501,
      "sentence": 9502,
      "roles": 9503,
      "sharp": 9504,
      "slavery": 9505,
      "resistance": 9506,
      "shooting": 9507,
      "\"),": 9508,
      "Cru": 9509,
      "Log": 9510,
      "nest": 9511,
      "atab": 9512,
      "asure": 9513,
      "cium": 9514,
      "branches": 9515,
      "Municip": 9516,
      "narrow": 9517,
      "dollar": 9518,
      "slave": 9519,
      "Maurice": 9520,
      "700": 9521,
      "Five": 9522,
      "Pel": 9523,
      "wat": 9524,
      "rebel": 9525,
      "orange": 9526,
      "editor": 9527,
      "15th": 9528,
      "gery": 9529,
      "1852": 9530,
      "Serge": 9531,
      "chers": 9532,
      "Between": 9533,
      "neighbor": 9534,
      "(,": 9535,
      "54": 9536,
      "Pod": 9537,
      "reaches": 9538,
      "ening": 9539,
      "urer": 9540,
      "genetic": 9541,
      "talking": 9542,
      "Angl": 9543,
      "describes": 9544,
      "guilty": 9545,
      "osexual": 9546,
      "Jun": 9547,
      "Kos": 9548,
      "Ni": 9549,
      "coffee": 9550,
      "waters": 9551,
      "anthem": 9552,
      "onents": 9553,
      "diagn": 9554,
      "cock": 9555,
      "poems": 9556,
      "disaster": 9557,
      "Therefore": 9558,
      "showing": 9559,
      "heads": 9560,
      "stock": 9561,
      "females": 9562,
      "questions": 9563,
      "Classical": 9564,
      "Sloven": 9565,
      "violinist": 9566,
      "FF": 9567,
      "vard": 9568,
      "anto": 9569,
      "republic": 9570,
      "lied": 9571,
      "grave": 9572,
      "Milan": 9573,
      "Revolutionary": 9574,
      "bellion": 9575,
      "martial": 9576,
      "styles": 9577,
      "Apol": 9578,
      "Wol": 9579,
      "mac": 9580,
      "cting": 9581,
      "umes": 9582,
      "ordinary": 9583,
      "stands": 9584,
      "defend": 9585,
      "breaks": 9586,
      "announces": 9587,
      "Language": 9588,
      "Bry": 9589,
      "Din": 9590,
      "Rivers": 9591,
      "ee": 9592,
      "icon": 9593,
      "enters": 9594,
      "rogen": 9595,
      "lowing": 9596,
      "Bey": 9597,
      "killer": 9598,
      "Julius": 9599,
      "Prote": 9600,
      "Guard": 9601,
      "250": 9602,
      "Crus": 9603,
      "settled": 9604,
      "François": 9605,
      "737": 9606,
      "isions": 9607,
      "idency": 9608,
      "demand": 9609,
      "lift": 9610,
      "1815": 9611,
      "aceae": 9612,
      "Spir": 9613,
      "Guide": 9614,
      "Century": 9615,
      "storms": 9616,
      "economics": 9617,
      "Often": 9618,
      "Venus": 9619,
      "featured": 9620,
      "enemies": 9621,
      "58": 9622,
      "FL": 9623,
      "fing": 9624,
      "factors": 9625,
      "install": 9626,
      "iant": 9627,
      "Germanic": 9628,
      "farm": 9629,
      "harm": 9630,
      "closely": 9631,
      "crops": 9632,
      "las": 9633,
      "push": 9634,
      "rine": 9635,
      "tun": 9636,
      "istry": 9637,
      "shor": 9638,
      "boards": 9639,
      "save": 9640,
      "Indust": 9641,
      "depends": 9642,
      "Steven": 9643,
      "Moore": 9644,
      "limit": 9645,
      "sixth": 9646,
      "remaining": 9647,
      "Jacob": 9648,
      "galax": 9649,
      "Biography": 9650,
      "Network": 9651,
      "Fu": 9652,
      "Mis": 9653,
      "lon": 9654,
      "trou": 9655,
      "ello": 9656,
      "relative": 9657,
      "Police": 9658,
      "contract": 9659,
      "stores": 9660,
      "vertebr": 9661,
      "Run": 9662,
      "bud": 9663,
      "sop": 9664,
      "escap": 9665,
      "security": 9666,
      "plus": 9667,
      "ipedia": 9668,
      "Arm": 9669,
      "Gener": 9670,
      "1846": 9671,
      "communities": 9672,
      "explain": 9673,
      "kilometers": 9674,
      "Girl": 9675,
      "Mans": 9676,
      "rays": 9677,
      "riff": 9678,
      "Stal": 9679,
      "ovich": 9680,
      "Manuel": 9681,
      "Johannes": 9682,
      "Clark": 9683,
      "message": 9684,
      "behavior": 9685,
      "Ernst": 9686,
      "AN": 9687,
      "Lis": 9688,
      "Tsar": 9689,
      "fib": 9690,
      "iques": 9691,
      "plans": 9692,
      "sud": 9693,
      "cking": 9694,
      "Joan": 9695,
      "relations": 9696,
      "regional": 9697,
      "charged": 9698,
      "supposed": 9699,
      "tests": 9700,
      "existed": 9701,
      "Nazis": 9702,
      "translated": 9703,
      "swimmer": 9704,
      "battles": 9705,
      "110": 9706,
      "Bran": 9707,
      "Hou": 9708,
      "bits": 9709,
      "sword": 9710,
      "oda": 9711,
      "Comedy": 9712,
      "chocolate": 9713,
      "drums": 9714,
      "Adolf": 9715,
      "decision": 9716,
      "keeping": 9717,
      "Fern": 9718,
      "Panama": 9719,
      "Encyclopedia": 9720,
      "Citizen": 9721,
      "Anglican": 9722,
      "Tel": 9723,
      "internal": 9724,
      "Represent": 9725,
      "cheese": 9726,
      "circu": 9727,
      "Mercury": 9728,
      "Economy": 9729,
      "Catal": 9730,
      "Oklah": 9731,
      "Sudan": 9732,
      "Fro": 9733,
      "Pear": 9734,
      "Sac": 9735,
      "gained": 9736,
      "spr": 9737,
      "internet": 9738,
      "oly": 9739,
      "ulate": 9740,
      "avia": 9741,
      "calls": 9742,
      "publisher": 9743,
      "valley": 9744,
      "Mathemat": 9745,
      "fluid": 9746,
      "finds": 9747,
      "Linux": 9748,
      "suggested": 9749,
      "frequency": 9750,
      "Literature": 9751,
      "Constantinople": 9752,
      "Lennon": 9753,
      "lists": 9754,
      "tissue": 9755,
      "vacc": 9756,
      "138": 9757,
      "stops": 9758,
      "Actress": 9759,
      "atomy": 9760,
      "Singers": 9761,
      "arrived": 9762,
      "Testament": 9763,
      "Ludwig": 9764,
      "density": 9765,
      "Gand": 9766,
      "Hop": 9767,
      "Sign": 9768,
      "Tw": 9769,
      "kel": 9770,
      "nav": 9771,
      "naval": 9772,
      "ín": 9773,
      "argu": 9774,
      "amond": 9775,
      "oted": 9776,
      "etime": 9777,
      "decre": 9778,
      "aws": 9779,
      "display": 9780,
      "Others": 9781,
      "mail": 9782,
      "Contr": 9783,
      "ahn": 9784,
      "axis": 9785,
      "interview": 9786,
      "adding": 9787,
      "Indiana": 9788,
      "Greater": 9789,
      "Maryland": 9790,
      "authority": 9791,
      "refused": 9792,
      "Politicians": 9793,
      "succeeded": 9794,
      "Oklahoma": 9795,
      "Pok": 9796,
      "SI": 9797,
      "ader": 9798,
      "exists": 9799,
      "ogle": 9800,
      "14th": 9801,
      "northeast": 9802,
      "Trin": 9803,
      "commit": 9804,
      "votes": 9805,
      "entertain": 9806,
      "evolved": 9807,
      "goddesses": 9808,
      "Gregory": 9809,
      "Astr": 9810,
      "insp": 9811,
      "oured": 9812,
      "stones": 9813,
      "haus": 9814,
      "proto": 9815,
      "awards": 9816,
      "aceous": 9817,
      "Season": 9818,
      "camps": 9819,
      "Boliv": 9820,
      "ceremony": 9821,
      "Gordon": 9822,
      "(;": 9823,
      "8th": 9824,
      "Malt": 9825,
      "Nav": 9826,
      "dated": 9827,
      "gae": 9828,
      "wire": 9829,
      "zh": 9830,
      "progress": 9831,
      "2010s": 9832,
      "genet": 9833,
      "solution": 9834,
      "Grant": 9835,
      "11th": 9836,
      "viation": 9837,
      "allowing": 9838,
      "holes": 9839,
      "starring": 9840,
      "weapon": 9841,
      "necessary": 9842,
      "Malaysia": 9843,
      "Sik": 9844,
      "py": 9845,
      "ée": 9846,
      "butter": 9847,
      "Declar": 9848,
      "attached": 9849,
      "Works": 9850,
      "desert": 9851,
      "Centre": 9852,
      "communist": 9853,
      "1835": 9854,
      "invaded": 9855,
      "Corpor": 9856,
      "painted": 9857,
      "audience": 9858,
      "benef": 9859,
      "Dig": 9860,
      "Ener": 9861,
      "cous": 9862,
      "horses": 9863,
      "vine": 9864,
      "alia": 9865,
      "ource": 9866,
      "airport": 9867,
      "Canter": 9868,
      "Poly": 9869,
      "ometry": 9870,
      "Charlot": 9871,
      "Exe": 9872,
      "hosted": 9873,
      "colonial": 9874,
      "othy": 9875,
      "IX": 9876,
      "Move": 9877,
      "gard": 9878,
      "urs": 9879,
      "udes": 9880,
      "signal": 9881,
      "poetry": 9882,
      "bombing": 9883,
      "municipalities": 9884,
      "Ernest": 9885,
      "filled": 9886,
      "Bis": 9887,
      "Hann": 9888,
      "Java": 9889,
      "Murr": 9890,
      "file": 9891,
      "uth": 9892,
      "itors": 9893,
      "agent": 9894,
      "Americas": 9895,
      "Engine": 9896,
      "10th": 9897,
      "hydr": 9898,
      "destru": 9899,
      "Yorkshire": 9900,
      "Abbey": 9901,
      "fishing": 9902,
      "clock": 9903,
      "digital": 9904,
      "RAID": 9905,
      "settlement": 9906,
      "immune": 9907,
      "Bond": 9908,
      "Fun": 9909,
      "Hus": 9910,
      "iber": 9911,
      "jac": 9912,
      "rings": 9913,
      "sau": 9914,
      "vibr": 9915,
      "icts": 9916,
      "igation": 9917,
      "ession": 9918,
      "awn": 9919,
      "Thor": 9920,
      "Emmy": 9921,
      "races": 9922,
      "9th": 9923,
      "Garden": 9924,
      "Ig": 9925,
      "Snow": 9926,
      "Wright": 9927,
      "cise": 9928,
      "dale": 9929,
      "ients": 9930,
      "cester": 9931,
      "ivor": 9932,
      "Germans": 9933,
      "rowspan": 9934,
      "Oscar": 9935,
      "mechanics": 9936,
      "toxic": 9937,
      "Venezuela": 9938,
      "57": 9939,
      "lakes": 9940,
      "obs": 9941,
      "ér": 9942,
      "ici": 9943,
      "ente": 9944,
      "cio": 9945,
      "forming": 9946,
      "chose": 9947,
      "Collect": 9948,
      "1836": 9949,
      "Congo": 9950,
      "burned": 9951,
      "Blood": 9952,
      "integr": 9953,
      "candidate": 9954,
      "spiritual": 9955,
      "Luxembourg": 9956,
      "ocaust": 9957,
      "Canterbury": 9958,
      "Amb": 9959,
      "Bour": 9960,
      "Food": 9961,
      "Hes": 9962,
      "Sound": 9963,
      "cs": 9964,
      "ht": 9965,
      "jur": 9966,
      "aro": 9967,
      "arus": 9968,
      "forward": 9969,
      "igi": 9970,
      "1819": 9971,
      "1930s": 9972,
      "orno": 9973,
      "Norse": 9974,
      "jected": 9975,
      "blind": 9976,
      "lasted": 9977,
      "Burg": 9978,
      "Peninsula": 9979,
      "Chilean": 9980,
      "Brothers": 9981,
      "advant": 9982,
      "brief": 9983,
      "Ice": 9984,
      "Ton": 9985,
      "peoples": 9986,
      "ules": 9987,
      "fear": 9988,
      "Billboard": 9989,
      "Venice": 9990,
      "fleet": 9991,
      "Lebanon": 9992,
      "Territory": 9993,
      "Episode": 9994,
      "permanent": 9995,
      "Einstein": 9996,
      "Equ": 9997,
      "pure": 9998,
      "iner": 9999,
      "uran": 10000,
      "1813": 10001,
      "feather": 10002,
      "focus": 10003,
      "prince": 10004,
      "12th": 10005,
      "holiday": 10006,
      "ballet": 10007,
      "mixture": 10008,
      "carrying": 10009,
      "monarchy": 10010,
      "experiment": 10011,
      "earned": 10012,
      "Kazakh": 10013,
      "immediately": 10014,
      "Gur": 10015,
      "ault": 10016,
      "armed": 10017,
      "staff": 10018,
      "seg": 10019,
      "1814": 10020,
      "coat": 10021,
      "breath": 10022,
      "oxid": 10023,
      "1831": 10024,
      "statistics": 10025,
      "situation": 10026,
      "Wikipedia": 10027,
      "Bulgarian": 10028,
      "criminal": 10029,
      "hunting": 10030,
      "approximately": 10031,
      "Chemical": 10032,
      "Apollo": 10033,
      "Rhe": 10034,
      "Screen": 10035,
      "gases": 10036,
      "rons": 10037,
      "infection": 10038,
      "ering": 10039,
      "ando": 10040,
      "idel": 10041,
      "verb": 10042,
      "athlet": 10043,
      "Deep": 10044,
      "ception": 10045,
      "Holocaust": 10046,
      "magic": 10047,
      "historians": 10048,
      "Small": 10049,
      "volcano": 10050,
      "Declaration": 10051,
      "Gary": 10052,
      "oring": 10053,
      "alty": 10054,
      "oshi": 10055,
      "subur": 10056,
      "raise": 10057,
      "iff": 10058,
      "ibility": 10059,
      "iko": 10060,
      "choir": 10061,
      "aza": 10062,
      "guest": 10063,
      "Augustus": 10064,
      "Liby": 10065,
      "rulers": 10066,
      "Brah": 10067,
      "1837": 10068,
      "philosophers": 10069,
      "Pakistani": 10070,
      "Helen": 10071,
      "Maxim": 10072,
      "specif": 10073,
      "53": 10074,
      "Matt": 10075,
      "hn": 10076,
      "tles": 10077,
      "remove": 10078,
      "alo": 10079,
      "emen": 10080,
      "prop": 10081,
      "exer": 10082,
      "izon": 10083,
      "attan": 10084,
      "genes": 10085,
      "consin": 10086,
      "Trad": 10087,
      "1854": 10088,
      "marked": 10089,
      "arent": 10090,
      "flying": 10091,
      "fixed": 10092,
      "Energy": 10093,
      "EU": 10094,
      "Hob": 10095,
      "Ju": 10096,
      "Slav": 10097,
      "rates": 10098,
      "waste": 10099,
      "trip": 10100,
      "persons": 10101,
      "Edin": 10102,
      "scene": 10103,
      "Liver": 10104,
      "meanings": 10105,
      "stored": 10106,
      "commander": 10107,
      "daily": 10108,
      "civilization": 10109,
      "Again": 10110,
      "Wisconsin": 10111,
      "Isaac": 10112,
      "Mam": 10113,
      "Vic": 10114,
      "Very": 10115,
      "canton": 10116,
      "fu": 10117,
      "wound": 10118,
      "tool": 10119,
      "uma": 10120,
      "prise": 10121,
      "polar": 10122,
      "ronic": 10123,
      "Google": 10124,
      "1806": 10125,
      "graphical": 10126,
      "directors": 10127,
      "strikes": 10128,
      "villages": 10129,
      "Charlotte": 10130,
      "Lion": 10131,
      "Sources": 10132,
      "São": 10133,
      "Tra": 10134,
      "uct": 10135,
      "1821": 10136,
      "osph": 10137,
      "proposed": 10138,
[...]
