{
  "version": "1.0",
  "truncation": null,
  "padding": null,
  "added_tokens": [
    {
      "id": 0,
      "content": "[UNK]",
      "single_word": false,
      "lstrip": false,
      "rstrip": false,
      "normalized": false,
      "special": true
    },
    {
      "id": 1,
      "content": "[PAD]",
      "single_word": false,
      "lstrip": false,
      "rstrip": false,
      "normalized": false,
      "special": true
    },
    {
      "id": 2,
      "content": "[BOS]",
      "single_word": false,
      "lstrip": false,
      "rstrip": false,
      "normalized": false,
      "special": true
    },
    {
      "id": 3,
      "content": "[EOS]",
      "single_word": false,
      "lstrip": false,
      "rstrip": false,
      "normalized": false,
      "special": true
    }
  ],
  "normalizer": null,
  "pre_tokenizer": {
    "type": "Whitespace"
  },
  "post_processor": null,
  "decoder": null,
  "model": {
    "type": "BPE",
    "dropout": null,
    "unk_token": "[UNK]",
    "continuing_subword_prefix": null,
    "end_of_word_suffix": null,
    "fuse_unk": false,
    "byte_fallback": false,
    "ignore_merges": false,
    "vocab": {
      "[UNK]": 0,
      "[PAD]": 1,
      "[BOS]": 2,
      "[EOS]": 3,
      "!": 4,
      "\"": 5,
      "#": 6,
      "$": 7,
      "%": 8,
      "&": 9,
      "'": 10,
      "(": 11,
      ")": 12,
      "*": 13,
      "+": 14,
      ",": 15,
      "-": 16,
      ".": 17,
      "/": 18,
      "0": 19,
      "1": 20,
      "2": 21,
      "3": 22,
      "4": 23,
      "5": 24,
      "6": 25,
      "7": 26,
      "8": 27,
      "9": 28,
      ":": 29,
      ";": 30,
      "<": 31,
      "=": 32,
      ">": 33,
      "?": 34,
      "@": 35,
      "A": 36,
      "B": 37,
      "C": 38,
      "D": 39,
      "E": 40,
      "F": 41,
      "G": 42,
      "H": 43,
      "I": 44,
      "J": 45,
      "K": 46,
      "L": 47,
      "M": 48,
      "N": 49,
      "O": 50,
      "P": 51,
      "Q": 52,
      "R": 53,
      "S": 54,
      "T": 55,
      "U": 56,
      "V": 57,
      "W": 58,
      "X": 59,
      "Y": 60,
      "Z": 61,
      "[": 62,
      "\\": 63,
      "]": 64,
      "^": 65,
      "_": 66,
      "`": 67,
      "a": 68,
      "b": 69,
      "c": 70,
      "d": 71,
      "e": 72,
      "f": 73,
      "g": 74,
      "h": 75,
      "i": 76,
      "j": 77,
      "k": 78,
      "l": 79,
      "m": 80,
      "n": 81,
      "o": 82,
      "p": 83,
      "q": 84,
      "r": 85,
      "s": 86,
      "t": 87,
      "u": 88,
      "v": 89,
      "w": 90,
      "x": 91,
      "y": 92,
      "z": 93,
      "{": 94,
      "|": 95,
      "}": 96,
      "~": 97,
      "¡": 98,
      "¢": 99,
      "£": 100,
      "¥": 101,
      "¦": 102,
      "§": 103,
      "¨": 104,
      "©": 105,
      "ª": 106,
      "«": 107,
      "¬": 108,
      "­": 109,
      "®": 110,
      "¯": 111,
      "°": 112,
      "±": 113,
      "²": 114,
      "³": 115,
      "´": 116,
      "µ": 117,
      "¶": 118,
      "·": 119,
      "¹": 120,
      "º": 121,
      "»": 122,
      "¼": 123,
      "½": 124,
      "¿": 125,
      "À": 126,
      "Á": 127,
      "Â": 128,
      "Ã": 129,
      "Ä": 130,
      "Å": 131,
      "Æ": 132,
      "Ç": 133,
      "È": 134,
      "É": 135,
      "Í": 136,
      "Î": 137,
      "Ñ": 138,
      "Ò": 139,
      "Ó": 140,
      "Õ": 141,
      "Ö": 142,
      "×": 143,
      "Ø": 144,
      "Ú": 145,
      "Ü": 146,
      "Þ": 147,
      "ß": 148,
      "à": 149,
      "á": 150,
      "â": 151,
      "ã": 152,
      "ä": 153,
      "å": 154,
      "æ": 155,
      "ç": 156,
      "è": 157,
      "é": 158,
      "ê": 159,
      "ë": 160,
      "ì": 161,
      "í": 162,
      "î": 163,
      "ï": 164,
      "ð": 165,
      "ñ": 166,
      "ò": 167,
      "ó": 168,
      "ô": 169,
      "õ": 170,
      "ö": 171,
      "÷": 172,
      "ø": 173,
      "ù": 174,
      "ú": 175,
      "û": 176,
      "ü": 177,
      "ý": 178,
      "þ": 179,
      "ÿ": 180,
      "Ā": 181,
      "ā": 182,
      "Ă": 183,
      "ă": 184,
      "Ą": 185,
      "ą": 186,
      "Ć": 187,
      "ć": 188,
      "Č": 189,
      "č": 190,
      "ď": 191,
      "Đ": 192,
      "đ": 193,
      "Ē": 194,
      "ē": 195,
      "Ĕ": 196,
      "ĕ": 197,
      "ė": 198,
      "ę": 199,
      "ě": 200,
      "ĝ": 201,
      "Ğ": 202,
      "ğ": 203,
      "ġ": 204,
      "ģ": 205,
      "Ħ": 206,
      "ħ": 207,
      "Ĩ": 208,
      "ĩ": 209,
      "Ī": 210,
      "ī": 211,
      "ĭ": 212,
      "į": 213,
      "İ": 214,
      "ı": 215,
      "ķ": 216,
      "ļ": 217,
      "Ľ": 218,
      "Ł": 219,
      "ł": 220,
      "Ń": 221,
      "ń": 222,
      "ņ": 223,
      "ň": 224,
      "ŉ": 225,
      "Ŋ": 226,
      "ŋ": 227,
      "Ō": 228,
      "ō": 229,
      "ŏ": 230,
      "ő": 231,
      "Œ": 232,
      "œ": 233,
      "ŕ": 234,
      "ŗ": 235,
      "ř": 236,
      "Ś": 237,
      "ś": 238,
      "Ş": 239,
      "ş": 240,
      "Š": 241,
      "š": 242,
      "Ţ": 243,
      "ţ": 244,
      "ť": 245,
      "ŧ": 246,
      "ū": 247,
      "ŭ": 248,
      "ů": 249,
      "ű": 250,
      "ų": 251,
      "ŵ": 252,
      "ŷ": 253,
      "Ź": 254,
      "ź": 255,
      "Ż": 256,
      "ż": 257,
      "Ž": 258,
      "ž": 259,
      "Ɔ": 260,
      "Ɛ": 261,
      "ƒ": 262,
      "ƙ": 263,
      "Ɯ": 264,
      "Ɲ": 265,
      "ơ": 266,
      "ƥ": 267,
      "ư": 268,
      "Ʒ": 269,
      "Ƹ": 270,
      "ǀ": 271,
      "ǁ": 272,
      "Ǎ": 273,
      "ǎ": 274,
      "ǐ": 275,
      "ǒ": 276,
      "ǔ": 277,
      "ǝ": 278,
      "Ǟ": 279,
      "ǟ": 280,
      "Ǡ": 281,
      "ǡ": 282,
      "ǣ": 283,
      "ǧ": 284,
      "ǫ": 285,
      "ǰ": 286,
      "ǵ": 287,
      "Ǻ": 288,
      "ǻ": 289,
      "Ȁ": 290,
      "ȁ": 291,
      "Ȃ": 292,
      "ȃ": 293,
      "ȅ": 294,
      "ȉ": 295,
      "ȗ": 296,
      "Ș": 297,
      "ș": 298,
      "Ț": 299,
      "ț": 300,
      "ȡ": 301,
      "Ȣ": 302,
      "Ȧ": 303,
      "ȧ": 304,
      "ȩ": 305,
      "Ⱥ": 306,
      "ɐ": 307,
      "ɑ": 308,
      "ɒ": 309,
      "ɔ": 310,
      "ɗ": 311,
      "ə": 312,
      "ɛ": 313,
      "ɡ": 314,
      "ɣ": 315,
      "ɤ": 316,
      "ɨ": 317,
      "ɪ": 318,
      "ɭ": 319,
      "ɲ": 320,
      "ɳ": 321,
      "ɹ": 322,
      "ʀ": 323,
      "ʃ": 324,
      "ʈ": 325,
      "ʉ": 326,
      "ʊ": 327,
      "ʌ": 328,
      "ʎ": 329,
      "ʏ": 330,
      "ʒ": 331,
      "ʔ": 332,
      "ʕ": 333,
      "ʰ": 334,
      "ʱ": 335,
      "ʷ": 336,
      "ʻ": 337,
      "ʼ": 338,
      "ʽ": 339,
      "ʾ": 340,
      "ʿ": 341,
      "ˀ": 342,
      "ˁ": 343,
      "ˈ": 344,
      "ː": 345,
      "ˠ": 346,
      "˭": 347,
      "˹": 348,
      "˺": 349,
      "̀": 350,
      "́": 351,
      "̂": 352,
      "̃": 353,
      "̄": 354,
      "̅": 355,
      "̈": 356,
      "̊": 357,
      "̌": 358,
      "̡": 359,
      "̥": 360,
      "̨": 361,
      "̮": 362,
      "̯": 363,
      "̲": 364,
      "̵": 365,
      "̽": 366,
      "͟": 367,
      "͡": 368,
      "΄": 369,
      "Ά": 370,
      "Έ": 371,
      "ΐ": 372,
      "Α": 373,
      "Β": 374,
      "Γ": 375,
      "Δ": 376,
      "Ε": 377,
      "Ζ": 378,
      "Η": 379,
      "Θ": 380,
      "Ι": 381,
      "Κ": 382,
      "Λ": 383,
      "Μ": 384,
      "Ν": 385,
      "Ξ": 386,
      "Ο": 387,
      "Π": 388,
      "Ρ": 389,
      "Σ": 390,
      "Τ": 391,
      "Φ": 392,
      "Χ": 393,
      "Ψ": 394,
      "Ω": 395,
      "ά": 396,
      "έ": 397,
      "ή": 398,
      "ί": 399,
      "α": 400,
      "β": 401,
      "γ": 402,
      "δ": 403,
      "ε": 404,
      "ζ": 405,
      "η": 406,
      "θ": 407,
      "ι": 408,
      "κ": 409,
      "λ": 410,
      "μ": 411,
      "ν": 412,
      "ξ": 413,
      "ο": 414,
      "π": 415,
      "ρ": 416,
      "ς": 417,
      "σ": 418,
      "τ": 419,
      "υ": 420,
      "φ": 421,
      "χ": 422,
      "ψ": 423,
      "ω": 424,
      "ϊ": 425,
      "ό": 426,
      "ύ": 427,
      "ώ": 428,
      "ϝ": 429,
      "ϵ": 430,
      "Ё": 431,
      "Ѕ": 432,
      "А": 433,
      "Б": 434,
      "В": 435,
      "Г": 436,
      "Д": 437,
      "Е": 438,
      "Ж": 439,
      "З": 440,
      "И": 441,
      "Й": 442,
      "К": 443,
      "Л": 444,
      "М": 445,
      "Н": 446,
      "О": 447,
      "П": 448,
      "Р": 449,
      "С": 450,
      "Т": 451,
      "У": 452,
      "Ф": 453,
      "Х": 454,
      "Ч": 455,
      "Щ": 456,
      "Ъ": 457,
      "Э": 458,
      "Ю": 459,
      "Я": 460,
      "а": 461,
      "б": 462,
      "в": 463,
      "г": 464,
      "д": 465,
      "е": 466,
      "ж": 467,
      "з": 468,
      "и": 469,
      "й": 470,
      "к": 471,
      "л": 472,
      "м": 473,
      "н": 474,
      "о": 475,
      "п": 476,
      "р": 477,
      "с": 478,
      "т": 479,
      "у": 480,
      "ф": 481,
      "х": 482,
      "ц": 483,
      "ч": 484,
      "ш": 485,
      "щ": 486,
      "ъ": 487,
      "ы": 488,
      "ь": 489,
      "э": 490,
      "ю": 491,
      "я": 492,
      "ё": 493,
      "є": 494,
      "і": 495,
      "ї": 496,
      "ј": 497,
      "њ": 498,
      "ћ": 499,
      "Ѣ": 500,
      "ѣ": 501,
      "ѧ": 502,
      "Ѫ": 503,
      "ѫ": 504,
      "҅": 505,
      "ҝ": 506,
      "ә": 507,
      "Ӝ": 508,
      "Ө": 509,
      "ө": 510,
      "Ա": 511,
      "Գ": 512,
      "Դ": 513,
      "Ե": 514,
      "Թ": 515,
      "Ն": 516,
      "Ո": 517,
      "Ս": 518,
      "Վ": 519,
      "Տ": 520,
      "Ւ": 521,
      "Ք": 522,
      "ա": 523,
      "բ": 524,
      "գ": 525,
      "դ": 526,
      "ե": 527,
      "զ": 528,
      "է": 529,
      "թ": 530,
      "ի": 531,
      "լ": 532,
      "խ": 533,
      "ծ": 534,
      "կ": 535,
      "հ": 536,
      "ղ": 537,
      "յ": 538,
      "ն": 539,
      "ո": 540,
      "պ": 541,
      "ջ": 542,
      "ռ": 543,
      "ս": 544,
      "տ": 545,
      "ր": 546,
      "ց": 547,
      "ւ": 548,
      "ք": 549,
      "օ": 550,
      "ֆ": 551,
      "և": 552,
      "ְ": 553,
      "ֲ": 554,
      "ִ": 555,
      "ֵ": 556,
      "ֶ": 557,
      "ַ": 558,
      "ָ": 559,
      "ֹ": 560,
      "ֻ": 561,
      "ּ": 562,
      "־": 563,
      "ׁ": 564,
      "ׂ": 565,
      "א": 566,
      "ב": 567,
      "ג": 568,
      "ד": 569,
      "ה": 570,
      "ו": 571,
      "ז": 572,
      "ח": 573,
      "ט": 574,
      "י": 575,
      "ך": 576,
      "כ": 577,
      "ל": 578,
      "ם": 579,
      "מ": 580,
      "ן": 581,
      "נ": 582,
      "ס": 583,
      "ע": 584,
      "פ": 585,
      "ץ": 586,
      "צ": 587,
      "ק": 588,
      "ר": 589,
      "ש": 590,
      "ת": 591,
      "״": 592,
      "ء": 593,
      "آ": 594,
      "أ": 595,
      "ؤ": 596,
      "إ": 597,
      "ئ": 598,
      "ا": 599,
      "ب": 600,
      "ة": 601,
      "ت": 602,
      "ث": 603,
      "ج": 604,
      "ح": 605,
      "خ": 606,
      "د": 607,
      "ذ": 608,
      "ر": 609,
      "ز": 610,
      "س": 611,
      "ش": 612,
      "ص": 613,
      "ض": 614,
      "ط": 615,
      "ظ": 616,
      "ع": 617,
      "غ": 618,
      "ـ": 619,
      "ف": 620,
      "ق": 621,
      "ك": 622,
      "ل": 623,
      "م": 624,
      "ن": 625,
      "ه": 626,
      "و": 627,
      "ى": 628,
      "ي": 629,
      "ً": 630,
      "َ": 631,
      "ُ": 632,
      "ِ": 633,
      "ّ": 634,
      "ْ": 635,
      "٠": 636,
      "١": 637,
      "٢": 638,
      "٣": 639,
      "٤": 640,
      "٥": 641,
      "٦": 642,
      "٧": 643,
      "٨": 644,
      "٩": 645,
      "ٰ": 646,
      "ٱ": 647,
      "پ": 648,
      "ژ": 649,
      "ک": 650,
      "گ": 651,
      "ی": 652,
      "ۖ": 653,
      "۝": 654,
      "۞": 655,
      "ܐ": 656,
      "ܒ": 657,
      "ܓ": 658,
      "ܕ": 659,
      "ܗ": 660,
      "ܙ": 661,
      "ܝ": 662,
      "ܠ": 663,
      "ܡ": 664,
      "ܢ": 665,
      "ܪ": 666,
      "ܬ": 667,
      "ܲ": 668,
      "ܵ": 669,
      "ܼ": 670,
      "݂": 671,
      "݇": 672,
      "ߊ": 673,
      "ߋ": 674,
      "ߌ": 675,
      "ߍ": 676,
      "ߎ": 677,
      "ߏ": 678,
      "ߐ": 679,
      "ߒ": 680,
      "ߓ": 681,
      "ߔ": 682,
      "ߕ": 683,
      "ߖ": 684,
      "ߗ": 685,
      "ߘ": 686,
      "ߙ": 687,
      "ߚ": 688,
      "ߛ": 689,
      "ߜ": 690,
      "ߝ": 691,
      "ߞ": 692,
      "ߟ": 693,
      "ߡ": 694,
      "ߢ": 695,
      "ߣ": 696,
      "ߤ": 697,
      "ߥ": 698,
      "ߦ": 699,
      "߫": 700,
      "߬": 701,
      "߯": 702,
      "߰": 703,
      "߲": 704,
      "ं": 705,
      "ः": 706,
      "अ": 707,
      "आ": 708,
      "ई": 709,
      "ऋ": 710,
      "क": 711,
      "ख": 712,
      "च": 713,
      "छ": 714,
      "ज": 715,
      "ट": 716,
      "त": 717,
      "द": 718,
      "ध": 719,
      "न": 720,
      "प": 721,
      "ब": 722,
      "म": 723,
      "य": 724,
      "र": 725,
      "ल": 726,
      "व": 727,
      "श": 728,
      "ष": 729,
      "स": 730,
      "ा": 731,
      "ि": 732,
      "ु": 733,
      "े": 734,
      "ो": 735,
      "्": 736,
      "।": 737,
      "আ": 738,
      "ক": 739,
      "গ": 740,
      "জ": 741,
      "ত": 742,
      "দ": 743,
      "ন": 744,
      "প": 745,
      "ব": 746,
      "ভ": 747,
      "য": 748,
      "র": 749,
      "ল": 750,
      "স": 751,
      "়": 752,
      "া": 753,
      "ি": 754,
      "ু": 755,
      "ূ": 756,
      "ে": 757,
      "ো": 758,
      "্": 759,
      "ક": 760,
      "ણ": 761,
      "દ": 762,
      "પ": 763,
      "લ": 764,
      "ષ": 765,
      "સ": 766,
      "ા": 767,
      "્": 768,
      "ஒ": 769,
      "ட": 770,
      "ன": 771,
      "ப": 772,
      "ம": 773,
      "ய": 774,
      "ர": 775,
      "வ": 776,
      "ி": 777,
      "ீ": 778,
      "ு": 779,
      "ை": 780,
      "ொ": 781,
      "்": 782,
      "അ": 783,
      "ഇ": 784,
      "ക": 785,
      "ച": 786,
      "ട": 787,
      "ണ": 788,
      "യ": 789,
      "ര": 790,
      "ല": 791,
      "ള": 792,
      "സ": 793,
      "ാ": 794,
      "ി": 795,
      "ു": 796,
      "ോ": 797,
      "്": 798,
      "ช": 799,
      "บ": 800,
      "ม": 801,
      "ย": 802,
      "ร": 803,
      "อ": 804,
      "ะ": 805,
      "ี": 806,
      "เ": 807,
      "์": 808,
      "ა": 809,
      "დ": 810,
      "ე": 811,
      "ლ": 812,
      "ნ": 813,
      "რ": 814,
      "ს": 815,
      "ქ": 816,
      "ᅀ": 817,
      "ሀ": 818,
      "ሁ": 819,
      "ሂ": 820,
      "ህ": 821,
      "ር": 822,
      "ስ": 823,
      "ን": 824,
      "እ": 825,
      "ክ": 826,
      "ድ": 827,
      "ᐱ": 828,
      "ᐳ": 829,
      "ᐸ": 830,
      "ᑎ": 831,
      "ᑐ": 832,
      "ᑕ": 833,
      "ᚼ": 834,
      "ᛒ": 835,
      "᛭": 836,
      "ᴀ": 837,
      "ᴠ": 838,
      "ᴥ": 839,
      "ᵄ": 840,
      "ᵑ": 841,
      "ᶏ": 842,
      "ᶐ": 843,
      "ᶛ": 844,
      "Ḁ": 845,
      "ḁ": 846,
      "ḇ": 847,
      "Ḍ": 848,
      "ḍ": 849,
      "ḏ": 850,
      "ḑ": 851,
      "ḗ": 852,
      "ḙ": 853,
      "ḡ": 854,
      "Ḥ": 855,
      "ḥ": 856,
      "Ḫ": 857,
      "ḫ": 858,
      "ḯ": 859,
      "ḱ": 860,
      "Ḳ": 861,
      "ḳ": 862,
      "ḵ": 863,
      "ḷ": 864,
      "ṁ": 865,
      "ṃ": 866,
      "ṅ": 867,
      "ṇ": 868,
      "ṓ": 869,
      "ṕ": 870,
      "ṗ": 871,
      "ṙ": 872,
      "ṛ": 873,
      "Ṣ": 874,
      "ṣ": 875,
      "Ṫ": 876,
      "Ṭ": 877,
      "ṭ": 878,
      "ṯ": 879,
      "Ẃ": 880,
      "Ẅ": 881,
      "Ẇ": 882,
      "Ẉ": 883,
      "Ẓ": 884,
      "ẓ": 885,
      "ẚ": 886,
      "Ạ": 887,
      "ạ": 888,
      "Ả": 889,
      "ả": 890,
      "Ấ": 891,
      "ấ": 892,
      "Ầ": 893,
      "ầ": 894,
      "Ẩ": 895,
      "ẩ": 896,
      "Ẫ": 897,
      "ẫ": 898,
      "Ậ": 899,
      "ậ": 900,
      "Ắ": 901,
      "ắ": 902,
      "Ằ": 903,
      "ằ": 904,
      "Ẳ": 905,
      "ẳ": 906,
      "Ẵ": 907,
      "ẵ": 908,
      "Ặ": 909,
      "ặ": 910,
      "ẻ": 911,
      "ẽ": 912,
      "ế": 913,
      "ể": 914,
      "ễ": 915,
      "ệ": 916,
      "ỉ": 917,
      "ị": 918,
      "ọ": 919,
      "ồ": 920,
      "ỗ": 921,
      "ộ": 922,
      "ớ": 923,
      "ờ": 924,
      "ợ": 925,
      "ữ": 926,
      "ỳ": 927,
      "ỷ": 928,
      "ἀ": 929,
      "ἁ": 930,
      "ἄ": 931,
      "ἅ": 932,
      "Ἀ": 933,
      "Ἄ": 934,
      "ἐ": 935,
      "ἔ": 936,
      "ἕ": 937,
      "Ἐ": 938,
      "ἠ": 939,
      "ἡ": 940,
      "ἤ": 941,
      "ἥ": 942,
      "Ἥ": 943,
      "ἰ": 944,
      "ἱ": 945,
      "ἴ": 946,
      "ἶ": 947,
      "ἷ": 948,
      "Ἰ": 949,
      "Ἱ": 950,
      "Ἵ": 951,
      "ὀ": 952,
      "ὁ": 953,
      "Ὀ": 954,
      "Ὁ": 955,
      "ὐ": 956,
      "ὖ": 957,
      "ὗ": 958,
      "Ὑ": 959,
      "ὡ": 960,
      "ὥ": 961,
      "Ὧ": 962,
      "ὰ": 963,
      "ὴ": 964,
      "ὶ": 965,
      "ὸ": 966,
      "ὺ": 967,
      "ᾶ": 968,
      "᾽": 969,
      "ῃ": 970,
      "ῆ": 971,
      "ῖ": 972,
      "ῥ": 973,
      "ῦ": 974,
      "Ῥ": 975,
      "ῶ": 976,
      "ῷ": 977,
      "‌": 978,
      "‍": 979,
      "‎": 980,
      "‐": 981,
      "‑": 982,
      "‒": 983,
      "–": 984,
      "—": 985,
      "―": 986,
      "‘": 987,
      "’": 988,
      "‛": 989,
      "“": 990,
      "”": 991,
      "„": 992,
      "†": 993,
      "‡": 994,
      "•": 995,
      "․": 996,
      "…": 997,
      "‰": 998,
      "′": 999,
      "″": 1000,
      "⁂": 1001,
      "⁠": 1002,
      "⁣": 1003,
      "₁": 1004,
      "₂": 1005,
      "₩": 1006,
      "€": 1007,
      "₳": 1008,
      "₹": 1009,
      "ℏ": 1010,
      "ℓ": 1011,
      "№": 1012,
      "™": 1013,
      "⅔": 1014,
      "←": 1015,
      "↑": 1016,
      "→": 1017,
      "↓": 1018,
      "↔": 1019,
      "⇌": 1020,
      "⇒": 1021,
      "∀": 1022,
      "∂": 1023,
      "∃": 1024,
      "∅": 1025,
      "∆": 1026,
      "∈": 1027,
      "∉": 1028,
      "∊": 1029,
      "∋": 1030,
      "−": 1031,
      "∗": 1032,
      "∘": 1033,
      "∝": 1034,
      "∞": 1035,
      "∧": 1036,
      "∨": 1037,
      "∩": 1038,
      "∪": 1039,
      "∴": 1040,
      "∼": 1041,
      "≈": 1042,
      "≟": 1043,
      "≠": 1044,
      "≡": 1045,
      "≤": 1046,
      "≥": 1047,
      "≫": 1048,
      "≼": 1049,
      "≽": 1050,
      "⊂": 1051,
      "⊃": 1052,
      "⊆": 1053,
      "⊊": 1054,
      "⊋": 1055,
      "⊖": 1056,
      "⊗": 1057,
      "⊤": 1058,
      "⊥": 1059,
      "⋅": 1060,
      "⋯": 1061,
      "⌈": 1062,
      "⌉": 1063,
      "⌊": 1064,
      "⌋": 1065,
      "⌽": 1066,
      "⌿": 1067,
      "⍋": 1068,
      "⍨": 1069,
      "⍳": 1070,
      "⍴": 1071,
      "⍵": 1072,
      "⎉": 1073,
      "⎧": 1074,
      "⎩": 1075,
      "⏨": 1076,
      "␣": 1077,
      "Ⓐ": 1078,
      "─": 1079,
      "┌": 1080,
      "┐": 1081,
      "╥": 1082,
      "╨": 1083,
      "▀": 1084,
      "▄": 1085,
      "█": 1086,
      "░": 1087,
      "▒": 1088,
      "▓": 1089,
      "□": 1090,
      "◊": 1091,
      "○": 1092,
      "◘": 1093,
      "☉": 1094,
      "☠": 1095,
      "☫": 1096,
      "☺": 1097,
      "♀": 1098,
      "♂": 1099,
      "♈": 1100,
      "♒": 1101,
      "♠": 1102,
      "♣": 1103,
      "♥": 1104,
      "♦": 1105,
      "♭": 1106,
      "♯": 1107,
      "♾": 1108,
      "⚇": 1109,
      "⚓": 1110,
      "⚥": 1111,
      "⚲": 1112,
      "⟨": 1113,
      "⟩": 1114,
      "⟶": 1115,
      "⠀": 1116,
      "⠁": 1117,
      "⠋": 1118,
      "⠙": 1119,
      "⠟": 1120,
      "⠻": 1121,
      "⠿": 1122,
      "⡈": 1123,
      "⡟": 1124,
      "⡷": 1125,
      "⡿": 1126,
      "⢀": 1127,
      "⢁": 1128,
      "⢻": 1129,
      "⢿": 1130,
      "⣉": 1131,
      "⣌": 1132,
      "⣠": 1133,
      "⣦": 1134,
      "⣧": 1135,
      "⣴": 1136,
      "⣶": 1137,
      "⣷": 1138,
      "⣼": 1139,
      "⣾": 1140,
      "⣿": 1141,
      "ⱥ": 1142,
      "Ɑ": 1143,
      "Ɐ": 1144,
      "Ɒ": 1145,
      "ⱷ": 1146,
      "ⲃ": 1147,
      "ⲇ": 1148,
      "ⲉ": 1149,
      "ⲓ": 1150,
      "ⲡ": 1151,
      "ⲧ": 1152,
      "ⲱ": 1153,
      "。": 1154,
      "《": 1155,
      "》": 1156,
      "「": 1157,
      "」": 1158,
      "い": 1159,
      "か": 1160,
      "き": 1161,
      "く": 1162,
      "け": 1163,
      "こ": 1164,
      "さ": 1165,
      "し": 1166,
      "と": 1167,
      "な": 1168,
      "の": 1169,
      "ら": 1170,
      "り": 1171,
      "る": 1172,
      "れ": 1173,
      "ろ": 1174,
      "わ": 1175,
      "ア": 1176,
      "イ": 1177,
      "ェ": 1178,
      "エ": 1179,
      "キ": 1180,
      "グ": 1181,
      "ケ": 1182,
      "サ": 1183,
      "ジ": 1184,
      "タ": 1185,
      "ダ": 1186,
      "ッ": 1187,
      "テ": 1188,
      "デ": 1189,
      "ド": 1190,
      "ニ": 1191,
      "ハ": 1192,
      "バ": 1193,
      "ヒ": 1194,
      "ビ": 1195,
      "ピ": 1196,
      "メ": 1197,
      "ラ": 1198,
      "リ": 1199,
      "ル": 1200,
      "レ": 1201,
      "ワ": 1202,
      "ン": 1203,
      "・": 1204,
      "ー": 1205,
      "ㄌ": 1206,
      "ㄢ": 1207,
      "ㄨ": 1208,
      "一": 1209,
      "七": 1210,
      "三": 1211,
      "下": 1212,
      "中": 1213,
      "主": 1214,
      "久": 1215,
      "之": 1216,
      "也": 1217,
      "事": 1218,
      "二": 1219,
      "五": 1220,
      "井": 1221,
      "亜": 1222,
      "亦": 1223,
      "京": 1224,
      "人": 1225,
      "仏": 1226,
      "以": 1227,
      "伊": 1228,
      "传": 1229,
      "伽": 1230,
      "但": 1231,
      "佛": 1232,
      "作": 1233,
      "例": 1234,
      "侠": 1235,
      "俟": 1236,
      "偿": 1237,
      "傳": 1238,
      "傷": 1239,
      "僕": 1240,
      "僧": 1241,
      "元": 1242,
      "入": 1243,
      "八": 1244,
      "公": 1245,
      "六": 1246,
      "共": 1247,
      "农": 1248,
      "刀": 1249,
      "刑": 1250,
      "利": 1251,
      "务": 1252,
      "務": 1253,
      "北": 1254,
      "十": 1255,
      "千": 1256,
      "南": 1257,
      "卷": 1258,
      "口": 1259,
      "可": 1260,
      "史": 1261,
      "合": 1262,
      "同": 1263,
      "吐": 1264,
      "君": 1265,
      "员": 1266,
      "咄": 1267,
      "和": 1268,
      "品": 1269,
      "啞": 1270,
      "四": 1271,
      "固": 1272,
      "国": 1273,
      "國": 1274,
      "在": 1275,
      "坐": 1276,
      "垒": 1277,
      "垣": 1278,
      "堂": 1279,
      "壁": 1280,
      "士": 1281,
      "处": 1282,
      "复": 1283,
      "大": 1284,
      "天": 1285,
      "夫": 1286,
      "女": 1287,
      "奴": 1288,
      "始": 1289,
      "姦": 1290,
      "婁": 1291,
      "婆": 1292,
      "学": 1293,
      "安": 1294,
      "宗": 1295,
      "家": 1296,
      "宿": 1297,
      "密": 1298,
      "寛": 1299,
      "實": 1300,
      "小": 1301,
      "山": 1302,
      "岁": 1303,
      "島": 1304,
      "崩": 1305,
      "州": 1306,
      "左": 1307,
      "帝": 1308,
      "師": 1309,
      "常": 1310,
      "幼": 1311,
      "庫": 1312,
      "建": 1313,
      "強": 1314,
      "录": 1315,
      "律": 1316,
      "得": 1317,
      "德": 1318,
      "心": 1319,
      "思": 1320,
      "性": 1321,
      "悉": 1322,
      "悟": 1323,
      "情": 1324,
      "惡": 1325,
      "慶": 1326,
      "憲": 1327,
      "懸": 1328,
      "成": 1329,
      "戦": 1330,
      "才": 1331,
      "折": 1332,
      "拓": 1333,
      "振": 1334,
      "提": 1335,
      "摩": 1336,
      "政": 1337,
      "故": 1338,
      "文": 1339,
      "斤": 1340,
      "方": 1341,
      "日": 1342,
      "明": 1343,
      "時": 1344,
      "晏": 1345,
      "景": 1346,
      "暂": 1347,
      "曇": 1348,
      "更": 1349,
      "曼": 1350,
      "月": 1351,
      "有": 1352,
      "未": 1353,
      "本": 1354,
      "机": 1355,
      "李": 1356,
      "杜": 1357,
      "条": 1358,
      "東": 1359,
      "杵": 1360,
      "林": 1361,
      "查": 1362,
      "树": 1363,
      "校": 1364,
      "條": 1365,
      "检": 1366,
      "植": 1367,
      "楚": 1368,
      "楞": 1369,
      "樂": 1370,
      "樹": 1371,
      "次": 1372,
      "欲": 1373,
      "歌": 1374,
      "步": 1375,
      "歲": 1376,
      "歴": 1377,
      "殖": 1378,
      "水": 1379,
      "汗": 1380,
      "汝": 1381,
      "沙": 1382,
      "沢": 1383,
      "泉": 1384,
      "法": 1385,
      "泡": 1386,
      "波": 1387,
      "泰": 1388,
      "流": 1389,
      "淨": 1390,
      "漿": 1391,
      "灯": 1392,
      "災": 1393,
      "無": 1394,
      "然": 1395,
      "熊": 1396,
      "燃": 1397,
      "燈": 1398,
      "燕": 1399,
      "爛": 1400,
      "爸": 1401,
      "犯": 1402,
      "珍": 1403,
      "珠": 1404,
      "瑾": 1405,
      "瓜": 1406,
      "用": 1407,
      "略": 1408,
      "百": 1409,
      "皇": 1410,
      "盘": 1411,
      "盤": 1412,
      "盧": 1413,
      "相": 1414,
      "眼": 1415,
      "破": 1416,
      "祈": 1417,
      "祖": 1418,
      "神": 1419,
      "福": 1420,
      "禪": 1421,
      "秋": 1422,
      "科": 1423,
      "秦": 1424,
      "種": 1425,
      "竞": 1426,
      "竺": 1427,
      "筒": 1428,
      "算": 1429,
      "節": 1430,
      "糖": 1431,
      "紅": 1432,
      "素": 1433,
      "細": 1434,
      "絞": 1435,
      "經": 1436,
      "線": 1437,
      "續": 1438,
      "罗": 1439,
      "罚": 1440,
      "罪": 1441,
      "羅": 1442,
      "羽": 1443,
      "者": 1444,
      "耳": 1445,
      "胃": 1446,
      "胡": 1447,
      "脈": 1448,
      "自": 1449,
      "至": 1450,
      "节": 1451,
      "芳": 1452,
      "茶": 1453,
      "荒": 1454,
      "荼": 1455,
      "菩": 1456,
      "营": 1457,
      "薩": 1458,
      "藻": 1459,
      "蘆": 1460,
      "蠻": 1461,
      "血": 1462,
      "行": 1463,
      "袈": 1464,
      "裏": 1465,
      "裟": 1466,
      "褥": 1467,
      "西": 1468,
      "覧": 1469,
      "覺": 1470,
      "觀": 1471,
      "解": 1472,
      "記": 1473,
      "訟": 1474,
      "訳": 1475,
      "訴": 1476,
      "語": 1477,
      "論": 1478,
      "諸": 1479,
      "諾": 1480,
      "證": 1481,
      "议": 1482,
      "貘": 1483,
      "資": 1484,
      "赔": 1485,
      "趙": 1486,
      "跌": 1487,
      "軍": 1488,
      "轉": 1489,
      "辯": 1490,
      "辰": 1491,
      "農": 1492,
      "适": 1493,
      "通": 1494,
      "連": 1495,
      "道": 1496,
      "達": 1497,
      "遠": 1498,
      "那": 1499,
      "配": 1500,
      "里": 1501,
      "重": 1502,
      "錄": 1503,
      "鍛": 1504,
      "鑒": 1505,
      "锻": 1506,
      "長": 1507,
      "門": 1508,
      "開": 1509,
      "間": 1510,
      "関": 1511,
      "阵": 1512,
      "阿": 1513,
      "陀": 1514,
      "附": 1515,
      "陰": 1516,
      "陳": 1517,
      "陵": 1518,
      "陽": 1519,
      "際": 1520,
      "雄": 1521,
      "集": 1522,
      "雖": 1523,
      "離": 1524,
      "霸": 1525,
      "青": 1526,
      "面": 1527,
      "韓": 1528,
      "順": 1529,
      "頭": 1530,
      "願": 1531,
      "類": 1532,
      "香": 1533,
      "骨": 1534,
      "高": 1535,
      "魏": 1536,
      "魚": 1537,
      "鮑": 1538,
      "鴛": 1539,
      "鴦": 1540,
      "麻": 1541,
      "黄": 1542,
      "黑": 1543,
      "齊": 1544,
      "龍": 1545,
      "龜": 1546,
      "ꙑ": 1547,
      "ꜣ": 1548,
      "Ꜹ": 1549,
      "ꞌ": 1550,
      "Ꞻ": 1551,
      "ꞻ": 1552,
      "ꬱ": 1553,
      "곡": 1554,
      "공": 1555,
      "기": 1556,
      "내": 1557,
      "느": 1558,
      "님": 1559,
      "대": 1560,
      "더": 1561,
      "도": 1562,
      "돌": 1563,
      "동": 1564,
      "들": 1565,
      "렉": 1566,
      "막": 1567,
      "목": 1568,
      "문": 1569,
      "번": 1570,
      "사": 1571,
      "산": 1572,
      "서": 1573,
      "성": 1574,
      "수": 1575,
      "식": 1576,
      "아": 1577,
      "알": 1578,
      "역": 1579,
      "와": 1580,
      "음": 1581,
      "의": 1582,
      "이": 1583,
      "일": 1584,
      "작": 1585,
      "주": 1586,
      "지": 1587,
      "천": 1588,
      "충": 1589,
      "태": 1590,
      "판": 1591,
      "하": 1592,
      "홍": 1593,
      "회": 1594,
      "︎": 1595,
      "（": 1596,
      "）": 1597,
      "，": 1598,
      "；": 1599,
      "𐀀": 1600,
      "𐀅": 1601,
      "𐀏": 1602,
      "𐀩": 1603,
      "𐀫": 1604,
      "𐀭": 1605,
      "𐌀": 1606,
      "𐤀": 1607,
      "𐤌": 1608,
      "𐤍": 1609,
      "𐤏": 1610,
      "𑀓": 1611,
      "𑀥": 1612,
      "𑀦": 1613,
      "𑀩": 1614,
      "𑀫": 1615,
      "𑀬": 1616,
      "𑀲": 1617,
      "𑀻": 1618,
      "𑀼": 1619,
      "𑁆": 1620,
      "𒀀": 1621,
      "𒂵": 1622,
      "𒆠": 1623,
      "𒉈": 1624,
      "𓅓": 1625,
      "𓆎": 1626,
      "𓊖": 1627,
      "𓏏": 1628,
      "𝘢": 1629,
      "𝘦": 1630,
      "𝘪": 1631,
      "𝘭": 1632,
      "𝘰": 1633,
      "𝘱": 1634,
      "🇦": 1635,
      "🇫": 1636,
      "🇮": 1637,
      "🇶": 1638,
      "🇷": 1639,
      "🇸": 1640,
      "🇺": 1641,
      "🇿": 1642,
      "🚲": 1643,
      "🛈": 1644,
      "𨁂": 1645,
      "th": 1646,
      "in": 1647,
      "an": 1648,
      "er": 1649,
      "the": 1650,
      "on": 1651,
      "re": 1652,
      "at": 1653,
      "en": 1654,
      "al": 1655,
      "ed": 1656,
      "or": 1657,
      "is": 1658,
      "es": 1659,
      "of": 1660,
      "ar": 1661,
      "and": 1662,
      "as": 1663,
      "ic": 1664,
      "it": 1665,
      "to": 1666,
      "ing": 1667,
      "ion": 1668,
      "ro": 1669,
      "le": 1670,
      "st": 1671,
      "ou": 1672,
      "ent": 1673,
      "he": 1674,
      "ac": 1675,
      "om": 1676,
      "il": 1677,
      "el": 1678,
      "ol": 1679,
      "ch": 1680,
      "ad": 1681,
      "am": 1682,
      "se": 1683,
      "be": 1684,
      "ter": 1685,
      "ur": 1686,
      "ly": 1687,
      "for": 1688,
      "ation": 1689,
      "de": 1690,
      "iv": 1691,
      "im": 1692,
      "us": 1693,
      "The": 1694,
      "ct": 1695,
      "ig": 1696,
      "19": 1697,
      "un": 1698,
      "ir": 1699,
      "con": 1700,
      "wh": 1701,
      "ce": 1702,
      "ith": 1703,
      "id": 1704,
      "was": 1705,
      "ow": 1706,
      "ul": 1707,
      "ers": 1708,
      "ag": 1709,
      "ist": 1710,
      "ay": 1711,
      "ot": 1712,
      "by": 1713,
      "em": 1714,
      "with": 1715,
      "ab": 1716,
      "op": 1717,
      "ut": 1718,
      "are": 1719,
      "ap": 1720,
      "et": 1721,
      "ver": 1722,
      "res": 1723,
      "pro": 1724,
      "that": 1725,
      "com": 1726,
      "um": 1727,
      "av": 1728,
      "tr": 1729,
      "ian": 1730,
      "pl": 1731,
      "ere": 1732,
      "all": 1733,
      "mo": 1734,
      "su": 1735,
      "ain": 1736,
      "20": 1737,
      "In": 1738,
      "ex": 1739,
      "est": 1740,
      "pe": 1741,
      "os": 1742,
      "rom": 1743,
      "ies": 1744,
      "his": 1745,
      "if": 1746,
      "ther": 1747,
      "oun": 1748,
      "cl": 1749,
      "from": 1750,
      "ity": 1751,
      "ish": 1752,
      "ant": 1753,
      "so": 1754,
      "ate": 1755,
      "art": 1756,
      "od": 1757,
      "ne": 1758,
      "ia": 1759,
      "qu": 1760,
      "ich": 1761,
      "ess": 1762,
      "igh": 1763,
      "ial": 1764,
      "ill": 1765,
      "man": 1766,
      "per": 1767,
      "ical": 1768,
      "ment": 1769,
      "ri": 1770,
      "ld": 1771,
      "act": 1772,
      "ive": 1773,
      "sh": 1774,
      "ud": 1775,
      "te": 1776,
      "ber": 1777,
      "ard": 1778,
      "ated": 1779,
      "ort": 1780,
      "oc": 1781,
      "ak": 1782,
      "du": 1783,
      "which": 1784,
      "mer": 1785,
      "der": 1786,
      "gh": 1787,
      "og": 1788,
      "str": 1789,
      "ge": 1790,
      "ine": 1791,
      "were": 1792,
      "ip": 1793,
      "our": 1794,
      "ary": 1795,
      "ear": 1796,
      "not": 1797,
      "rit": 1798,
      "ell": 1799,
      "one": 1800,
      "ra": 1801,
      "end": 1802,
      "ave": 1803,
      "ure": 1804,
      "ts": 1805,
      "tw": 1806,
      "comp": 1807,
      "bl": 1808,
      "over": 1809,
      "ph": 1810,
      "up": 1811,
      "ions": 1812,
      "its": 1813,
      "ame": 1814,
      "ong": 1815,
      "wor": 1816,
      "ast": 1817,
      "ass": 1818,
      "ie": 1819,
      "),": 1820,
      "00": 1821,
      "18": 1822,
      "pr": 1823,
      "ous": 1824,
      "An": 1825,
      "Al": 1826,
      "Ch": 1827,
      "but": 1828,
      "ire": 1829,
      "ans": 1830,
      "ack": 1831,
      "au": 1832,
      "out": 1833,
      "Ar": 1834,
      "port": 1835,
      "also": 1836,
      "pt": 1837,
      "iz": 1838,
      "cent": 1839,
      "age": 1840,
      "ach": 1841,
      "had": 1842,
      "form": 1843,
      "have": 1844,
      "ore": 1845,
      "fer": 1846,
      "ican": 1847,
      "ect": 1848,
      "ome": 1849,
      "af": 1850,
      "part": 1851,
      "ign": 1852,
      "ence": 1853,
      "bo": 1854,
      "has": 1855,
      "Amer": 1856,
      "ib": 1857,
      "ight": 1858,
      "ang": 1859,
      "own": 1860,
      "other": 1861,
      "ide": 1862,
      "ke": 1863,
      "ult": 1864,
      "ations": 1865,
      "ov": 1866,
      "ev": 1867,
      "cre": 1868,
      "St": 1869,
      "ound": 1870,
      "their": 1871,
      "fir": 1872,
      "ally": 1873,
      "ory": 1874,
      "land": 1875,
      "pres": 1876,
      "ition": 1877,
      "me": 1878,
      "cont": 1879,
      "pre": 1880,
      "cor": 1881,
      "ction": 1882,
      "att": 1883,
      "ater": 1884,
      "tern": 1885,
      "ould": 1886,
      "po": 1887,
      "Un": 1888,
      "200": 1889,
      "Th": 1890,
      "ser": 1891,
      "ree": 1892,
      "dis": 1893,
      "mon": 1894,
      "ci": 1895,
      "ace": 1896,
      ").": 1897,
      "ks": 1898,
      "ates": 1899,
      "ces": 1900,
      "first": 1901,
      "ran": 1902,
      "ely": 1903,
      "sy": 1904,
      "can": 1905,
      "able": 1906,
      "gr": 1907,
      "this": 1908,
      "pos": 1909,
      "American": 1910,
      "co": 1911,
      "ren": 1912,
      "used": 1913,
      "int": 1914,
      "li": 1915,
      "who": 1916,
      "ime": 1917,
      "pol": 1918,
      "fl": 1919,
      "ob": 1920,
      "201": 1921,
      "incl": 1922,
      "aw": 1923,
      "been": 1924,
      "des": 1925,
      "gen": 1926,
      "ue": 1927,
      "ew": 1928,
      "ens": 1929,
      "most": 1930,
      "ice": 1931,
      "ile": 1932,
      "ind": 1933,
      "play": 1934,
      "spe": 1935,
      "It": 1936,
      "199": 1937,
      "ced": 1938,
      "En": 1939,
      "He": 1940,
      "gl": 1941,
      "low": 1942,
      "year": 1943,
      "ust": 1944,
      "ase": 1945,
      "ok": 1946,
      "ry": 1947,
      "old": 1948,
      "ough": 1949,
      "cess": 1950,
      "such": 1951,
      "ents": 1952,
      "ational": 1953,
      "uring": 1954,
      "ele": 1955,
      "more": 1956,
      "gro": 1957,
      "ath": 1958,
      "ict": 1959,
      "sp": 1960,
      "ite": 1961,
      "rel": 1962,
      "two": 1963,
      "ever": 1964,
      "ited": 1965,
      "ade": 1966,
      "col": 1967,
      "ve": 1968,
      "min": 1969,
      "ors": 1970,
      "reg": 1971,
      "ty": 1972,
      "br": 1973,
      "ied": 1974,
      "Re": 1975,
      "her": 1976,
      "arch": 1977,
      "coun": 1978,
      "they": 1979,
      "ubl": 1980,
      "und": 1981,
      "ance": 1982,
      "produ": 1983,
      "any": 1984,
      "ple": 1985,
      "into": 1986,
      "arg": 1987,
      "we": 1988,
      "ma": 1989,
      "use": 1990,
      "ics": 1991,
      "kn": 1992,
      "cons": 1993,
      "ef": 1994,
      "ugh": 1995,
      "198": 1996,
      "air": 1997,
      "olog": 1998,
      "than": 1999,
      "ular": 2000,
      "ury": 2001,
      "after": 2002,
      "ism": 2003,
      "vel": 2004,
      "some": 2005,
      "ten": 2006,
      "ved": 2007,
      "off": 2008,
      "Af": 2009,
      "includ": 2010,
      "bec": 2011,
      "les": 2012,
      "inter": 2013,
      "Au": 2014,
      "main": 2015,
      "ood": 2016,
      "fin": 2017,
      "Se": 2018,
      "197": 2019,
      "rough": 2020,
      "ding": 2021,
      "As": 2022,
      "time": 2023,
      "red": 2024,
      "mar": 2025,
      "publ": 2026,
      "sc": 2027,
      "lo": 2028,
      "ased": 2029,
      "hy": 2030,
      "ual": 2031,
      "num": 2032,
      "them": 2033,
      "17": 2034,
      "een": 2035,
      "many": 2036,
      "comm": 2037,
      "ons": 2038,
      "iss": 2039,
      "This": 2040,
      "work": 2041,
      "new": 2042,
      "ext": 2043,
      "would": 2044,
      "ari": 2045,
      "reat": 2046,
      "sub": 2047,
      "ah": 2048,
      "cial": 2049,
      "only": 2050,
      "ail": 2051,
      "writ": 2052,
      "med": 2053,
      "ific": 2054,
      "196": 2055,
      "ative": 2056,
      "no": 2057,
      "under": 2058,
      "ings": 2059,
      "ann": 2060,
      "lin": 2061,
      "ose": 2062,
      "betw": 2063,
      "between": 2064,
      "Com": 2065,
      "fore": 2066,
      "stem": 2067,
      "gan": 2068,
      "century": 2069,
      "ters": 2070,
      "urn": 2071,
      "cur": 2072,
      "cond": 2073,
      "then": 2074,
      "him": 2075,
      "tain": 2076,
      "when": 2077,
      "bu": 2078,
      "ted": 2079,
      "ince": 2080,
      "ars": 2081,
      "high": 2082,
      "\".": 2083,
      "Brit": 2084,
      "als": 2085,
      "ball": 2086,
      "ese": 2087,
      "Br": 2088,
      "fe": 2089,
      "though": 2090,
      "way": 2091,
      "dr": 2092,
      "do": 2093,
      "ins": 2094,
      "known": 2095,
      "ject": 2096,
      "there": 2097,
      "ress": 2098,
      "ists": 2099,
      "may": 2100,
      "call": 2101,
      "cer": 2102,
      "trans": 2103,
      "16": 2104,
      "ys": 2105,
      "II": 2106,
      "where": 2107,
      "dif": 2108,
      "ric": 2109,
      "pop": 2110,
      "ities": 2111,
      "led": 2112,
      "Bo": 2113,
      "ating": 2114,
      "ms": 2115,
      "par": 2116,
      "eng": 2117,
      "ople": 2118,
      "De": 2119,
      "\",": 2120,
      "my": 2121,
      "vis": 2122,
      "bor": 2123,
      "fil": 2124,
      "ivers": 2125,
      "15": 2126,
      "hist": 2127,
      "ished": 2128,
      "Con": 2129,
      "found": 2130,
      "set": 2131,
      "ful": 2132,
      "during": 2133,
      "about": 2134,
      "ollow": 2135,
      "sup": 2136,
      "Ger": 2137,
      "ake": 2138,
      "overn": 2139,
      "fect": 2140,
      "ds": 2141,
      "For": 2142,
      "ident": 2143,
      "through": 2144,
      "ck": 2145,
      "New": 2146,
      "Wh": 2147,
      "gener": 2148,
      "system": 2149,
      "ub": 2150,
      "day": 2151,
      "io": 2152,
      "ep": 2153,
      "ix": 2154,
      "cap": 2155,
      "Engl": 2156,
      "English": 2157,
      "years": 2158,
      "car": 2159,
      "cted": 2160,
      "10": 2161,
      "cy": 2162,
      "serv": 2163,
      "ft": 2164,
      "ton": 2165,
      "ship": 2166,
      "outh": 2167,
      "Jo": 2168,
      "stru": 2169,
      "son": 2170,
      "inv": 2171,
      "194": 2172,
      "prov": 2173,
      "ium": 2174,
      "well": 2175,
      "velop": 2176,
      "At": 2177,
      "mem": 2178,
      "ily": 2179,
      "ron": 2180,
      "loc": 2181,
      "amp": 2182,
      "develop": 2183,
      "uro": 2184,
      "sur": 2185,
      "Le": 2186,
      "United": 2187,
      "uss": 2188,
      "ause": 2189,
      "Is": 2190,
      "On": 2191,
      "lex": 2192,
      "angu": 2193,
      "again": 2194,
      "ward": 2195,
      "including": 2196,
      "owever": 2197,
      "ures": 2198,
      "sing": 2199,
      "later": 2200,
      "follow": 2201,
      "called": 2202,
      "ians": 2203,
      "ost": 2204,
      "made": 2205,
      "195": 2206,
      "ife": 2207,
      "present": 2208,
      "number": 2209,
      "Bl": 2210,
      "ized": 2211,
      "ax": 2212,
      "these": 2213,
      "dist": 2214,
      "ious": 2215,
      "row": 2216,
      "while": 2217,
      "oy": 2218,
      "British": 2219,
      "ually": 2220,
      "rap": 2221,
      "ered": 2222,
      "add": 2223,
      "iel": 2224,
      "Am": 2225,
      "being": 2226,
      "ret": 2227,
      "ically": 2228,
      "ible": 2229,
      "ature": 2230,
      "nor": 2231,
      "War": 2232,
      "Wor": 2233,
      "ise": 2234,
      "ement": 2235,
      "war": 2236,
      "inn": 2237,
      "Nor": 2238,
      "000": 2239,
      "people": 2240,
      "char": 2241,
      "sign": 2242,
      "three": 2243,
      "met": 2244,
      "cri": 2245,
      "cr": 2246,
      "bel": 2247,
      "leg": 2248,
      "dom": 2249,
      ".\"": 2250,
      "city": 2251,
      "ude": 2252,
      "polit": 2253,
      "king": 2254,
      "both": 2255,
      "nam": 2256,
      "peri": 2257,
      "govern": 2258,
      "12": 2259,
      "ments": 2260,
      "cept": 2261,
      "buil": 2262,
      "ale": 2263,
      "ural": 2264,
      "BC": 2265,
      "rol": 2266,
      "group": 2267,
      "spec": 2268,
      "dire": 2269,
      "dep": 2270,
      "cho": 2271,
      "oper": 2272,
      "langu": 2273,
      "la": 2274,
      "ug": 2275,
      "sim": 2276,
      "vers": 2277,
      "Be": 2278,
      "unt": 2279,
      "0s": 2280,
      "bers": 2281,
      "ution": 2282,
      "ick": 2283,
      "igin": 2284,
      "val": 2285,
      "Sh": 2286,
      "stud": 2287,
      "Euro": 2288,
      "ages": 2289,
      "vari": 2290,
      "became": 2291,
      "hel": 2292,
      "Mar": 2293,
      "differ": 2294,
      "urch": 2295,
      "cle": 2296,
      "Joh": 2297,
      "Ad": 2298,
      "countr": 2299,
      "14": 2300,
      "public": 2301,
      "ived": 2302,
      "Pro": 2303,
      "por": 2304,
      "193": 2305,
      "line": 2306,
      "ants": 2307,
      "ility": 2308,
      "ences": 2309,
      "elf": 2310,
      "ond": 2311,
      "Ac": 2312,
      "early": 2313,
      "pers": 2314,
      "Austr": 2315,
      "jor": 2316,
      "let": 2317,
      "Chr": 2318,
      "iver": 2319,
      "imes": 2320,
      "requ": 2321,
      "ros": 2322,
      "ash": 2323,
      "contin": 2324,
      "Fran": 2325,
      "Sp": 2326,
      "world": 2327,
      "lead": 2328,
      "Europe": 2329,
      "Pr": 2330,
      "appe": 2331,
      "13": 2332,
      "ier": 2333,
      "gy": 2334,
      "ban": 2335,
      "ology": 2336,
      "men": 2337,
      "long": 2338,
      "suc": 2339,
      "second": 2340,
      "inst": 2341,
      "back": 2342,
      "less": 2343,
      "Ex": 2344,
      "exam": 2345,
      "iet": 2346,
      "oot": 2347,
      "John": 2348,
      "uch": 2349,
      "az": 2350,
      "state": 2351,
      "ower": 2352,
      "sever": 2353,
      "oman": 2354,
      "rench": 2355,
      "origin": 2356,
      "like": 2357,
      "States": 2358,
      "partic": 2359,
      "ae": 2360,
      "soci": 2361,
      "bi": 2362,
      "arr": 2363,
      "larg": 2364,
      "design": 2365,
      "German": 2366,
      "del": 2367,
      "fam": 2368,
      "lar": 2369,
      "iversity": 2370,
      "cording": 2371,
      "ble": 2372,
      "sm": 2373,
      "vie": 2374,
      "bro": 2375,
      "ives": 2376,
      "French": 2377,
      "bre": 2378,
      "ild": 2379,
      "ord": 2380,
      "ulation": 2381,
      "mus": 2382,
      "four": 2383,
      "ional": 2384,
      "Ind": 2385,
      "could": 2386,
      "thor": 2387,
      "miss": 2388,
      "often": 2389,
      "against": 2390,
      "Christ": 2391,
      "same": 2392,
      "World": 2393,
      "Par": 2394,
      "cover": 2395,
      "ared": 2396,
      "before": 2397,
      "dec": 2398,
      "based": 2399,
      "stand": 2400,
      "Ber": 2401,
      "fact": 2402,
      "oth": 2403,
      "come": 2404,
      "Ph": 2405,
      "common": 2406,
      "name": 2407,
      "ina": 2408,
      "che": 2409,
      "consid": 2410,
      "Tr": 2411,
      "illion": 2412,
      "fic": 2413,
      "now": 2414,
      "ember": 2415,
      "elect": 2416,
      "each": 2417,
      "192": 2418,
      "Ab": 2419,
      "aid": 2420,
      "ley": 2421,
      "point": 2422,
      "major": 2423,
      "film": 2424,
      "press": 2425,
      "will": 2426,
      "cient": 2427,
      "Or": 2428,
      "Col": 2429,
      "atic": 2430,
      "order": 2431,
      "flu": 2432,
      "since": 2433,
      "ired": 2434,
      "ital": 2435,
      "vent": 2436,
      "support": 2437,
      "ames": 2438,
      "thern": 2439,
      "gram": 2440,
      "success": 2441,
      "ason": 2442,
      "remain": 2443,
      "sol": 2444,
      "ven": 2445,
      "view": 2446,
      "read": 2447,
      "abl": 2448,
      "trad": 2449,
      "because": 2450,
      "incre": 2451,
      "aim": 2452,
      "ilit": 2453,
      "Alex": 2454,
      "ox": 2455,
      "organ": 2456,
      "attle": 2457,
      "law": 2458,
      "ting": 2459,
      "small": 2460,
      "depend": 2461,
      "direct": 2462,
      "aking": 2463,
      "several": 2464,
      "plac": 2465,
      "ca": 2466,
      "lect": 2467,
      "acter": 2468,
      "enn": 2469,
      "chan": 2470,
      "Gree": 2471,
      "ket": 2472,
      "chn": 2473,
      "ended": 2474,
      "Can": 2475,
      "ively": 2476,
      "ener": 2477,
      "life": 2478,
      "using": 2479,
      "effect": 2480,
      "chool": 2481,
      "government": 2482,
      "bert": 2483,
      "until": 2484,
      "ides": 2485,
      "allow": 2486,
      "cour": 2487,
      "descri": 2488,
      "resp": 2489,
      "gu": 2490,
      "ices": 2491,
      "non": 2492,
      "bas": 2493,
      "mp": 2494,
      "There": 2495,
      "ouse": 2496,
      "top": 2497,
      "alian": 2498,
      "que": 2499,
      "However": 2500,
      "lim": 2501,
      "arm": 2502,
      "large": 2503,
      "tem": 2504,
      "class": 2505,
      "hum": 2506,
      "very": 2507,
      "ograp": 2508,
      "put": 2509,
      "ze": 2510,
      "sk": 2511,
      "equ": 2512,
      "uary": 2513,
      "fr": 2514,
      "she": 2515,
      "different": 2516,
      "bed": 2517,
      "ped": 2518,
      "author": 2519,
      "light": 2520,
      "player": 2521,
      "fun": 2522,
      "establ": 2523,
      "poss": 2524,
      "itions": 2525,
      "show": 2526,
      "even": 2527,
      "ik": 2528,
      "raft": 2529,
      "example": 2530,
      "cas": 2531,
      "ner": 2532,
      "rad": 2533,
      "11": 2534,
      "lit": 2535,
      "ator": 2536,
      "water": 2537,
      "Bar": 2538,
      "Car": 2539,
      "University": 2540,
      "els": 2541,
      "moder": 2542,
      "ided": 2543,
      "commun": 2544,
      "bod": 2545,
      "death": 2546,
      "King": 2547,
      "cord": 2548,
      "rele": 2549,
      "head": 2550,
      "Russ": 2551,
      "near": 2552,
      "Roman": 2553,
      "ius": 2554,
      "stit": 2555,
      "include": 2556,
      "import": 2557,
      "ather": 2558,
      "result": 2559,
      "ica": 2560,
      "ield": 2561,
      "foot": 2562,
      "refer": 2563,
      "conom": 2564,
      "ternational": 2565,
      "power": 2566,
      "ues": 2567,
      "around": 2568,
      "mat": 2569,
      "tle": 2570,
      "cult": 2571,
      "did": 2572,
      "div": 2573,
      "person": 2574,
      "run": 2575,
      "21": 2576,
      "period": 2577,
      "Cl": 2578,
      "And": 2579,
      "Pe": 2580,
      "team": 2581,
      "Sc": 2582,
      "bus": 2583,
      "ines": 2584,
      "contr": 2585,
      "South": 2586,
      "ute": 2587,
      "After": 2588,
      "series": 2589,
      "ister": 2590,
      "language": 2591,
      "wn": 2592,
      "offic": 2593,
      "appro": 2594,
      "uc": 2595,
      "mot": 2596,
      "Alexand": 2597,
      "They": 2598,
      "pass": 2599,
      "..": 2600,
      "hav": 2601,
      "ref": 2602,
      "ger": 2603,
      "vol": 2604,
      "ised": 2605,
      "ral": 2606,
      "US": 2607,
      "ock": 2608,
      "Air": 2609,
      "tal": 2610,
      "Ge": 2611,
      "those": 2612,
      "ize": 2613,
      "modern": 2614,
      "go": 2615,
      "app": 2616,
      "histor": 2617,
      "struct": 2618,
      "indu": 2619,
      "iven": 2620,
      "open": 2621,
      "craft": 2622,
      "ilar": 2623,
      "Aug": 2624,
      "formed": 2625,
      "term": 2626,
      "test": 2627,
      "ague": 2628,
      "control": 2629,
      "bin": 2630,
      "une": 2631,
      "iving": 2632,
      "arian": 2633,
      "place": 2634,
      "ival": 2635,
      "among": 2636,
      "190": 2637,
      "Hist": 2638,
      "By": 2639,
      "Pl": 2640,
      "Gr": 2641,
      "25": 2642,
      "expl": 2643,
      "area": 2644,
      "National": 2645,
      "August": 2646,
      "process": 2647,
      "ician": 2648,
      "ene": 2649,
      "program": 2650,
      "Ear": 2651,
      "ves": 2652,
      "million": 2653,
      "ately": 2654,
      "hand": 2655,
      "ilitary": 2656,
      "ified": 2657,
      "omet": 2658,
      "book": 2659,
      "country": 2660,
      "ization": 2661,
      "yn": 2662,
      "began": 2663,
      "ards": 2664,
      "sequ": 2665,
      "Her": 2666,
      "ked": 2667,
      "tic": 2668,
      "band": 2669,
      "born": 2670,
      "cell": 2671,
      "bit": 2672,
      "urther": 2673,
      "much": 2674,
      "ternal": 2675,
      "continu": 2676,
      "yl": 2677,
      "omen": 2678,
      "ross": 2679,
      "due": 2680,
      "bur": 2681,
      "di": 2682,
      "lands": 2683,
      "rop": 2684,
      "influ": 2685,
      "Ap": 2686,
      "North": 2687,
      "exp": 2688,
      "ird": 2689,
      "ony": 2690,
      "claim": 2691,
      "These": 2692,
      "following": 2693,
      "stat": 2694,
      "action": 2695,
      "techn": 2696,
      "hal": 2697,
      "belie": 2698,
      "Pol": 2699,
      "population": 2700,
      "typ": 2701,
      "inc": 2702,
      "position": 2703,
      "pect": 2704,
      "econom": 2705,
      "song": 2706,
      "rece": 2707,
      "see": 2708,
      "gg": 2709,
      "den": 2710,
      "ali": 2711,
      "ork": 2712,
      "what": 2713,
      "within": 2714,
      "Ser": 2715,
      "contain": 2716,
      "return": 2717,
      "gre": 2718,
      "Ro": 2719,
      "ai": 2720,
      "22": 2721,
      "All": 2722,
      "ids": 2723,
      "history": 2724,
      "ights": 2725,
      "rest": 2726,
      "ability": 2727,
      "Cent": 2728,
      "thod": 2729,
      "along": 2730,
      "still": 2731,
      "30": 2732,
      "Ne": 2733,
      "general": 2734,
      "last": 2735,
      "popular": 2736,
      "key": 2737,
      "child": 2738,
      "ially": 2739,
      "ently": 2740,
      "right": 2741,
      "cut": 2742,
      "Greek": 2743,
      "attack": 2744,
      "def": 2745,
      "hol": 2746,
      "down": 2747,
      "ham": 2748,
      "Coun": 2749,
      "Will": 2750,
      "home": 2751,
      "character": 2752,
      "Man": 2753,
      "York": 2754,
      "similar": 2755,
      "pat": 2756,
      "aster": 2757,
      "issu": 2758,
      "report": 2759,
      "His": 2760,
      "base": 2761,
      "estern": 2762,
      "iam": 2763,
      "mit": 2764,
      "ison": 2765,
      "record": 2766,
      "May": 2767,
      "ament": 2768,
      "self": 2769,
      "side": 2770,
      "ove": 2771,
      "ones": 2772,
      "former": 2773,
      "Some": 2774,
      "ster": 2775,
      "considered": 2776,
      "ane": 2777,
      "members": 2778,
      "start": 2779,
      "ness": 2780,
      "search": 2781,
      "Arab": 2782,
      "music": 2783,
      "defin": 2784,
      "Canad": 2785,
      "ision": 2786,
      "field": 2787,
      "posed": 2788,
      "ung": 2789,
      "oss": 2790,
      "football": 2791,
      "Sch": 2792,
      "50": 2793,
      "mb": 2794,
      "ality": 2795,
      "alth": 2796,
      "left": 2797,
      "great": 2798,
      "level": 2799,
      "Eng": 2800,
      "short": 2801,
      "prote": 2802,
      "Bel": 2803,
      "ibut": 2804,
      "jo": 2805,
      "Ag": 2806,
      "game": 2807,
      "kill": 2808,
      "mag": 2809,
      "ff": 2810,
      "school": 2811,
      "iness": 2812,
      "just": 2813,
      "formation": 2814,
      "particular": 2815,
      "anim": 2816,
      "mov": 2817,
      "crit": 2818,
      "tradition": 2819,
      "Jew": 2820,
      "adv": 2821,
      "alk": 2822,
      "ets": 2823,
      "ried": 2824,
      "compos": 2825,
      "vir": 2826,
      "23": 2827,
      "vision": 2828,
      "tit": 2829,
      "eder": 2830,
      "family": 2831,
      "rodu": 2832,
      "ological": 2833,
      "plic": 2834,
      "said": 2835,
      "ales": 2836,
      "sl": 2837,
      "anal": 2838,
      "AS": 2839,
      "addition": 2840,
      "ning": 2841,
      "ories": 2842,
      "published": 2843,
      "Scot": 2844,
      "Church": 2845,
      "pri": 2846,
      "important": 2847,
      "osop": 2848,
      "ches": 2849,
      "Mon": 2850,
      "ety": 2851,
      "adem": 2852,
      "ground": 2853,
      "national": 2854,
      "Apol": 2855,
      "vi": 2856,
      "prof": 2857,
      "ilosop": 2858,
      "ways": 2859,
      "human": 2860,
      "ler": 2861,
      "various": 2862,
      "ument": 2863,
      "product": 2864,
      "zer": 2865,
      "ration": 2866,
      "189": 2867,
      "phys": 2868,
      "took": 2869,
      "ably": 2870,
      "astern": 2871,
      "town": 2872,
      "ris": 2873,
      "uses": 2874,
      "represent": 2875,
      "sch": 2876,
      "sw": 2877,
      "species": 2878,
      "ense": 2879,
      "given": 2880,
      "sour": 2881,
      "largest": 2882,
      "body": 2883,
      "Min": 2884,
      "face": 2885,
      "military": 2886,
      "late": 2887,
      "tak": 2888,
      "building": 2889,
      "Ed": 2890,
      "pract": 2891,
      "make": 2892,
      "another": 2893,
      "acy": 2894,
      "ays": 2895,
      "tele": 2896,
      "activ": 2897,
      "chang": 2898,
      "season": 2899,
      "Gu": 2900,
      "Co": 2901,
      "camp": 2902,
      "European": 2903,
      "fac": 2904,
      "Jan": 2905,
      "According": 2906,
      "mission": 2907,
      "Sw": 2908,
      "God": 2909,
      "without": 2910,
      "apt": 2911,
      "writer": 2912,
      "Christian": 2913,
      "One": 2914,
      "ank": 2915,
      "ither": 2916,
      "apan": 2917,
      "net": 2918,
      "Me": 2919,
      "every": 2920,
      "Dav": 2921,
      "During": 2922,
      "introdu": 2923,
      "held": 2924,
      "ling": 2925,
      "ery": 2926,
      "init": 2927,
      "ata": 2928,
      "ste": 2929,
      "feat": 2930,
      "Ju": 2931,
      "When": 2932,
      "aut": 2933,
      "oks": 2934,
      "developed": 2935,
      "curren": 2936,
      "named": 2937,
      "works": 2938,
      "Japan": 2939,
      "development": 2940,
      "Black": 2941,
      "atter": 2942,
      "production": 2943,
      "Nov": 2944,
      "usually": 2945,
      "Cor": 2946,
      "hip": 2947,
      "exist": 2948,
      "sty": 2949,
      "model": 2950,
      "Char": 2951,
      "pur": 2952,
      "beg": 2953,
      "hold": 2954,
      "mean": 2955,
      "become": 2956,
      "black": 2957,
      "cal": 2958,
      "ites": 2959,
      "rote": 2960,
      "West": 2961,
      "bir": 2962,
      "event": 2963,
      "single": 2964,
      "udd": 2965,
      "istic": 2966,
      "included": 2967,
      "ivil": 2968,
      "Ma": 2969,
      "Apollo": 2970,
      "nat": 2971,
      "ior": 2972,
      "wards": 2973,
      "prim": 2974,
      "few": 2975,
      "region": 2976,
      "established": 2977,
      "sold": 2978,
      "24": 2979,
      "range": 2980,
      "although": 2981,
      "rec": 2982,
      "ama": 2983,
      ".,": 2984,
      "bar": 2985,
      "case": 2986,
      "proper": 2987,
      "mun": 2988,
      "Sy": 2989,
      "We": 2990,
      "Sept": 2991,
      "cop": 2992,
      "mid": 2993,
      "states": 2994,
      "wrote": 2995,
      "forms": 2996,
      "bet": 2997,
      "round": 2998,
      "unch": 2999,
      "ples": 3000,
      "comple": 3001,
      "built": 3002,
      "aul": 3003,
      "relig": 3004,
      "ctor": 3005,
      "associ": 3006,
      "local": 3007,
      "ances": 3008,
      "space": 3009,
      "version": 3010,
      "Med": 3011,
      "change": 3012,
      "five": 3013,
      "xim": 3014,
      "need": 3015,
      "company": 3016,
      "mult": 3017,
      "cing": 3018,
      "ient": 3019,
      "augh": 3020,
      "Ste": 3021,
      "cul": 3022,
      "Other": 3023,
      "written": 3024,
      "ificant": 3025,
      "invol": 3026,
      "real": 3027,
      "rul": 3028,
      "occur": 3029,
      "Geor": 3030,
      "pain": 3031,
      "played": 3032,
      "lab": 3033,
      "uter": 3034,
      "rown": 3035,
      "however": 3036,
      "reach": 3037,
      "ths": 3038,
      "cially": 3039,
      "William": 3040,
      "ferences": 3041,
      "ru": 3042,
      "treat": 3043,
      "England": 3044,
      "political": 3045,
      "aged": 3046,
      "empt": 3047,
      "produced": 3048,
      "industr": 3049,
      "188": 3050,
      "Mus": 3051,
      "ats": 3052,
      "inning": 3053,
      "ured": 3054,
      "itch": 3055,
      "ops": 3056,
      "object": 3057,
      "function": 3058,
      "mass": 3059,
      "186": 3060,
      "politician": 3061,
      "role": 3062,
      "strong": 3063,
      "redu": 3064,
      "ivid": 3065,
      "turn": 3066,
      "sugg": 3067,
      "suggest": 3068,
      "Mo": 3069,
      "times": 3070,
      "Australian": 3071,
      "Oc": 3072,
      "grow": 3073,
      "appear": 3074,
      "ential": 3075,
      "placed": 3076,
      "significant": 3077,
      "hic": 3078,
      "original": 3079,
      "grap": 3080,
      "roy": 3081,
      "tra": 3082,
      "cil": 3083,
      "sto": 3084,
      "clear": 3085,
      "command": 3086,
      "Alexander": 3087,
      "Apr": 3088,
      "har": 3089,
      "ploy": 3090,
      "September": 3091,
      "Bur": 3092,
      "six": 3093,
      "conne": 3094,
      "word": 3095,
      "take": 3096,
      "sent": 3097,
      "aren": 3098,
      "187": 3099,
      "proble": 3100,
      "force": 3101,
      "useum": 3102,
      "having": 3103,
      "Union": 3104,
      "El": 3105,
      "separ": 3106,
      "released": 3107,
      "April": 3108,
      "idence": 3109,
      "astr": 3110,
      "bum": 3111,
      "mater": 3112,
      "ha": 3113,
      "decl": 3114,
      "aircraft": 3115,
      "third": 3116,
      "north": 3117,
      "Fe": 3118,
      "Per": 3119,
      "ana": 3120,
      "road": 3121,
      "Bas": 3122,
      "half": 3123,
      "aur": 3124,
      "June": 3125,
      "nov": 3126,
      "mber": 3127,
      "Act": 3128,
      "History": 3129,
      "Pres": 3130,
      "independ": 3131,
      "ividual": 3132,
      "acc": 3133,
      "July": 3134,
      "ogn": 3135,
      "ained": 3136,
      "ption": 3137,
      "rican": 3138,
      "should": 3139,
      "atom": 3140,
      "educ": 3141,
      "eth": 3142,
      "Emp": 3143,
      "countries": 3144,
      "vious": 3145,
      "ourn": 3146,
      "Li": 3147,
      "Budd": 3148,
      "sum": 3149,
      "does": 3150,
      "40": 3151,
      "iction": 3152,
      "type": 3153,
      "care": 3154,
      "Bra": 3155,
      "groups": 3156,
      "cir": 3157,
      "dra": 3158,
      "January": 3159,
      "west": 3160,
      "ctions": 3161,
      "battle": 3162,
      "came": 3163,
      "ometimes": 3164,
      "See": 3165,
      "house": 3166,
      "idge": 3167,
      "evol": 3168,
      "International": 3169,
      "Lond": 3170,
      "avy": 3171,
      "tober": 3172,
      "post": 3173,
      "languages": 3174,
      "wood": 3175,
      "clos": 3176,
      "ials": 3177,
      "October": 3178,
      "London": 3179,
      "City": 3180,
      "philosop": 3181,
      "David": 3182,
      "March": 3183,
      "served": 3184,
      "Ant": 3185,
      "olic": 3186,
      "mic": 3187,
      "sou": 3188,
      "References": 3189,
      "anish": 3190,
      "Ben": 3191,
      "possible": 3192,
      "wid": 3193,
      "ography": 3194,
      "systems": 3195,
      "business": 3196,
      "described": 3197,
      "Dece": 3198,
      "aves": 3199,
      "Empire": 3200,
      "December": 3201,
      "aver": 3202,
      "itive": 3203,
      "Gener": 3204,
      "ston": 3205,
      "istan": 3206,
      "inste": 3207,
      "With": 3208,
      "America": 3209,
      "bon": 3210,
      "certain": 3211,
      "constru": 3212,
      "stant": 3213,
      "won": 3214,
      "total": 3215,
      "ification": 3216,
      "She": 3217,
      "scri": 3218,
      "thus": 3219,
      "links": 3220,
      "either": 3221,
      "fig": 3222,
      "individual": 3223,
      "others": 3224,
      "mand": 3225,
      "ald": 3226,
      "aries": 3227,
      "pen": 3228,
      "dev": 3229,
      "Comp": 3230,
      "espe": 3231,
      "theory": 3232,
      "church": 3233,
      "covered": 3234,
      "hor": 3235,
      "research": 3236,
      "sure": 3237,
      "get": 3238,
      "text": 3239,
      "reed": 3240,
      "try": 3241,
      "log": 3242,
      "south": 3243,
      "cience": 3244,
      "Atl": 3245,
      "ined": 3246,
      "mor": 3247,
      "ades": 3248,
      "AC": 3249,
      "areas": 3250,
      "Hol": 3251,
      "list": 3252,
      "ged": 3253,
      "oung": 3254,
      "Sov": 3255,
      "service": 3256,
      "study": 3257,
      "AD": 3258,
      "ps": 3259,
      "games": 3260,
      "ka": 3261,
      "East": 3262,
      "pot": 3263,
      "current": 3264,
      "Soviet": 3265,
      "style": 3266,
      "2007": 3267,
      "market": 3268,
      "album": 3269,
      "actor": 3270,
      "board": 3271,
      "nia": 3272,
      "earli": 3273,
      "colle": 3274,
      "termin": 3275,
      "France": 3276,
      "Soc": 3277,
      "moved": 3278,
      "anti": 3279,
      "November": 3280,
      "engine": 3281,
      "onom": 3282,
      "ends": 3283,
      "ports": 3284,
      "100": 3285,
      "Spe": 3286,
      "lines": 3287,
      "Des": 3288,
      "died": 3289,
      "forces": 3290,
      "Day": 3291,
      "bra": 3292,
      "aly": 3293,
      "Although": 3294,
      "ination": 3295,
      "free": 3296,
      "alia": 3297,
      "tro": 3298,
      "dro": 3299,
      "ensive": 3300,
      "Phil": 3301,
      "father": 3302,
      "cause": 3303,
      "sometimes": 3304,
      "Russian": 3305,
      "thing": 3306,
      "ases": 3307,
      "Army": 3308,
      "further": 3309,
      "African": 3310,
      "continued": 3311,
      "women": 3312,
      "Tur": 3313,
      "alt": 3314,
      "neg": 3315,
      "site": 3316,
      "dle": 3317,
      "iple": 3318,
      "atin": 3319,
      "host": 3320,
      "fall": 3321,
      "ency": 3322,
      "far": 3323,
      "must": 3324,
      "rael": 3325,
      "2013": 3326,
      "2000": 3327,
      "compet": 3328,
      "2012": 3329,
      "26": 3330,
      "territ": 3331,
      "lam": 3332,
      "making": 3333,
      "method": 3334,
      "accoun": 3335,
      "plan": 3336,
      "Part": 3337,
      "dest": 3338,
      "liter": 3339,
      "created": 3340,
      "Har": 3341,
      "Not": 3342,
      "2014": 3343,
      "compan": 3344,
      "ships": 3345,
      "cast": 3346,
      "Arch": 3347,
      "chem": 3348,
      "meas": 3349,
      "gar": 3350,
      "ford": 3351,
      "Cath": 3352,
      "ming": 3353,
      "related": 3354,
      "natural": 3355,
      "received": 3356,
      "27": 3357,
      "2008": 3358,
      "Indian": 3359,
      "relation": 3360,
      "ending": 3361,
      "ief": 3362,
      "ounced": 3363,
      "successful": 3364,
      "especially": 3365,
      "syn": 3366,
      "Egy": 3367,
      "ille": 3368,
      "Mor": 3369,
      "External": 3370,
      "launch": 3371,
      "Bi": 3372,
      "ush": 3373,
      "Bat": 3374,
      "tom": 3375,
      "minist": 3376,
      "final": 3377,
      "While": 3378,
      "2006": 3379,
      "ole": 3380,
      "project": 3381,
      "parts": 3382,
      "Egypt": 3383,
      "van": 3384,
      "member": 3385,
      "enced": 3386,
      "least": 3387,
      "2005": 3388,
      "2010": 3389,
      "ots": 3390,
      "(\"": 3391,
      "army": 3392,
      "2009": 3393,
      "Kingdom": 3394,
      "Ang": 3395,
      "2011": 3396,
      "combin": 3397,
      "Afric": 3398,
      "hib": 3399,
      "previous": 3400,
      "special": 3401,
      "transl": 3402,
      "capital": 3403,
      "Bul": 3404,
      "Lu": 3405,
      "Roy": 3406,
      "generally": 3407,
      "ains": 3408,
      "tre": 3409,
      "dam": 3410,
      "League": 3411,
      "manag": 3412,
      "hard": 3413,
      "uel": 3414,
      "social": 3415,
      "ibr": 3416,
      "ink": 3417,
      "wide": 3418,
      "Em": 3419,
      "children": 3420,
      "Pal": 3421,
      "good": 3422,
      "Germany": 3423,
      "rather": 3424,
      "vict": 3425,
      "General": 3426,
      "To": 3427,
      "aud": 3428,
      "vo": 3429,
      "interest": 3430,
      "fire": 3431,
      "AM": 3432,
      "how": 3433,
      "ula": 3434,
      "Port": 3435,
      "asing": 3436,
      "days": 3437,
      "omb": 3438,
      "aff": 3439,
      "ape": 3440,
      "Great": 3441,
      "ancient": 3442,
      "attempt": 3443,
      "ering": 3444,
      "ark": 3445,
      "avail": 3446,
      "singer": 3447,
      "attr": 3448,
      "rac": 3449,
      "III": 3450,
      "ney": 3451,
      "domin": 3452,
      "ek": 3453,
      "itect": 3454,
      "iers": 3455,
      "quest": 3456,
      "consist": 3457,
      "sex": 3458,
      "Res": 3459,
      "sem": 3460,
      "numbers": 3461,
      "lor": 3462,
      "suf": 3463,
      "cu": 3464,
      "ours": 3465,
      "ournal": 3466,
      "seen": 3467,
      "ountain": 3468,
      "priv": 3469,
      "broad": 3470,
      "ators": 3471,
      "era": 3472,
      "taken": 3473,
      "never": 3474,
      "ino": 3475,
      "spir": 3476,
      "fail": 3477,
      "oto": 3478,
      "ply": 3479,
      "whe": 3480,
      "Bu": 3481,
      "iment": 3482,
      "2015": 3483,
      "28": 3484,
      "next": 3485,
      "Book": 3486,
      "concer": 3487,
      "vert": 3488,
      "ern": 3489,
      "ago": 3490,
      "ements": 3491,
      "ront": 3492,
      "Battle": 3493,
      "Mc": 3494,
      "thes": 3495,
      "mal": 3496,
      "20th": 3497,
      "ta": 3498,
      "recogn": 3499,
      "temper": 3500,
      "Africa": 3501,
      "Su": 3502,
      "Earth": 3503,
      "ring": 3504,
      "rate": 3505,
      "employ": 3506,
      "trav": 3507,
      "inal": 3508,
      "food": 3509,
      "India": 3510,
      "regard": 3511,
      "Te": 3512,
      "nu": 3513,
      "data": 3514,
      "feder": 3515,
      "Western": 3516,
      "ising": 3517,
      "utch": 3518,
      "ben": 3519,
      "ned": 3520,
      "win": 3521,
      "hab": 3522,
      "respon": 3523,
      "If": 3524,
      "ties": 3525,
      "international": 3526,
      "Mac": 3527,
      "frequ": 3528,
      "television": 3529,
      "Atlant": 3530,
      "Many": 3531,
      "2017": 3532,
      "himself": 3533,
      "opt": 3534,
      "stre": 3535,
      "Italian": 3536,
      "inte": 3537,
      "cus": 3538,
      "club": 3539,
      "ls": 3540,
      "ope": 3541,
      "words": 3542,
      "Bor": 3543,
      "Art": 3544,
      "party": 3545,
      "standard": 3546,
      "best": 3547,
      "rew": 3548,
      "Most": 3549,
      "express": 3550,
      "2001": 3551,
      "books": 3552,
      "emp": 3553,
      "active": 3554,
      "AT": 3555,
      "Paul": 3556,
      "fort": 3557,
      "ify": 3558,
      "accept": 3559,
      "lower": 3560,
      "estim": 3561,
      "Latin": 3562,
      "star": 3563,
      "profess": 3564,
      "above": 3565,
      "bish": 3566,
      "outs": 3567,
      "energy": 3568,
      "court": 3569,
      "offer": 3570,
      "icy": 3571,
      "experi": 3572,
      "colon": 3573,
      "iety": 3574,
      "scient": 3575,
      "lik": 3576,
      "followed": 3577,
      "indic": 3578,
      "Australia": 3579,
      "House": 3580,
      "went": 3581,
      "toge": 3582,
      "story": 3583,
      "founded": 3584,
      "ara": 3585,
      "zil": 3586,
      "schol": 3587,
      "hem": 3588,
      "mod": 3589,
      "aper": 3590,
      "Febr": 3591,
      "hydro": 3592,
      "Sm": 3593,
      "February": 3594,
      "together": 3595,
      "isto": 3596,
      "2020": 3597,
      "akes": 3598,
      "fri": 3599,
      "exper": 3600,
      "No": 3601,
      "ceed": 3602,
      "Hen": 3603,
      "bes": 3604,
      "medi": 3605,
      "culture": 3606,
      "arily": 3607,
      "capt": 3608,
      "Scott": 3609,
      "pite": 3610,
      "subject": 3611,
      "2018": 3612,
      "available": 3613,
      "pha": 3614,
      "full": 3615,
      "Brazil": 3616,
      "60": 3617,
      "sal": 3618,
      "complex": 3619,
      "ought": 3620,
      "almost": 3621,
      "iles": 3622,
      "higher": 3623,
      "President": 3624,
      "aign": 3625,
      "dou": 3626,
      "Canadian": 3627,
      "Catholic": 3628,
      "acid": 3629,
      "Athen": 3630,
      "means": 3631,
      "saw": 3632,
      "across": 3633,
      "cost": 3634,
      "2016": 3635,
      "State": 3636,
      "upon": 3637,
      "reported": 3638,
      "footballer": 3639,
      "introduced": 3640,
      "fem": 3641,
      "computer": 3642,
      "throughout": 3643,
      "comes": 3644,
      "rain": 3645,
      "ints": 3646,
      "recent": 3647,
      "Dutch": 3648,
      "civil": 3649,
      "white": 3650,
      "prob": 3651,
      "meaning": 3652,
      "sel": 3653,
      "Sea": 3654,
      "terms": 3655,
      "prop": 3656,
      "viron": 3657,
      "George": 3658,
      "actions": 3659,
      "Since": 3660,
      "ington": 3661,
      "ateg": 3662,
      "oid": 3663,
      "grad": 3664,
      "uments": 3665,
      "berg": 3666,
      "coming": 3667,
      "designed": 3668,
      "San": 3669,
      "cret": 3670,
      "Sou": 3671,
      "president": 3672,
      "ken": 3673,
      "Mid": 3674,
      "Japanese": 3675,
      "tail": 3676,
      "tour": 3677,
      "players": 3678,
      "crew": 3679,
      "Fir": 3680,
      "according": 3681,
      "lost": 3682,
      "aining": 3683,
      "elements": 3684,
      "\")": 3685,
      "ique": 3686,
      "19th": 3687,
      "Pers": 3688,
      "official": 3689,
      "ishing": 3690,
      "fav": 3691,
      "evidence": 3692,
      "located": 3693,
      "James": 3694,
      "tru": 3695,
      "cup": 3696,
      "feature": 3697,
      "2004": 3698,
      "invest": 3699,
      "List": 3700,
      "disc": 3701,
      "burg": 3702,
      "na": 3703,
      "academ": 3704,
      "central": 3705,
      "sen": 3706,
      "constit": 3707,
      "Thom": 3708,
      "ume": 3709,
      "architect": 3710,
      "Reg": 3711,
      "hon": 3712,
      "ges": 3713,
      "sat": 3714,
      "aint": 3715,
      "Spanish": 3716,
      "Israel": 3717,
      "Angl": 3718,
      "fund": 3719,
      "entire": 3720,
      "Jewish": 3721,
      "80": 3722,
      "god": 3723,
      "vot": 3724,
      "Albert": 3725,
      "amb": 3726,
      "Britain": 3727,
      "ults": 3728,
      "From": 3729,
      "respect": 3730,
      "quar": 3731,
      "Press": 3732,
      "economic": 3733,
      "except": 3734,
      "mathem": 3735,
      "Park": 3736,
      "instead": 3737,
      "Jer": 3738,
      "doc": 3739,
      "creen": 3740,
      "thought": 3741,
      "Rich": 3742,
      "average": 3743,
      "Bal": 3744,
      "Cam": 3745,
      "29": 3746,
      "()": 3747,
      "Qu": 3748,
      "47": 3749,
      "imp": 3750,
      "Afgh": 3751,
      "acqu": 3752,
      "contribut": 3753,
      "find": 3754,
      "Museum": 3755,
      "mach": 3756,
      "2019": 3757,
      "numer": 3758,
      "construction": 3759,
      "...": 3760,
      "My": 3761,
      "size": 3762,
      "abs": 3763,
      "whose": 3764,
      "Mich": 3765,
      "2003": 3766,
      "Bay": 3767,
      "High": 3768,
      "Pri": 3769,
      "mother": 3770,
      "condu": 3771,
      "surv": 3772,
      "Lou": 3773,
      "gun": 3774,
      "away": 3775,
      "value": 3776,
      "Apple": 3777,
      "ns": 3778,
      "altern": 3779,
      "Royal": 3780,
      "structure": 3781,
      "religious": 3782,
      "associated": 3783,
      "bran": 3784,
      "access": 3785,
      "relat": 3786,
      "itself": 3787,
      "1999": 3788,
      "ioned": 3789,
      "185": 3790,
      "ideo": 3791,
      "La": 3792,
      "particularly": 3793,
      "Ot": 3794,
      "commer": 3795,
      "announced": 3796,
      "Mod": 3797,
      "allowed": 3798,
      "Ru": 3799,
      "evolution": 3800,
      "sof": 3801,
      "once": 3802,
      "hom": 3803,
      "films": 3804,
      "mig": 3805,
      "nic": 3806,
      "ribut": 3807,
      "nit": 3808,
      "events": 3809,
      "know": 3810,
      "killed": 3811,
      "First": 3812,
      "sit": 3813,
      "trade": 3814,
      "sound": 3815,
      "forman": 3816,
      "campaign": 3817,
      "Govern": 3818,
      "ount": 3819,
      "poet": 3820,
      "surface": 3821,
      "utes": 3822,
      "Po": 3823,
      "exe": 3824,
      "ram": 3825,
      "rich": 3826,
      "Sam": 3827,
      "director": 3828,
      ");": 3829,
      "information": 3830,
      "rock": 3831,
      "approxim": 3832,
      "Charles": 3833,
      "mix": 3834,
      "pread": 3835,
      "Batman": 3836,
      "ored": 3837,
      "jan": 3838,
      "hit": 3839,
      "movement": 3840,
      "night": 3841,
      "rail": 3842,
      "tained": 3843,
      "clim": 3844,
      "Trans": 3845,
      "likely": 3846,
      "teach": 3847,
      "Pat": 3848,
      "Tw": 3849,
      "fle": 3850,
      "rought": 3851,
      "influence": 3852,
      "uries": 3853,
      "anted": 3854,
      "Dem": 3855,
      "iter": 3856,
      "lay": 3857,
      "rights": 3858,
      "squ": 3859,
      "referred": 3860,
      "River": 3861,
      "ean": 3862,
      "ving": 3863,
      "east": 3864,
      "alg": 3865,
      "oney": 3866,
      "atory": 3867,
      "ull": 3868,
      "Afghan": 3869,
      "mark": 3870,
      "uation": 3871,
      "remained": 3872,
      "foc": 3873,
      "rup": 3874,
      "traditional": 3875,
      "gave": 3876,
      "2021": 3877,
      "increased": 3878,
      "Ir": 3879,
      "bal": 3880,
      "stri": 3881,
      "appeared": 3882,
      "Robert": 3883,
      "ael": 3884,
      "Islam": 3885,
      "regular": 3886,
      "specific": 3887,
      "front": 3888,
      "instr": 3889,
      "draw": 3890,
      "novel": 3891,
      "2002": 3892,
      "acts": 3893,
      "critic": 3894,
      "ufact": 3895,
      "anth": 3896,
      "||": 3897,
      "peror": 3898,
      "cit": 3899,
      "Ba": 3900,
      "Dis": 3901,
      "screen": 3902,
      "inct": 3903,
      "UK": 3904,
      "close": 3905,
      "seven": 3906,
      "community": 3907,
      "bot": 3908,
      "aval": 3909,
      "achie": 3910,
      "vironment": 3911,
      "lack": 3912,
      "1998": 3913,
      "includes": 3914,
      "ysis": 3915,
      "services": 3916,
      "ficult": 3917,
      "Further": 3918,
      "pon": 3919,
      "osp": 3920,
      "features": 3921,
      "help": 3922,
      "Frank": 3923,
      "Ze": 3924,
      "symb": 3925,
      "gas": 3926,
      "sych": 3927,
      "leading": 3928,
      "ria": 3929,
      "School": 3930,
      "rem": 3931,
      "title": 3932,
      "island": 3933,
      "aps": 3934,
      "source": 3935,
      "han": 3936,
      "corpor": 3937,
      "graph": 3938,
      "Im": 3939,
      "effects": 3940,
      "meet": 3941,
      "viol": 3942,
      "atch": 3943,
      "Americ": 3944,
      "difficult": 3945,
      "ibility": 3946,
      "sea": 3947,
      "Dr": 3948,
      "Asia": 3949,
      "Mart": 3950,
      "ows": 3951,
      "Cong": 3952,
      "spect": 3953,
      "consider": 3954,
      "agon": 3955,
      "Red": 3956,
      "names": 3957,
      "Alf": 3958,
      "ampion": 3959,
      "believed": 3960,
      "resist": 3961,
      "percent": 3962,
      "plied": 3963,
      "Republic": 3964,
      "Armen": 3965,
      "claimed": 3966,
      "material": 3967,
      "oil": 3968,
      "ention": 3969,
      "tware": 3970,
      "ready": 3971,
      "respons": 3972,
      "young": 3973,
      "performan": 3974,
      "academic": 3975,
      "fish": 3976,
      "flight": 3977,
      "writing": 3978,
      "35": 3979,
      "1997": 3980,
      "administ": 3981,
      "fight": 3982,
      "jud": 3983,
      "might": 3984,
      "western": 3985,
      "cords": 3986,
      "super": 3987,
      "industry": 3988,
      "leng": 3989,
      "Vol": 3990,
      "cities": 3991,
      "northern": 3992,
      "types": 3993,
      "gress": 3994,
      "tax": 3995,
      "producer": 3996,
      "cases": 3997,
      "Canada": 3998,
      "eventually": 3999,
      "Gre": 4000,
      "standing": 4001,
      "journal": 4002,
      "umb": 4003,
      "typically": 4004,
      "nel": 4005,
      "started": 4006,
      "say": 4007,
      "election": 4008,
      "mir": 4009,
      "ert": 4010,
      "1996": 4011,
      "rule": 4012,
      "31": 4013,
      "Cour": 4014,
      "sources": 4015,
      "larger": 4016,
      "approach": 4017,
      "metal": 4018,
      "Dan": 4019,
      "Gl": 4020,
      "emer": 4021,
      "plement": 4022,
      "baseball": 4023,
      "Gro": 4024,
      "provided": 4025,
      "Otto": 4026,
      "manufact": 4027,
      "coast": 4028,
      "commonly": 4029,
      "points": 4030,
      "Party": 4031,
      "AF": 4032,
      "Of": 4033,
      "ey": 4034,
      "actress": 4035,
      "legal": 4036,
      "spo": 4037,
      "issue": 4038,
      "birth": 4039,
      "inese": 4040,
      "phen": 4041,
      "ibrary": 4042,
      "required": 4043,
      "blood": 4044,
      "pair": 4045,
      "itor": 4046,
      "ership": 4047,
      "companies": 4048,
      "Henry": 4049,
      "Hung": 4050,
      "omin": 4051,
      "ened": 4052,
      "provide": 4053,
      "Colle": 4054,
      "zo": 4055,
      "gian": 4056,
      "bound": 4057,
      "live": 4058,
      "Jack": 4059,
      "health": 4060,
      "appoint": 4061,
      "OS": 4062,
      "brought": 4063,
      "err": 4064,
      "ems": 4065,
      "ires": 4066,
      "Arabic": 4067,
      "cel": 4068,
      "daugh": 4069,
      "artic": 4070,
      "added": 4071,
      "princ": 4072,
      "Old": 4073,
      "bell": 4074,
      "mas": 4075,
      "occup": 4076,
      "returned": 4077,
      "recorded": 4078,
      "code": 4079,
      "Bill": 4080,
      "1992": 4081,
      "rot": 4082,
      "mos": 4083,
      "distribut": 4084,
      "ym": 4085,
      "ilities": 4086,
      "counter": 4087,
      "little": 4088,
      "ico": 4089,
      "mostly": 4090,
      "increasing": 4091,
      "break": 4092,
      "outside": 4093,
      "Bell": 4094,
      "don": 4095,
      "eas": 4096,
      "interpre": 4097,
      "highest": 4098,
      "ulated": 4099,
      "produce": 4100,
      "changes": 4101,
      "necess": 4102,
      "liament": 4103,
      "70": 4104,
      "ios": 4105,
      "subsequ": 4106,
      "pred": 4107,
      "uture": 4108,
      ".)": 4109,
      "Sim": 4110,
      "loss": 4111,
      "male": 4112,
      "ulf": 4113,
      "mechan": 4114,
      "dig": 4115,
      "past": 4116,
      "complete": 4117,
      "Fil": 4118,
      "auto": 4119,
      "Cap": 4120,
      "caused": 4121,
      "Du": 4122,
      "targ": 4123,
      "odes": 4124,
      "yer": 4125,
      "promot": 4126,
      "elling": 4127,
      "1995": 4128,
      "bridge": 4129,
      "Eastern": 4130,
      "defined": 4131,
      "Gold": 4132,
      "science": 4133,
      "But": 4134,
      "Instit": 4135,
      "soon": 4136,
      "iation": 4137,
      "rict": 4138,
      "transport": 4139,
      "iqu": 4140,
      "months": 4141,
      "iding": 4142,
      "1994": 4143,
      "growth": 4144,
      "Portug": 4145,
      "pp": 4146,
      "via": 4147,
      "istics": 4148,
      "establish": 4149,
      "ogy": 4150,
      "Histor": 4151,
      "electron": 4152,
      "bey": 4153,
      "box": 4154,
      "speed": 4155,
      "Bron": 4156,
      "Early": 4157,
      "widely": 4158,
      "Bah": 4159,
      "oph": 4160,
      "2022": 4161,
      "observ": 4162,
      "vehic": 4163,
      "working": 4164,
      "deb": 4165,
      "nature": 4166,
      "prom": 4167,
      "Commun": 4168,
      "increase": 4169,
      "applic": 4170,
      "longer": 4171,
      "communic": 4172,
      "print": 4173,
      "China": 4174,
      "cru": 4175,
      "remains": 4176,
      "batt": 4177,
      "concept": 4178,
      "ulture": 4179,
      "writers": 4180,
      "Russia": 4181,
      "inner": 4182,
      "center": 4183,
      "Louis": 4184,
      "pie": 4185,
      "replaced": 4186,
      "lear": 4187,
      "speak": 4188,
      "Academ": 4189,
      "living": 4190,
      "script": 4191,
      "TV": 4192,
      "BM": 4193,
      "Richard": 4194,
      "education": 4195,
      "stated": 4196,
      "utions": 4197,
      "southern": 4198,
      "Chinese": 4199,
      "ference": 4200,
      "radio": 4201,
      "sil": 4202,
      "ously": 4203,
      "pose": 4204,
      "sec": 4205,
      "icted": 4206,
      "Bro": 4207,
      "dial": 4208,
      "lic": 4209,
      "majority": 4210,
      "limited": 4211,
      "towards": 4212,
      "discovered": 4213,
      "cycl": 4214,
      "BS": 4215,
      "Peter": 4216,
      "eight": 4217,
      "Council": 4218,
      "bat": 4219,
      "too": 4220,
      "Berlin": 4221,
      "Jews": 4222,
      "earlier": 4223,
      "acters": 4224,
      "Minister": 4225,
      "personal": 4226,
      "products": 4227,
      "whether": 4228,
      "selves": 4229,
      "Publ": 4230,
      "fa": 4231,
      "Alban": 4232,
      "element": 4233,
      "private": 4234,
      "concent": 4235,
      "pow": 4236,
      "concl": 4237,
      "conditions": 4238,
      "symbol": 4239,
      "za": 4240,
      "enc": 4241,
      "reading": 4242,
      "Mal": 4243,
      "wall": 4244,
      "1991": 4245,
      "Blue": 4246,
      "Str": 4247,
      "usion": 4248,
      "affect": 4249,
      "coach": 4250,
      "1990": 4251,
      "alifor": 4252,
      "Award": 4253,
      "aving": 4254,
      "Swed": 4255,
      "Bos": 4256,
      "184": 4257,
      "themselves": 4258,
      "historical": 4259,
      "hi": 4260,
      "video": 4261,
      "Its": 4262,
      "ordin": 4263,
      "Ash": 4264,
      "gin": 4265,
      "quant": 4266,
      "problem": 4267,
      "fix": 4268,
      "instit": 4269,
      "Big": 4270,
      "iting": 4271,
      "determin": 4272,
      "award": 4273,
      "IC": 4274,
      "destroy": 4275,
      "ued": 4276,
      "prevent": 4277,
      "sett": 4278,
      "bs": 4279,
      "Italy": 4280,
      "cele": 4281,
      "troops": 4282,
      "Associ": 4283,
      "Val": 4284,
      "results": 4285,
      "iverse": 4286,
      "cross": 4287,
      "fan": 4288,
      "itar": 4289,
      "ograph": 4290,
      "lif": 4291,
      "arent": 4292,
      "Middle": 4293,
      "move": 4294,
      "assist": 4295,
      "Thomas": 4296,
      "aj": 4297,
      "today": 4298,
      "forced": 4299,
      "stop": 4300,
      "primary": 4301,
      "station": 4302,
      "step": 4303,
      "cohol": 4304,
      "ola": 4305,
      "Hall": 4306,
      "ipal": 4307,
      "independent": 4308,
      "length": 4309,
      "Ter": 4310,
      "lon": 4311,
      "pay": 4312,
      "rat": 4313,
      "particip": 4314,
      "finan": 4315,
      "beginning": 4316,
      "ping": 4317,
      "always": 4318,
      "Central": 4319,
      "dise": 4320,
      "office": 4321,
      "problems": 4322,
      "32": 4323,
      "analysis": 4324,
      "36": 4325,
      "Califor": 4326,
      "commercial": 4327,
      "behav": 4328,
      "teen": 4329,
      "bishop": 4330,
      "married": 4331,
      "billion": 4332,
      "restr": 4333,
      "plant": 4334,
      "1989": 4335,
      "territory": 4336,
      "unar": 4337,
      "cred": 4338,
      "porary": 4339,
      "Lab": 4340,
      "wind": 4341,
      "characters": 4342,
      "career": 4343,
      "integr": 4344,
      "Court": 4345,
      "Don": 4346,
      "Que": 4347,
      "leader": 4348,
      "gold": 4349,
      "ini": 4350,
      "below": 4351,
      "practice": 4352,
      "Philip": 4353,
      "Vir": 4354,
      "reason": 4355,
      "share": 4356,
      "commit": 4357,
      "itz": 4358,
      "75": 4359,
      "Another": 4360,
      "Society": 4361,
      "ises": 4362,
      "etic": 4363,
      "Miss": 4364,
      "alge": 4365,
      "adop": 4366,
      "People": 4367,
      "California": 4368,
      "labor": 4369,
      "wife": 4370,
      "acted": 4371,
      "heav": 4372,
      "agre": 4373,
      "software": 4374,
      "variety": 4375,
      "originally": 4376,
      "nation": 4377,
      "90": 4378,
      "ands": 4379,
      "Inter": 4380,
      "Sal": 4381,
      "stage": 4382,
      "pan": 4383,
      "1993": 4384,
      "proved": 4385,
      "foreign": 4386,
      "supported": 4387,
      "AP": 4388,
      "Michael": 4389,
      "Mag": 4390,
      "lav": 4391,
      "songwriter": 4392,
      "Smith": 4393,
      "ded": 4394,
      "obal": 4395,
      "Rad": 4396,
      "you": 4397,
      "conf": 4398,
      "hind": 4399,
      "path": 4400,
      "stone": 4401,
      "photo": 4402,
      "centuries": 4403,
      "suit": 4404,
      "1986": 4405,
      "future": 4406,
      "epis": 4407,
      "Cal": 4408,
      "fell": 4409,
      "look": 4410,
      "celebr": 4411,
      "500": 4412,
      "1980": 4413,
      "Wil": 4414,
      "ona": 4415,
      "atives": 4416,
      "units": 4417,
      "keep": 4418,
      "istry": 4419,
      "pected": 4420,
      "execut": 4421,
      "tor": 4422,
      "reached": 4423,
      "chemical": 4424,
      "Def": 4425,
      "treatment": 4426,
      "account": 4427,
      "aring": 4428,
      "brew": 4429,
      "Dev": 4430,
      "whom": 4431,
      "proposed": 4432,
      "uk": 4433,
      "directly": 4434,
      "Vict": 4435,
      "latter": 4436,
      "prison": 4437,
      "1988": 4438,
      "Lin": 4439,
      "lying": 4440,
      "collection": 4441,
      "ounds": 4442,
      "elected": 4443,
      "river": 4444,
      "Second": 4445,
      "Mass": 4446,
      "vill": 4447,
      "AI": 4448,
      "performed": 4449,
      "pet": 4450,
      "amed": 4451,
      "schools": 4452,
      "letter": 4453,
      "give": 4454,
      "NA": 4455,
      "tree": 4456,
      "):": 4457,
      "operations": 4458,
      "Irish": 4459,
      "regions": 4460,
      "anned": 4461,
      "Paris": 4462,
      "ension": 4463,
      "involved": 4464,
      "38": 4465,
      "stor": 4466,
      "Azer": 4467,
      "cou": 4468,
      "nd": 4469,
      "ode": 4470,
      "smaller": 4471,
      "environment": 4472,
      "animals": 4473,
      "ients": 4474,
      "mountain": 4475,
      "brother": 4476,
      "greater": 4477,
      "burn": 4478,
      "collect": 4479,
      "physical": 4480,
      "Scottish": 4481,
      "mad": 4482,
      "ingu": 4483,
      "changed": 4484,
      "39": 4485,
      "Bon": 4486,
      "reme": 4487,
      "temperature": 4488,
      "better": 4489,
      "sets": 4490,
      "Muslim": 4491,
      "dy": 4492,
      "ll": 4493,
      "180": 4494,
      "bank": 4495,
      "separate": 4496,
      "Fore": 4497,
      "ech": 4498,
      "1969": 4499,
      "require": 4500,
      "discuss": 4501,
      "spr": 4502,
      "effic": 4503,
      "estimated": 4504,
      "habit": 4505,
      "bai": 4506,
      "Congress": 4507,
      "economy": 4508,
      "track": 4509,
      "studies": 4510,
      "daughter": 4511,
      "Bol": 4512,
      "IV": 4513,
      "defe": 4514,
      "approximately": 4515,
      "release": 4516,
      "Fl": 4517,
      "Ire": 4518,
      "cis": 4519,
      "partment": 4520,
      "cos": 4521,
      "probably": 4522,
      "Jud": 4523,
      "Jose": 4524,
      "More": 4525,
      "Stud": 4526,
      "flow": 4527,
      "rupt": 4528,
      "Mic": 4529,
      "media": 4530,
      "fully": 4531,
      "friend": 4532,
      "37": 4533,
      "Wall": 4534,
      "Force": 4535,
      "Two": 4536,
      "Ottoman": 4537,
      "Azerbai": 4538,
      "Azerbaijan": 4539,
      "guitar": 4540,
      "Americans": 4541,
      "kind": 4542,
      "pts": 4543,
      "1972": 4544,
      "operation": 4545,
      "Aber": 4546,
      "Del": 4547,
      "hous": 4548,
      "revol": 4549,
      "isation": 4550,
      "antib": 4551,
      "cultural": 4552,
      "race": 4553,
      "issues": 4554,
      "thesis": 4555,
      "Mer": 4556,
      "performance": 4557,
      "review": 4558,
      "umin": 4559,
      "threat": 4560,
      "already": 4561,
      "asons": 4562,
      "enter": 4563,
      "mob": 4564,
      "divided": 4565,
      "algebra": 4566,
      "34": 4567,
      "Wash": 4568,
      "ental": 4569,
      "micro": 4570,
      "document": 4571,
      "Sol": 4572,
      "sac": 4573,
      "enes": 4574,
      "alcohol": 4575,
      "College": 4576,
      "bad": 4577,
      "Bak": 4578,
      "nearly": 4579,
      "ills": 4580,
      "minor": 4581,
      "1985": 4582,
      "relatively": 4583,
      "Cr": 4584,
      "bour": 4585,
      "otic": 4586,
      "1984": 4587,
      "ledge": 4588,
      "ources": 4589,
      "Feder": 4590,
      "saf": 4591,
      "section": 4592,
      "surround": 4593,
      "technology": 4594,
      "astronom": 4595,
      "Cy": 4596,
      "aling": 4597,
      "mainly": 4598,
      "White": 4599,
      "cells": 4600,
      "color": 4601,
      "distinct": 4602,
      "Northern": 4603,
      "travel": 4604,
      "Di": 4605,
      "Sup": 4606,
      "imal": 4607,
      "mole": 4608,
      "drug": 4609,
      "lived": 4610,
      "ustr": 4611,
      "ads": 4612,
      "1981": 4613,
      "Law": 4614,
      "cat": 4615,
      "Stre": 4616,
      "date": 4617,
      "Ann": 4618,
      "Class": 4619,
      "Grand": 4620,
      "circ": 4621,
      "demon": 4622,
      "famil": 4623,
      "Academy": 4624,
      "pitch": 4625,
      "aces": 4626,
      "idea": 4627,
      "adopted": 4628,
      "och": 4629,
      "activity": 4630,
      "rid": 4631,
      "verse": 4632,
      "izing": 4633,
      "carbon": 4634,
      "voc": 4635,
      "unit": 4636,
      "Island": 4637,
      "Institute": 4638,
      "ky": 4639,
      "shel": 4640,
      "umn": 4641,
      "opened": 4642,
      "numerous": 4643,
      "address": 4644,
      "Liber": 4645,
      "league": 4646,
      "largely": 4647,
      "alle": 4648,
      "itors": 4649,
      "highly": 4650,
      "isms": 4651,
      "therefore": 4652,
      "Elect": 4653,
      "response": 4654,
      "neigh": 4655,
      "week": 4656,
      "onso": 4657,
      "anda": 4658,
      "properties": 4659,
      "Ireland": 4660,
      "card": 4661,
      "appears": 4662,
      "alleg": 4663,
      "Washington": 4664,
      "Rom": 4665,
      "blue": 4666,
      "manager": 4667,
      "create": 4668,
      "BBC": 4669,
      "rare": 4670,
      "room": 4671,
      "confl": 4672,
      "1976": 4673,
      "medic": 4674,
      "functions": 4675,
      "45": 4676,
      "Div": 4677,
      "olk": 4678,
      "prior": 4679,
      "300": 4680,
      "immedi": 4681,
      "Mex": 4682,
      "heavy": 4683,
      "1983": 4684,
      "1987": 4685,
      "policy": 4686,
      "multiple": 4687,
      "Fin": 4688,
      "contains": 4689,
      "Saint": 4690,
      "pil": 4691,
      "idents": 4692,
      "riage": 4693,
      "derived": 4694,
      "1970": 4695,
      "respond": 4696,
      "network": 4697,
      "Mos": 4698,
      "ias": 4699,
      "complet": 4700,
      "centre": 4701,
      "playing": 4702,
      "famous": 4703,
      "Sun": 4704,
      "mis": 4705,
      "wise": 4706,
      "thr": 4707,
      "1920": 4708,
      "1975": 4709,
      "Spain": 4710,
      "course": 4711,
      "hood": 4712,
      "ivity": 4713,
      "weight": 4714,
      "Civil": 4715,
      "additional": 4716,
      "Ham": 4717,
      "convent": 4718,
      "Aust": 4719,
      "Ca": 4720,
      "rise": 4721,
      "students": 4722,
      "electr": 4723,
      "rd": 4724,
      "orith": 4725,
      "1974": 4726,
      "target": 4727,
      "Kar": 4728,
      "dim": 4729,
      "hu": 4730,
      "compared": 4731,
      "carry": 4732,
      "Ach": 4733,
      "zz": 4734,
      "onic": 4735,
      "1979": 4736,
      "Southern": 4737,
      "Bre": 4738,
      "weap": 4739,
      "table": 4740,
      "Prince": 4741,
      "ux": 4742,
      "Common": 4743,
      "Base": 4744,
      "dialect": 4745,
      "plants": 4746,
      "ields": 4747,
      "division": 4748,
      "Met": 4749,
      "implement": 4750,
      "plays": 4751,
      "sam": 4752,
      "thous": 4753,
      "forming": 4754,
      "igned": 4755,
      "settle": 4756,
      "mel": 4757,
      "taking": 4758,
      "iance": 4759,
      "corre": 4760,
      "curity": 4761,
      "shows": 4762,
      "professional": 4763,
      "1st": 4764,
      "places": 4765,
      "bul": 4766,
      "alpha": 4767,
      "chief": 4768,
      "agric": 4769,
      "emit": 4770,
      "equip": 4771,
      "passed": 4772,
      "suggested": 4773,
      "mom": 4774,
      "enough": 4775,
      "elled": 4776,
      "Buddha": 4777,
      "potential": 4778,
      "65": 4779,
      "Ban": 4780,
      "Association": 4781,
      "true": 4782,
      "exts": 4783,
      "phere": 4784,
      "expand": 4785,
      "mathemat": 4786,
      "Mil": 4787,
      "consum": 4788,
      "completed": 4789,
      "Turk": 4790,
      "Navy": 4791,
      "vin": 4792,
      "icated": 4793,
      "ferred": 4794,
      "Best": 4795,
      "Mary": 4796,
      "ocr": 4797,
      "initial": 4798,
      "detail": 4799,
      "joined": 4800,
      "suffer": 4801,
      "shown": 4802,
      "Leg": 4803,
      "System": 4804,
      "bacter": 4805,
      "ti": 4806,
      "measure": 4807,
      "Follow": 4808,
      "mur": 4809,
      "1982": 4810,
      "estival": 4811,
      "Do": 4812,
      "isl": 4813,
      "ulpt": 4814,
      "ables": 4815,
      "ift": 4816,
      "CO": 4817,
      "Rome": 4818,
      "alter": 4819,
      "conver": 4820,
      "drop": 4821,
      "eastern": 4822,
      "aled": 4823,
      "whole": 4824,
      "orders": 4825,
      "victory": 4826,
      "sus": 4827,
      "excl": 4828,
      "female": 4829,
      "orbit": 4830,
      "quick": 4831,
      "Martin": 4832,
      "inj": 4833,
      "theore": 4834,
      "alo": 4835,
      "1971": 4836,
      "influenced": 4837,
      "Company": 4838,
      "Mu": 4839,
      "amount": 4840,
      "decre": 4841,
      "noted": 4842,
      "compon": 4843,
      "composer": 4844,
      "Pre": 4845,
      "buildings": 4846,
      "match": 4847,
      "contem": 4848,
      "33": 4849,
      "Aj": 4850,
      "Bir": 4851,
      "cannot": 4852,
      "Bern": 4853,
      "expans": 4854,
      "psych": 4855,
      "maz": 4856,
      "behind": 4857,
      "minister": 4858,
      "primarily": 4859,
      "178": 4860,
      "worked": 4861,
      "Year": 4862,
      "charge": 4863,
      "Mur": 4864,
      "spread": 4865,
      "1968": 4866,
      "objects": 4867,
      "Tor": 4868,
      "1977": 4869,
      "resulting": 4870,
      "experiment": 4871,
      "ayed": 4872,
      "Victor": 4873,
      "poor": 4874,
      "1945": 4875,
      "64": 4876,
      "Mem": 4877,
      "Moon": 4878,
      "Following": 4879,
      "Rel": 4880,
      "wealth": 4881,
      "orial": 4882,
      "ody": 4883,
      "ibly": 4884,
      "weak": 4885,
      "mitted": 4886,
      "demonstr": 4887,
      "gent": 4888,
      "risk": 4889,
      "Cur": 4890,
      "basis": 4891,
      "Lord": 4892,
      "bri": 4893,
      "pher": 4894,
      "border": 4895,
      "launched": 4896,
      "journalist": 4897,
      "promin": 4898,
      "1990s": 4899,
      "carried": 4900,
      "AR": 4901,
      "distance": 4902,
      "Sen": 4903,
      "intended": 4904,
      "spirit": 4905,
      "alternative": 4906,
      "fel": 4907,
      "makes": 4908,
      "ider": 4909,
      "astic": 4910,
      "teams": 4911,
      "training": 4912,
      "Joseph": 4913,
      "Brown": 4914,
      "IS": 4915,
      "done": 4916,
      "pal": 4917,
      "demand": 4918,
      "1973": 4919,
      "Cont": 4920,
      "Mah": 4921,
      "woman": 4922,
      "formal": 4923,
      "preser": 4924,
      "Atlantic": 4925,
      "scholars": 4926,
      "double": 4927,
      "AN": 4928,
      "earch": 4929,
      "hours": 4930,
      "stars": 4931,
      "location": 4932,
      "Modern": 4933,
      "Er": 4934,
      "tas": 4935,
      "benef": 4936,
      "aging": 4937,
      "letters": 4938,
      "ES": 4939,
      "tes": 4940,
      "urban": 4941,
      "pressure": 4942,
      "igen": 4943,
      "status": 4944,
      "soldiers": 4945,
      "appointed": 4946,
      "Center": 4947,
      "levels": 4948,
      "charg": 4949,
      "identified": 4950,
      "Library": 4951,
      "rier": 4952,
      "literature": 4953,
      "DP": 4954,
      "1978": 4955,
      "76": 4956,
      "mud": 4957,
      "compar": 4958,
      "Afghanistan": 4959,
      "Ball": 4960,
      "oxy": 4961,
      "hers": 4962,
      ",\"": 4963,
      "ulations": 4964,
      "ultural": 4965,
      "presence": 4966,
      "vey": 4967,
      "maintain": 4968,
      "relationship": 4969,
      "migr": 4970,
      "univers": 4971,
      "Despite": 4972,
      "climate": 4973,
      "ault": 4974,
      "wing": 4975,
      "ya": 4976,
      "Revolution": 4977,
      "reng": 4978,
      "Amaz": 4979,
      "Oper": 4980,
      "fif": 4981,
      "olf": 4982,
      "1970s": 4983,
      "defeated": 4984,
      "omer": 4985,
      "signed": 4986,
      "48": 4987,
      "ests": 4988,
      "ultan": 4989,
      "1960s": 4990,
      "Bulgar": 4991,
      "sport": 4992,
      "varian": 4993,
      "atures": 4994,
      "artists": 4995,
      "sculpt": 4996,
      "rules": 4997,
      "algorith": 4998,
      "citiz": 4999,
      "Rob": 5000,
      "1966": 5001,
      "deg": 5002,
      "poly": 5003,
      "marked": 5004,
      "historian": 5005,
      "financial": 5006,
      "CS": 5007,
      "bomb": 5008,
      "ams": 5009,
      "cean": 5010,
      "arrang": 5011,
      "decided": 5012,
      "happ": 5013,
      "arts": 5014,
      "Mont": 5015,
      "Bot": 5016,
      "dete": 5017,
      "Under": 5018,
      "99": 5019,
      "ba": 5020,
      "society": 5021,
      "attribut": 5022,
      "Oly": 5023,
      "ny": 5024,
      "occas": 5025,
      "Anton": 5026,
      "theast": 5027,
      "perial": 5028,
      "Greece": 5029,
      "sens": 5030,
      "scale": 5031,
      "Fre": 5032,
      "categ": 5033,
      "iff": 5034,
      "sky": 5035,
      "needed": 5036,
      "hus": 5037,
      "pir": 5038,
      "rian": 5039,
      "assum": 5040,
      "coll": 5041,
      "multi": 5042,
      "earliest": 5043,
      "fair": 5044,
      "2nd": 5045,
      "semb": 5046,
      "peace": 5047,
      "annual": 5048,
      "Group": 5049,
      "PC": 5050,
      "oll": 5051,
      "enem": 5052,
      "Both": 5053,
      "Atari": 5054,
      "Johnson": 5055,
      "represented": 5056,
      "Tex": 5057,
      "iah": 5058,
      "portion": 5059,
      "covery": 5060,
      "individuals": 5061,
      "sembly": 5062,
      "acting": 5063,
      "forest": 5064,
      "Notes": 5065,
      "cand": 5066,
      "sele": 5067,
      "trib": 5068,
      "quality": 5069,
      "izations": 5070,
      "regional": 5071,
      "1980s": 5072,
      "condition": 5073,
      "Life": 5074,
      "arrow": 5075,
      "fill": 5076,
      "paper": 5077,
      "streng": 5078,
      "owned": 5079,
      "invent": 5080,
      "belief": 5081,
      "property": 5082,
      "failed": 5083,
      "scientific": 5084,
      "machine": 5085,
      "iques": 5086,
      "Sto": 5087,
      "ga": 5088,
      "azine": 5089,
      "Ox": 5090,
      "Ty": 5091,
      "That": 5092,
      "1967": 5093,
      "Series": 5094,
      "Scotland": 5095,
      "Dou": 5096,
      "Dist": 5097,
      "ging": 5098,
      "usal": 5099,
      "independence": 5100,
      "Olymp": 5101,
      "emph": 5102,
      "grand": 5103,
      "Music": 5104,
      "reduced": 5105,
      "sembl": 5106,
      "Beng": 5107,
      "thers": 5108,
      "lunar": 5109,
      "becoming": 5110,
      "composed": 5111,
      "Tele": 5112,
      "Int": 5113,
      "Rail": 5114,
      "philosophy": 5115,
      "methods": 5116,
      "Ev": 5117,
      "Treat": 5118,
      "Ark": 5119,
      "closed": 5120,
      "sexual": 5121,
      "erson": 5122,
      "mentioned": 5123,
      "undred": 5124,
      "Sat": 5125,
      "raised": 5126,
      "containing": 5127,
      "initially": 5128,
      "summer": 5129,
      "reject": 5130,
      "cles": 5131,
      "matter": 5132,
      "Bang": 5133,
      "Pan": 5134,
      "kin": 5135,
      "mann": 5136,
      "rapid": 5137,
      "Democr": 5138,
      "deep": 5139,
      "tee": 5140,
      "attacks": 5141,
      "da": 5142,
      "relations": 5143,
      "Major": 5144,
      "experience": 5145,
      "Ur": 5146,
      "sense": 5147,
      "turned": 5148,
      "degree": 5149,
      "Rev": 5150,
      "mut": 5151,
      "expected": 5152,
      "appearance": 5153,
      "\"),": 5154,
      "AL": 5155,
      "Bet": 5156,
      "big": 5157,
      "ware": 5158,
      "exhib": 5159,
      "prem": 5160,
      "Athens": 5161,
      "yet": 5162,
      "cture": 5163,
      "Adr": 5164,
      "vice": 5165,
      "onaut": 5166,
      "deal": 5167,
      "ayer": 5168,
      "ieval": 5169,
      "laws": 5170,
      "Virgin": 5171,
      "rang": 5172,
      "ellig": 5173,
      "electric": 5174,
      "expansion": 5175,
      "Iran": 5176,
      "ela": 5177,
      "sect": 5178,
      "block": 5179,
      "hys": 5180,
      "sequence": 5181,
      "Later": 5182,
      "resol": 5183,
      "memory": 5184,
      "combined": 5185,
      "Just": 5186,
      "edition": 5187,
      "isions": 5188,
      "remaining": 5189,
      "equal": 5190,
      "previously": 5191,
      "Sub": 5192,
      "het": 5193,
      "spl": 5194,
      "ologist": 5195,
      "winter": 5196,
      "ips": 5197,
      "lawyer": 5198,
      "ump": 5199,
      "values": 5200,
      "Francis": 5201,
      "fourth": 5202,
      "audi": 5203,
      "accepted": 5204,
      "Jul": 5205,
      "cip": 5206,
      "classical": 5207,
      "contrast": 5208,
      "month": 5209,
      "Byz": 5210,
      "die": 5211,
      "medical": 5212,
      "museum": 5213,
      "oted": 5214,
      "Alfred": 5215,
      "positions": 5216,
      "directed": 5217,
      "decision": 5218,
      "songs": 5219,
      "Street": 5220,
      "older": 5221,
      "oe": 5222,
      "itation": 5223,
      "notes": 5224,
      "web": 5225,
      "ordered": 5226,
      "dominant": 5227,
      "money": 5228,
      "rine": 5229,
      "Polish": 5230,
      "respectively": 5231,
      "moment": 5232,
      "mill": 5233,
      "eles": 5234,
      "ares": 5235,
      "positive": 5236,
      "effective": 5237,
      "Government": 5238,
      "Hum": 5239,
      "ike": 5240,
      "slow": 5241,
      "worth": 5242,
      "moving": 5243,
      "Byzant": 5244,
      "Bible": 5245,
      "Hor": 5246,
      "hot": 5247,
      "lov": 5248,
      "ita": 5249,
      "necessary": 5250,
      "Ak": 5251,
      "DS": 5252,
      "Nob": 5253,
      "image": 5254,
      "constant": 5255,
      "1964": 5256,
      "Bulgaria": 5257,
      "Nap": 5258,
      "ena": 5259,
      "ensus": 5260,
      "advant": 5261,
      "rovers": 5262,
      "entered": 5263,
      "observed": 5264,
      "Confeder": 5265,
      "provides": 5266,
      "Ae": 5267,
      "Jes": 5268,
      "farm": 5269,
      "ois": 5270,
      "wa": 5271,
      "onto": 5272,
      "records": 5273,
      "amin": 5274,
      "Carol": 5275,
      "ano": 5276,
      "edon": 5277,
      "1965": 5278,
      "versions": 5279,
      "featured": 5280,
      "Land": 5281,
      "eds": 5282,
      "figure": 5283,
      "Sever": 5284,
      "incorpor": 5285,
      "islands": 5286,
      "bring": 5287,
      "marriage": 5288,
      "1963": 5289,
      "disease": 5290,
      "fast": 5291,
      "Their": 5292,
      "apart": 5293,
      "reser": 5294,
      "upper": 5295,
      "argued": 5296,
      "Shah": 5297,
      "industrial": 5298,
      "Islamic": 5299,
      "controvers": 5300,
      "Over": 5301,
      "Test": 5302,
      "150": 5303,
      "Because": 5304,
      "materials": 5305,
      "hydrogen": 5306,
      "heart": 5307,
      "Islands": 5308,
      "pattern": 5309,
      "resistance": 5310,
      "Sir": 5311,
      "tos": 5312,
      "possess": 5313,
      "protect": 5314,
      "Aud": 5315,
      "los": 5316,
      "ror": 5317,
      "igation": 5318,
      "osaur": 5319,
      "Prime": 5320,
      "Ah": 5321,
      "Bank": 5322,
      "bapt": 5323,
      "anced": 5324,
      "disput": 5325,
      "inton": 5326,
      "ketball": 5327,
      "winning": 5328,
      "reve": 5329,
      "oral": 5330,
      "compl": 5331,
      "1944": 5332,
      "pression": 5333,
      "Techn": 5334,
      "operating": 5335,
      "Es": 5336,
      "1960": 5337,
      "allowing": 5338,
      "ropol": 5339,
      "ida": 5340,
      "bow": 5341,
      "advert": 5342,
      "2023": 5343,
      "Mill": 5344,
      "55": 5345,
      "Vi": 5346,
      "online": 5347,
      "edy": 5348,
      "secret": 5349,
      "runs": 5350,
      "chap": 5351,
      "global": 5352,
      "1962": 5353,
      "takes": 5354,
      "Prize": 5355,
      "Mel": 5356,
      "vow": 5357,
      "infect": 5358,
      "toms": 5359,
      "Hy": 5360,
      "Pak": 5361,
      "cry": 5362,
      "dens": 5363,
      "nes": 5364,
      "comment": 5365,
      "basic": 5366,
      "humans": 5367,
      "Cast": 5368,
      "ested": 5369,
      "province": 5370,
      "models": 5371,
      "reedom": 5372,
      "Portugu": 5373,
      "Hill": 5374,
      "acity": 5375,
      "Aristo": 5376,
      "despite": 5377,
      "giving": 5378,
      "deaths": 5379,
      "Portuguese": 5380,
      "49": 5381,
      "vary": 5382,
      "abb": 5383,
      "earth": 5384,
      "Abd": 5385,
      "lie": 5386,
      "hop": 5387,
      "commiss": 5388,
      "myth": 5389,
      "aught": 5390,
      "instrument": 5391,
      "elop": 5392,
      "dead": 5393,
      "favor": 5394,
      "Adrian": 5395,
      "Jean": 5396,
      "forts": 5397,
      "defeat": 5398,
      "agreed": 5399,
      "religion": 5400,
      "BA": 5401,
      "CE": 5402,
      "ray": 5403,
      "oud": 5404,
      "creation": 5405,
      "musical": 5406,
      "organization": 5407,
      "uded": 5408,
      "Persian": 5409,
      "emphas": 5410,
      "native": 5411,
      "bear": 5412,
      "iron": 5413,
      "County": 5414,
      "normal": 5415,
      "calcul": 5416,
      "Lincol": 5417,
      "tun": 5418,
      "Parliament": 5419,
      "ato": 5420,
      "Boston": 5421,
      "atre": 5422,
      "illustr": 5423,
      "desc": 5424,
      "Research": 5425,
      "Lincoln": 5426,
      "Ep": 5427,
      "pun": 5428,
      "Assy": 5429,
      "Ruth": 5430,
      "asc": 5431,
      "firm": 5432,
      "BCE": 5433,
      "responsible": 5434,
      "purch": 5435,
      "internal": 5436,
      "direction": 5437,
      "negative": 5438,
      "78": 5439,
      "kept": 5440,
      "binary": 5441,
      "Public": 5442,
      "Gen": 5443,
      "texts": 5444,
      "brain": 5445,
      "faith": 5446,
      "agreement": 5447,
      "quickly": 5448,
      "Age": 5449,
      "Bapt": 5450,
      "becomes": 5451,
      "Alas": 5452,
      "legisl": 5453,
      "offered": 5454,
      "Hungarian": 5455,
      "neut": 5456,
      "middle": 5457,
      "nucle": 5458,
      "candid": 5459,
      "nine": 5460,
      "aded": 5461,
      "consists": 5462,
      "extended": 5463,
      "til": 5464,
      "federal": 5465,
      "ceeded": 5466,
      "Baby": 5467,
      "Tim": 5468,
      "sports": 5469,
      "tend": 5470,
      "Sur": 5471,
      "reign": 5472,
      "simple": 5473,
      "authority": 5474,
      "uck": 5475,
      "estic": 5476,
      "179": 5477,
      "equival": 5478,
      "Texas": 5479,
      "hundred": 5480,
      "uni": 5481,
      "shot": 5482,
      "presented": 5483,
      "views": 5484,
      "activities": 5485,
      "nuclear": 5486,
      "iated": 5487,
      "serve": 5488,
      "symp": 5489,
      "definition": 5490,
      "frequently": 5491,
      "chall": 5492,
      "thodox": 5493,
      "ders": 5494,
      "Thus": 5495,
      "render": 5496,
      "continue": 5497,
      "anger": 5498,
      "Tem": 5499,
      "oured": 5500,
      "ols": 5501,
      "sole": 5502,
      "Austrian": 5503,
      "apparent": 5504,
      "avoid": 5505,
      "Mark": 5506,
      "stic": 5507,
      "ynast": 5508,
      "Edward": 5509,
      "44": 5510,
      "Ke": 5511,
      "fran": 5512,
      "told": 5513,
      "figures": 5514,
      "mouth": 5515,
      "repe": 5516,
      "Also": 5517,
      "enic": 5518,
      "Hebrew": 5519,
      "fighting": 5520,
      "Bob": 5521,
      "orb": 5522,
      "existence": 5523,
      "behavior": 5524,
      "Kore": 5525,
      "wear": 5526,
      "1900": 5527,
      "progress": 5528,
      "maxim": 5529,
      "fleet": 5530,
      "Pac": 5531,
      "Science": 5532,
      "alone": 5533,
      "dex": 5534,
      "extr": 5535,
      "Organ": 5536,
      "programs": 5537,
      "Mad": 5538,
      "Sum": 5539,
      "techniques": 5540,
      "folk": 5541,
      "iber": 5542,
      "paren": 5543,
      "allows": 5544,
      "interpret": 5545,
      "Den": 5546,
      "uters": 5547,
      "arus": 5548,
      "artist": 5549,
      "speech": 5550,
      "claims": 5551,
      "churches": 5552,
      "knowledge": 5553,
      "tu": 5554,
      "yr": 5555,
      "uls": 5556,
      "purpose": 5557,
      "munic": 5558,
      "Pakistan": 5559,
      "iments": 5560,
      "ronic": 5561,
      "suffic": 5562,
      "ambig": 5563,
      "Av": 5564,
      "animal": 5565,
      "Off": 5566,
      "Young": 5567,
      "ville": 5568,
      "ella": 5569,
      "Columb": 5570,
      "resulted": 5571,
      "declared": 5572,
      "AA": 5573,
      "scholar": 5574,
      "ethnic": 5575,
      "conflict": 5576,
      "antic": 5577,
      "spent": 5578,
      "Egyptian": 5579,
      "Super": 5580,
      "Kh": 5581,
      "pack": 5582,
      "atal": 5583,
      "illery": 5584,
      "hero": 5585,
      "cript": 5586,
      "kingdom": 5587,
      "Emperor": 5588,
      "Tom": 5589,
      "slight": 5590,
      "arms": 5591,
      "flo": 5592,
      "Hel": 5593,
      "rates": 5594,
      "university": 5595,
      "occurred": 5596,
      "broadcast": 5597,
      "Green": 5598,
      "spoken": 5599,
      "rum": 5600,
      "18th": 5601,
      "pron": 5602,
      "ideas": 5603,
      "oldest": 5604,
      "Pet": 5605,
      "liber": 5606,
      "examples": 5607,
      "Radio": 5608,
      "bass": 5609,
      "cot": 5610,
      "ii": 5611,
      "reaction": 5612,
      "aland": 5613,
      "applied": 5614,
      "prove": 5615,
      "ictions": 5616,
      "reference": 5617,
      "sey": 5618,
      "conserv": 5619,
      "plane": 5620,
      "Bibl": 5621,
      "cock": 5622,
      "amine": 5623,
      "Duke": 5624,
      "awarded": 5625,
      "leaving": 5626,
      "ils": 5627,
      "actually": 5628,
      "royal": 5629,
      "constitution": 5630,
      "battles": 5631,
      "Champion": 5632,
      "Department": 5633,
      "magnit": 5634,
      "connect": 5635,
      "captured": 5636,
      "ctic": 5637,
      "council": 5638,
      "murder": 5639,
      "va": 5640,
      "inem": 5641,
      "phone": 5642,
      "Ancient": 5643,
      "families": 5644,
      "recording": 5645,
      "aters": 5646,
      "izes": 5647,
      "crim": 5648,
      "sun": 5649,
      "rev": 5650,
      "qual": 5651,
      "question": 5652,
      "regarded": 5653,
      "ansas": 5654,
      "ultim": 5655,
      "Add": 5656,
      "running": 5657,
      "birds": 5658,
      "fit": 5659,
      "says": 5660,
      "stable": 5661,
      "notable": 5662,
      "district": 5663,
      "simply": 5664,
      "correct": 5665,
      "brief": 5666,
      "eral": 5667,
      "mess": 5668,
      "1947": 5669,
      "Order": 5670,
      "possibly": 5671,
      "trees": 5672,
      "Anglican": 5673,
      "Out": 5674,
      "aus": 5675,
      "vation": 5676,
      "amber": 5677,
      "plies": 5678,
      "stream": 5679,
      "ada": 5680,
      "governor": 5681,
      "yd": 5682,
      "escap": 5683,
      "osis": 5684,
      "distingu": 5685,
      "belong": 5686,
      "solution": 5687,
      "connected": 5688,
      "oxygen": 5689,
      "Go": 5690,
      "VI": 5691,
      "160": 5692,
      "follows": 5693,
      "currently": 5694,
      "Aar": 5695,
      "Lit": 5696,
      "eks": 5697,
      "tur": 5698,
      "1961": 5699,
      "1943": 5700,
      "refers": 5701,
      "Foot": 5702,
      "How": 5703,
      "arc": 5704,
      "stories": 5705,
      "eties": 5706,
      "motion": 5707,
      "dem": 5708,
      "occurs": 5709,
      "architecture": 5710,
      "Rh": 5711,
      "vised": 5712,
      "spired": 5713,
      "leaders": 5714,
      "officially": 5715,
      "Alexandria": 5716,
      "Camp": 5717,
      "fiction": 5718,
      "von": 5719,
      "thetic": 5720,
      "planned": 5721,
      "Andrew": 5722,
      "usalem": 5723,
      "aspect": 5724,
      "finally": 5725,
      "1948": 5726,
      "Space": 5727,
      "bing": 5728,
      "kes": 5729,
      "rod": 5730,
      "opposed": 5731,
      "auth": 5732,
      "enna": 5733,
      "Haw": 5734,
      "ries": 5735,
      "isters": 5736,
      "emperor": 5737,
      "modif": 5738,
      "serious": 5739,
      "reflect": 5740,
      "removed": 5741,
      "Ali": 5742,
      "Queen": 5743,
      "Several": 5744,
      "NAS": 5745,
      "gives": 5746,
      "sites": 5747,
      "oft": 5748,
      "monarch": 5749,
      "syl": 5750,
      "1942": 5751,
      "swana": 5752,
      "Jerusalem": 5753,
      "distribution": 5754,
      "Ver": 5755,
      "dess": 5756,
      "hypo": 5757,
      "So": 5758,
      "Sultan": 5759,
      "anarch": 5760,
      "illa": 5761,
      "ector": 5762,
      "Zealand": 5763,
      "contemporary": 5764,
      "Pop": 5765,
      "km": 5766,
      "iga": 5767,
      "compounds": 5768,
      "background": 5769,
      "ski": 5770,
      "fre": 5771,
      "grav": 5772,
      "speaking": 5773,
      "structures": 5774,
      "join": 5775,
      "mixed": 5776,
      "article": 5777,
      "immediately": 5778,
      "oul": 5779,
      "sector": 5780,
      "ores": 5781,
      "atoms": 5782,
      "Nobel": 5783,
      "(),": 5784,
      "Ale": 5785,
      "uce": 5786,
      "plom": 5787,
      "annel": 5788,
      "showed": 5789,
      "Jackson": 5790,
      "UN": 5791,
      "joy": 5792,
      "oration": 5793,
      "gency": 5794,
      "impact": 5795,
      "Alaska": 5796,
      "Eth": 5797,
      "Found": 5798,
      "dark": 5799,
      "ospital": 5800,
      "administr": 5801,
      "asked": 5802,
      "parties": 5803,
      "landing": 5804,
      "1958": 5805,
      "going": 5806,
      "combination": 5807,
      "expressed": 5808,
      "',": 5809,
      "comput": 5810,
      "ote": 5811,
      "Military": 5812,
      "NF": 5813,
      "enz": 5814,
      "accur": 5815,
      "iger": 5816,
      "determined": 5817,
      "Oxford": 5818,
      "ani": 5819,
      "adapt": 5820,
      "deen": 5821,
      "content": 5822,
      "communities": 5823,
      "subsequently": 5824,
      "Eu": 5825,
      "Tri": 5826,
      "exact": 5827,
      "venue": 5828,
      "Belarus": 5829,
      "prominent": 5830,
      "pian": 5831,
      "things": 5832,
      "minutes": 5833,
      "write": 5834,
      "Georg": 5835,
      "Net": 5836,
      "hr": 5837,
      "lives": 5838,
      "oppos": 5839,
      "ante": 5840,
      "meant": 5841,
      "doct": 5842,
      "invas": 5843,
      "growing": 5844,
      "Fort": 5845,
      "Sk": 5846,
      "osen": 5847,
      "display": 5848,
      "conce": 5849,
      "newsp": 5850,
      "contract": 5851,
      "critical": 5852,
      "Armenia": 5853,
      "Swedish": 5854,
      "68": 5855,
      "Cup": 5856,
      "Pope": 5857,
      "wanted": 5858,
      "abul": 5859,
      "generation": 5860,
      "Bosnia": 5861,
      "ij": 5862,
      "inking": 5863,
      "ady": 5864,
      "green": 5865,
      "\").": 5866,
      "400": 5867,
      "adium": 5868,
      "tery": 5869,
      "abol": 5870,
      "Star": 5871,
      "ternet": 5872,
      "1940": 5873,
      "ker": 5874,
      "1939": 5875,
      "Orthodox": 5876,
      "ynasty": 5877,
      "Dire": 5878,
      "aer": 5879,
      "beaut": 5880,
      "overs": 5881,
      "58": 5882,
      "norm": 5883,
      "ont": 5884,
      "Bahá": 5885,
      "fixed": 5886,
      "Columbia": 5887,
      "Ari": 5888,
      "inside": 5889,
      "Serb": 5890,
      "Bulg": 5891,
      "fantry": 5892,
      "Time": 5893,
      "issued": 5894,
      "Aberdeen": 5895,
      "Four": 5896,
      "Langu": 5897,
      "anc": 5898,
      "Constant": 5899,
      "branch": 5900,
      "Division": 5901,
      "oles": 5902,
      "brand": 5903,
      "basketball": 5904,
      "stitution": 5905,
      "Pacific": 5906,
      "here": 5907,
      "seem": 5908,
      "holds": 5909,
      "3rd": 5910,
      "Balk": 5911,
      "fields": 5912,
      "theless": 5913,
      "champion": 5914,
      "efforts": 5915,
      "specif": 5916,
      "passeng": 5917,
      "controlled": 5918,
      "Nether": 5919,
      "translation": 5920,
      "administration": 5921,
      "batter": 5922,
      "mort": 5923,
      "Max": 5924,
      "|-": 5925,
      "presents": 5926,
      "capacity": 5927,
      "greatest": 5928,
      "beyond": 5929,
      "bury": 5930,
      "inet": 5931,
      "Death": 5932,
      "portr": 5933,
      "equipment": 5934,
      "Nic": 5935,
      "ST": 5936,
      "acids": 5937,
      "udes": 5938,
      "volume": 5939,
      "square": 5940,
      "spring": 5941,
      "66": 5942,
      "gal": 5943,
      "alus": 5944,
      "asy": 5945,
      "etc": 5946,
      "glass": 5947,
      "supply": 5948,
      "magazine": 5949,
      "device": 5950,
      "listed": 5951,
      "Sing": 5952,
      "Command": 5953,
      "translated": 5954,
      "instruments": 5955,
      "Up": 5956,
      "core": 5957,
      "wer": 5958,
      "ening": 5959,
      "meeting": 5960,
      "love": 5961,
      "stra": 5962,
      "management": 5963,
      "Ul": 5964,
      "hism": 5965,
      "aux": 5966,
      "Arth": 5967,
      "correspon": 5968,
      "mind": 5969,
      "bles": 5970,
      "Baseball": 5971,
      "advantage": 5972,
      "DNA": 5973,
      "Each": 5974,
      "gam": 5975,
      "Secret": 5976,
      "1956": 5977,
      "BI": 5978,
      "iom": 5979,
      "andon": 5980,
      "union": 5981,
      "combat": 5982,
      "Chic": 5983,
      "Lee": 5984,
      "helped": 5985,
      "Rock": 5986,
      "Stand": 5987,
      "1959": 5988,
      "completely": 5989,
      "magnitude": 5990,
      "Econom": 5991,
      "din": 5992,
      "ighter": 5993,
      "computers": 5994,
      "painter": 5995,
      "Byzantine": 5996,
      "Broad": 5997,
      "Tod": 5998,
      "sterdam": 5999,
      "colonies": 6000,
      "Bulgarian": 6001,
      "Post": 6002,
      "wave": 6003,
      "eding": 6004,
      "extrem": 6005,
      "killing": 6006,
      "astronaut": 6007,
      "Mat": 6008,
      "Way": 6009,
      "nis": 6010,
      "inspired": 6011,
      "Amsterdam": 6012,
      "Polit": 6013,
      "devices": 6014,
      "split": 6015,
      "77": 6016,
      "iced": 6017,
      "weeks": 6018,
      "provin": 6019,
      "Philosop": 6020,
      "Develop": 6021,
      "Naz": 6022,
      "dog": 6023,
      "icts": 6024,
      "security": 6025,
      "poses": 6026,
      "frag": 6027,
      "opening": 6028,
      "believe": 6029,
      "kins": 6030,
      "ishes": 6031,
      "prin": 6032,
      "1955": 6033,
      "linear": 6034,
      "Holy": 6035,
      "itzer": 6036,
      "1914": 6037,
      "raham": 6038,
      "archae": 6039,
      "frame": 6040,
      "Holly": 6041,
      "Netherlands": 6042,
      "encour": 6043,
      "arbit": 6044,
      "staff": 6045,
      "choice": 6046,
      "Atlanta": 6047,
      "4th": 6048,
      "6th": 6049,
      "tons": 6050,
      "proto": 6051,
      "Anth": 6052,
      "disorder": 6053,
      "quarters": 6054,
      "mobile": 6055,
      "Austin": 6056,
      "Ven": 6057,
      "gained": 6058,
      "prep": 6059,
      "Brazilian": 6060,
      "powers": 6061,
      "bip": 6062,
      "bone": 6063,
      "nom": 6064,
      "recomm": 6065,
      "Asian": 6066,
      "difference": 6067,
      "Belg": 6068,
      "significantly": 6069,
      "Os": 6070,
      "Rod": 6071,
      "rated": 6072,
      "rival": 6073,
      "unknown": 6074,
      "1946": 6075,
      "refused": 6076,
      "quarter": 6077,
      "Sel": 6078,
      "intellig": 6079,
      "instance": 6080,
      "Nations": 6081,
      "asts": 6082,
      "decades": 6083,
      "competition": 6084,
      "vehicle": 6085,
      "ABC": 6086,
      "BN": 6087,
      "shap": 6088,
      "paralle": 6089,
      "Sil": 6090,
      "ero": 6091,
      "Airport": 6092,
      "vote": 6093,
      "Edu": 6094,
      "bud": 6095,
      "haps": 6096,
      "nob": 6097,
      "string": 6098,
      "joint": 6099,
      "analy": 6100,
      "constructed": 6101,
      "empire": 6102,
      "medicine": 6103,
      "1918": 6104,
      "Among": 6105,
      "destroyed": 6106,
      "Turkish": 6107,
      "Jesus": 6108,
      "perform": 6109,
      "liqu": 6110,
      "1950s": 6111,
      "Buff": 6112,
      "recognized": 6113,
      "conduct": 6114,
      "applications": 6115,
      "apers": 6116,
      "exchange": 6117,
      "arrived": 6118,
      "Basque": 6119,
      "circum": 6120,
      "Fer": 6121,
      "Tal": 6122,
      "kh": 6123,
      "amm": 6124,
      "formula": 6125,
      "Fle": 6126,
      "Lake": 6127,
      "rug": 6128,
      "ala": 6129,
      "aria": 6130,
      "relative": 6131,
      "diplom": 6132,
      "Chicago": 6133,
      "59": 6134,
      "Abu": 6135,
      "Viet": 6136,
      "iot": 6137,
      "plate": 6138,
      "portun": 6139,
      "anning": 6140,
      "elections": 6141,
      "importance": 6142,
      "powerful": 6143,
      "defense": 6144,
      "bid": 6145,
      "tank": 6146,
      "inary": 6147,
      "finished": 6148,
      "signal": 6149,
      "factors": 6150,
      "Ol": 6151,
      "jack": 6152,
      "anes": 6153,
      "itage": 6154,
      "ciences": 6155,
      "cycle": 6156,
      "vention": 6157,
      "piece": 6158,
      "Botswana": 6159,
      "entially": 6160,
      "demo": 6161,
      "oppon": 6162,
      "overall": 6163,
      "aily": 6164,
      "cerem": 6165,
      "motor": 6166,
      "instein": 6167,
      "saying": 6168,
      "Arthur": 6169,
      "isol": 6170,
      "notably": 6171,
      "Health": 6172,
      "something": 6173,
      "install": 6174,
      "grew": 6175,
      "protection": 6176,
      "territories": 6177,
      "equivalent": 6178,
      "88": 6179,
      "uated": 6180,
      "opposition": 6181,
      "attention": 6182,
      "unders": 6183,
      "1950": 6184,
      "1957": 6185,
      "Sar": 6186,
      "attempted": 6187,
      "54": 6188,
      "Wales": 6189,
      "iy": 6190,
      "rif": 6191,
      "tell": 6192,
      "shared": 6193,
      "closely": 6194,
      "focus": 6195,
      "vehicles": 6196,
      "Labor": 6197,
      "cation": 6198,
      "stell": 6199,
      "producing": 6200,
      "bodies": 6201,
      "Clinton": 6202,
      "atomic": 6203,
      "mathematic": 6204,
      "principle": 6205,
      "master": 6206,
      "agan": 6207,
      "NASA": 6208,
      "=\"": 6209,
      "inu": 6210,
      "enant": 6211,
      "Commission": 6212,
      "subsequent": 6213,
      "Bus": 6214,
      "Ira": 6215,
      "Jim": 6216,
      "Khan": 6217,
      "unique": 6218,
      "particles": 6219,
      "describes": 6220,
      "custom": 6221,
      "Film": 6222,
      "encies": 6223,
      "Gall": 6224,
      "LM": 6225,
      "cric": 6226,
      "thir": 6227,
      "anch": 6228,
      "perman": 6229,
      "whereas": 6230,
      "causing": 6231,
      "recently": 6232,
      "suggests": 6233,
      "Armenian": 6234,
      "spiritual": 6235,
      "Sax": 6236,
      "Uk": 6237,
      "itude": 6238,
      "1952": 6239,
      "secondary": 6240,
      "Like": 6241,
      "Buddhist": 6242,
      "oids": 6243,
      "chain": 6244,
      "perfect": 6245,
      "angle": 6246,
      "starting": 6247,
      "Macedon": 6248,
      "LU": 6249,
      "ule": 6250,
      "income": 6251,
      "ione": 6252,
      "ockey": 6253,
      "Artem": 6254,
      "Austria": 6255,
      "adesh": 6256,
      "Mountain": 6257,
      "Writ": 6258,
      "got": 6259,
      "iography": 6260,
      "firmed": 6261,
      "1954": 6262,
      "Franklin": 6263,
      "weapons": 6264,
      "5th": 6265,
      "EC": 6266,
      "twent": 6267,
      "identity": 6268,
      "ruled": 6269,
      "surrounding": 6270,
      "Babylon": 6271,
      "toward": 6272,
      "improv": 6273,
      "news": 6274,
      "1930": 6275,
      "Anglo": 6276,
      "Hell": 6277,
      "ho": 6278,
      "eda": 6279,
      "tox": 6280,
      "rog": 6281,
      "paint": 6282,
      "Mot": 6283,
      "PS": 6284,
      "tim": 6285,
      "plat": 6286,
      "1941": 6287,
      "Social": 6288,
      "goddess": 6289,
      "dedicated": 6290,
      "AB": 6291,
      "Fr": 6292,
      "lat": 6293,
      "sought": 6294,
      "conqu": 6295,
      "1949": 6296,
      "lock": 6297,
      "episode": 6298,
      "BT": 6299,
      "Los": 6300,
      "OL": 6301,
      "shape": 6302,
      "count": 6303,
      "build": 6304,
      "Protest": 6305,
      "engineer": 6306,
      "houses": 6307,
      "Mexico": 6308,
      "tact": 6309,
      "forward": 6310,
      "resh": 6311,
      "resources": 6312,
      "police": 6313,
      "describe": 6314,
      "historic": 6315,
      "satis": 6316,
      "easily": 6317,
      "settlement": 6318,
      "Ukrain": 6319,
      "jur": 6320,
      "wild": 6321,
      "dram": 6322,
      "leadership": 6323,
      "existing": 6324,
      "expanded": 6325,
      "aints": 6326,
      "phon": 6327,
      "receive": 6328,
      "slightly": 6329,
      "Long": 6330,
      "universe": 6331,
      "manus": 6332,
      "ached": 6333,
      "170": 6334,
      "Club": 6335,
      "situation": 6336,
      "tical": 6337,
      "armed": 6338,
      "abandon": 6339,
      "ciples": 6340,
      "hands": 6341,
      "virt": 6342,
      "enemy": 6343,
      "Squ": 6344,
      "paid": 6345,
      "Argent": 6346,
      "Nat": 6347,
      "beth": 6348,
      "ulate": 6349,
      "studied": 6350,
      "zero": 6351,
      "Turkey": 6352,
      "Cambridge": 6353,
      "screenwriter": 6354,
      "sister": 6355,
      "stress": 6356,
      "substant": 6357,
      "Christianity": 6358,
      "lingu": 6359,
      "Ha": 6360,
      "iary": 6361,
      "py": 6362,
      "sides": 6363,
      "replac": 6364,
      "absol": 6365,
      "opportun": 6366,
      "temple": 6367,
      "empts": 6368,
      "Times": 6369,
      "iser": 6370,
      "heat": 6371,
      "else": 6372,
      "proced": 6373,
      "artillery": 6374,
      "extensive": 6375,
      "visited": 6376,
      "operated": 6377,
      "worldwide": 6378,
      "acquired": 6379,
      "achieved": 6380,
      "Vietnam": 6381,
      "SI": 6382,
      "gment": 6383,
      "usual": 6384,
      "Conserv": 6385,
      "radiation": 6386,
      "goal": 6387,
      "Augustine": 6388,
      "Artemis": 6389,
      "Pen": 6390,
      "narr": 6391,
      "ionally": 6392,
      "geomet": 6393,
      "attempts": 6394,
      "subst": 6395,
      "student": 6396,
      "1901": 6397,
      "introduction": 6398,
      "amaic": 6399,
      "honor": 6400,
      "village": 6401,
      "52": 6402,
      "Penn": 6403,
      "anx": 6404,
      "ett": 6405,
      "ounder": 6406,
      "prime": 6407,
      "format": 6408,
      "ussels": 6409,
      "specifically": 6410,
      "Iraq": 6411,
      "Flor": 6412,
      "Jon": 6413,
      "crop": 6414,
      "greg": 6415,
      "throw": 6416,
      "orph": 6417,
      "tried": 6418,
      "News": 6419,
      "differences": 6420,
      "dependent": 6421,
      "moral": 6422,
      "%,": 6423,
      "Einstein": 6424,
      "inhabit": 6425,
      "causes": 6426,
      "limit": 6427,
      "voice": 6428,
      "heavily": 6429,
      "Cro": 6430,
      "Gi": 6431,
      "cular": 6432,
      "arrest": 6433,
      "olar": 6434,
      "bears": 6435,
      "1919": 6436,
      "strateg": 6437,
      "Aramaic": 6438,
      "contained": 6439,
      "Jos": 6440,
      "Rog": 6441,
      "gers": 6442,
      "án": 6443,
      "iled": 6444,
      "rie": 6445,
      "Books": 6446,
      "physic": 6447,
      "ACLU": 6448,
      "settled": 6449,
      "79": 6450,
      "BAS": 6451,
      "Hon": 6452,
      "Il": 6453,
      "Open": 6454,
      "mes": 6455,
      "user": 6456,
      "coal": 6457,
      "1929": 6458,
      "theorem": 6459,
      "Human": 6460,
      "Mir": 6461,
      "ür": 6462,
      "rein": 6463,
      "occupied": 6464,
      "strength": 6465,
      "Bef": 6466,
      "Tro": 6467,
      "Tour": 6468,
      "You": 6469,
      "atmos": 6470,
      "Bruce": 6471,
      "borough": 6472,
      "56": 6473,
      "Aph": 6474,
      "Free": 6475,
      "RO": 6476,
      "cks": 6477,
      "dated": 6478,
      "phase": 6479,
      "boy": 6480,
      "finite": 6481,
      "17th": 6482,
      "programming": 6483,
      "institutions": 6484,
      "Bav": 6485,
      "ellow": 6486,
      "medieval": 6487,
      "organized": 6488,
      "tests": 6489,
      "composition": 6490,
      "stock": 6491,
      "tribes": 6492,
      "Treaty": 6493,
      "ko": 6494,
      "uted": 6495,
      "ogue": 6496,
      "understanding": 6497,
      "roll": 6498,
      "commander": 6499,
      "Daniel": 6500,
      "Supreme": 6501,
      "Wel": 6502,
      "ranean": 6503,
      "effort": 6504,
      "philosopher": 6505,
      "authors": 6506,
      "Lev": 6507,
      "output": 6508,
      "contact": 6509,
      "Christians": 6510,
      "ifying": 6511,
      "Cle": 6512,
      "Che": 6513,
      "Ve": 6514,
      "sons": 6515,
      "tribut": 6516,
      "Three": 6517,
      "igenous": 6518,
      "Before": 6519,
      "ying": 6520,
      "manufactur": 6521,
      "Addition": 6522,
      "cars": 6523,
      "anks": 6524,
      "shire": 6525,
      "biological": 6526,
      "popularity": 6527,
      "fuel": 6528,
      "hen": 6529,
      "jun": 6530,
      "sales": 6531,
      "1926": 6532,
      "Swiss": 6533,
      "cules": 6534,
      "employed": 6535,
      "Awards": 6536,
      "Far": 6537,
      "orn": 6538,
      "seat": 6539,
      "Andr": 6540,
      "drive": 6541,
      "transfer": 6542,
      "ception": 6543,
      "san": 6544,
      "leave": 6545,
      "1938": 6546,
      "Carl": 6547,
      "guns": 6548,
      "maximum": 6549,
      "Card": 6550,
      "ado": 6551,
      "oples": 6552,
      "akh": 6553,
      "rent": 6554,
      "interview": 6555,
      "publican": 6556,
      "16th": 6557,
      "reduce": 6558,
      "throne": 6559,
      "brid": 6560,
      "missions": 6561,
      "46": 6562,
      "Bag": 6563,
      "Top": 6564,
      "1928": 6565,
      "hammad": 6566,
      "Bengal": 6567,
      "Football": 6568,
      "administrative": 6569,
      "Development": 6570,
      "Alger": 6571,
      "Chap": 6572,
      "Brussels": 6573,
      "Project": 6574,
      "Russell": 6575,
      "Even": 6576,
      "advanced": 6577,
      "AG": 6578,
      "plans": 6579,
      "Service": 6580,
      "defend": 6581,
      "Corpor": 6582,
      "Alberta": 6583,
      "icks": 6584,
      "abort": 6585,
      "peak": 6586,
      "assault": 6587,
      "useful": 6588,
      "setting": 6589,
      "capable": 6590,
      "damage": 6591,
      "speakers": 6592,
      "Belgium": 6593,
      "ander": 6594,
      "height": 6595,
      "context": 6596,
      "mond": 6597,
      "bron": 6598,
      "Mediter": 6599,
      "density": 6600,
      "Greg": 6601,
      "nut": 6602,
      "nomin": 6603,
      "uan": 6604,
      "train": 6605,
      "Arts": 6606,
      "airs": 6607,
      "scene": 6608,
      "21st": 6609,
      "Bronx": 6610,
      "Mun": 6611,
      "Ob": 6612,
      "rising": 6613,
      "Bangl": 6614,
      "42": 6615,
      "ners": 6616,
      "obtained": 6617,
      "negot": 6618,
      "guitarist": 6619,
      "felt": 6620,
      "Van": 6621,
      "gir": 6622,
      "hunt": 6623,
      "workers": 6624,
      "standards": 6625,
      "typical": 6626,
      "entirely": 6627,
      "%.": 6628,
      "sail": 6629,
      "adap": 6630,
      "anta": 6631,
      "genetic": 6632,
      "1937": 6633,
      "advance": 6634,
      "capture": 6635,
      "converted": 6636,
      "citizens": 6637,
      "pure": 6638,
      "vess": 6639,
      "fifth": 6640,
      "Mediterranean": 6641,
      "Flight": 6642,
      "mak": 6643,
      "pi": 6644,
      "abilities": 6645,
      "depending": 6646,
      "stead": 6647,
      "conducted": 6648,
      "increasingly": 6649,
      "51": 6650,
      "Dar": 6651,
      "hau": 6652,
      "pict": 6653,
      "erc": 6654,
      "org": 6655,
      "shoot": 6656,
      "hell": 6657,
      "formerly": 6658,
      "phenomen": 6659,
      "Men": 6660,
      "sed": 6661,
      "clo": 6662,
      "note": 6663,
      "1933": 6664,
      "faces": 6665,
      "Aristotle": 6666,
      "Ocean": 6667,
      "kings": 6668,
      "depart": 6669,
      "writings": 6670,
      "factor": 6671,
      "influential": 6672,
      "protein": 6673,
      "businessman": 6674,
      "digital": 6675,
      "algorithm": 6676,
      "invasion": 6677,
      "Cons": 6678,
      "ange": 6679,
      "itt": 6680,
      "chosen": 6681,
      "uration": 6682,
      "strate": 6683,
      "Bod": 6684,
      "1917": 6685,
      "iew": 6686,
      "1922": 6687,
      "Alexandra": 6688,
      "pieces": 6689,
      "District": 6690,
      "eing": 6691,
      "granted": 6692,
      "1953": 6693,
      "organizations": 6694,
      "Play": 6695,
      "frequency": 6696,
      "parents": 6697,
      "Jef": 6698,
      "Sund": 6699,
      "Wood": 6700,
      "infr": 6701,
      "alumin": 6702,
      "decor": 6703,
      "creating": 6704,
      "sym": 6705,
      "gene": 6706,
      "Spears": 6707,
      "neighbor": 6708,
      "pilot": 6709,
      "components": 6710,
      "Az": 6711,
      "dry": 6712,
      "lers": 6713,
      "Alab": 6714,
      "domestic": 6715,
      "testing": 6716,
      "continuous": 6717,
      "revolution": 6718,
      "Buffalo": 6719,
      "Dig": 6720,
      "Ken": 6721,
      "Wind": 6722,
      "pa": 6723,
      "users": 6724,
      "illes": 6725,
      "lavery": 6726,
      "Angeles": 6727,
      "colonial": 6728,
      "Napole": 6729,
      "Ho": 6730,
      "fare": 6731,
      "stan": 6732,
      "stations": 6733,
      "phr": 6734,
      "1936": 6735,
      "amental": 6736,
      "swe": 6737,
      "orient": 6738,
      "secut": 6739,
      "friends": 6740,
      "affected": 6741,
      "suffered": 6742,
      "MS": 6743,
      "lot": 6744,
      "ati": 6745,
      "perhaps": 6746,
      "Amiga": 6747,
      "drawn": 6748,
      "scientists": 6749,
      "job": 6750,
      "seems": 6751,
      "blues": 6752,
      "worship": 6753,
      "lied": 6754,
      "Commit": 6755,
      "Ages": 6756,
      "steel": 6757,
      "successfully": 6758,
      "modified": 6759,
      "41": 6760,
      "rome": 6761,
      "descent": 6762,
      "newly": 6763,
      "1921": 6764,
      "1925": 6765,
      "officer": 6766,
      "literary": 6767,
      "executive": 6768,
      "rejected": 6769,
      "43": 6770,
      "Are": 6771,
      "pine": 6772,
      "var": 6773,
      "inher": 6774,
      "bean": 6775,
      "oren": 6776,
      "engineering": 6777,
      "sufficient": 6778,
      "Native": 6779,
      "aqu": 6780,
      "Federal": 6781,
      "Forces": 6782,
      "idespread": 6783,
      "statement": 6784,
      "reports": 6785,
      "accounts": 6786,
      "failure": 6787,
      "regarding": 6788,
      "experienced": 6789,
      "Wars": 6790,
      "eag": 6791,
      "alty": 6792,
      "apy": 6793,
      "Internet": 6794,
      "iza": 6795,
      "preced": 6796,
      "providing": 6797,
      "valid": 6798,
      "skin": 6799,
      "buried": 6800,
      "practices": 6801,
      "Governor": 6802,
      "Ray": 6803,
      "dates": 6804,
      "ees": 6805,
      "1910": 6806,
      "bishops": 6807,
      "Office": 6808,
      "reasons": 6809,
      "align": 6810,
      "movie": 6811,
      "Arm": 6812,
      "polar": 6813,
      "connection": 6814,
      "Women": 6815,
      "len": 6816,
      "ni": 6817,
      "push": 6818,
      "minim": 6819,
      "feel": 6820,
      "oxid": 6821,
      "zone": 6822,
      "iling": 6823,
      "Inc": 6824,
      "assass": 6825,
      "izz": 6826,
      "poem": 6827,
      "cipl": 6828,
      "flag": 6829,
      "parliament": 6830,
      "politics": 6831,
      "soldier": 6832,
      "investig": 6833,
      "concluded": 6834,
      "Victoria": 6835,
      "Assyrian": 6836,
      "bill": 6837,
      "inus": 6838,
      "iring": 6839,
      "metals": 6840,
      "officers": 6841,
      "advoc": 6842,
      "Democratic": 6843,
      "Let": 6844,
      "ee": 6845,
      "fly": 6846,
      "eler": 6847,
      "technique": 6848,
      "franch": 6849,
      "Game": 6850,
      "dut": 6851,
      "gov": 6852,
      "inth": 6853,
      "elve": 6854,
      "igins": 6855,
      "developing": 6856,
      "requires": 6857,
      "births": 6858,
      "railway": 6859,
      "electrons": 6860,
      "inhib": 6861,
      "tooth": 6862,
      "chlor": 6863,
      "deploy": 6864,
      "actors": 6865,
      "Through": 6866,
      "ranked": 6867,
      "Prof": 6868,
      "switch": 6869,
      "Virginia": 6870,
      "Danish": 6871,
      "Fam": 6872,
      "conv": 6873,
      "oka": 6874,
      "studio": 6875,
      "Prov": 6876,
      "succeeded": 6877,
      "quantum": 6878,
      "exclus": 6879,
      "dynasty": 6880,
      "angel": 6881,
      "aware": 6882,
      "axiom": 6883,
      "1931": 6884,
      "Bermud": 6885,
      "Road": 6886,
      "attributed": 6887,
      "website": 6888,
      "Alabama": 6889,
      "ancy": 6890,
      "quite": 6891,
      "processes": 6892,
      "favour": 6893,
      "dialects": 6894,
      "Gal": 6895,
      "omial": 6896,
      "elim": 6897,
      "ading": 6898,
      "Form": 6899,
      "Hungary": 6900,
      "Der": 6901,
      "smo": 6902,
      "ellect": 6903,
      "adel": 6904,
      "residents": 6905,
      "iana": 6906,
      "Auto": 6907,
      "issance": 6908,
      "extreme": 6909,
      "Program": 6910,
      "dependence": 6911,
      "nearby": 6912,
      "holding": 6913,
      "consisting": 6914,
      "option": 6915,
      "Little": 6916,
      "53": 6917,
      "Ly": 6918,
      "edge": 6919,
      "imm": 6920,
      "conson": 6921,
      "decay": 6922,
      "1927": 6923,
      "traditions": 6924,
      "Due": 6925,
      "Jones": 6926,
      "hockey": 6927,
      "ses": 6928,
      "taught": 6929,
      "aspir": 6930,
      "beer": 6931,
      "Stat": 6932,
      "avalry": 6933,
      "baptism": 6934,
      "57": 6935,
      "Ele": 6936,
      "Ret": 6937,
      "nest": 6938,
      "ogical": 6939,
      "iph": 6940,
      "Andalus": 6941,
      "CP": 6942,
      "Vis": 6943,
      "gest": 6944,
      "widespread": 6945,
      "heim": 6946,
      "calls": 6947,
      "Exam": 6948,
      "ographic": 6949,
      "Poland": 6950,
      "Sweden": 6951,
      "route": 6952,
      "ensions": 6953,
      "Records": 6954,
      "classified": 6955,
      "Similar": 6956,
      "ultimately": 6957,
      "inhabitants": 6958,
      "Gar": 6959,
      "sle": 6960,
      "snow": 6961,
      "rob": 6962,
      "1913": 6963,
      "traf": 6964,
      "raf": 6965,
      "Stan": 6966,
      "transition": 6967,
      "populations": 6968,
      "1932": 6969,
      "broke": 6970,
      "temperatures": 6971,
      "expression": 6972,
      "Wallace": 6973,
      "Mas": 6974,
      "map": 6975,
      "think": 6976,
      "confirmed": 6977,
      "ounger": 6978,
      "compat": 6979,
      "Chief": 6980,
      "prepar": 6981,
      "Special": 6982,
      "angular": 6983,
      "Constitution": 6984,
      "1951": 6985,
      "publication": 6986,
      "check": 6987,
      "clubs": 6988,
      "Offic": 6989,
      "charged": 6990,
      "founder": 6991,
      "wound": 6992,
      "keley": 6993,
      "ween": 6994,
      "roughly": 6995,
      "Bed": 6996,
      "DC": 6997,
      "fought": 6998,
      "uate": 6999,
      "seud": 7000,
      "attend": 7001,
      "1924": 7002,
      "slaves": 7003,
      "Committee": 7004,
      "Band": 7005,
      "Cre": 7006,
      "bind": 7007,
      "cam": 7008,
      "aved": 7009,
      "uba": 7010,
      "inners": 7011,
      "attacked": 7012,
      "semi": 7013,
      "Arkansas": 7014,
      "elaide": 7015,
      "Water": 7016,
      "rebell": 7017,
      "1912": 7018,
      "exped": 7019,
      "peoples": 7020,
      "destru": 7021,
      "medium": 7022,
      "park": 7023,
      "towns": 7024,
      "Goth": 7025,
      "Ram": 7026,
      "ki": 7027,
      "inf": 7028,
      "infantry": 7029,
      "usage": 7030,
      "construct": 7031,
      "publish": 7032,
      "Berkeley": 7033,
      "thousands": 7034,
      "brown": 7035,
      "fear": 7036,
      "yan": 7037,
      "eless": 7038,
      "Indu": 7039,
      "1934": 7040,
      "Origin": 7041,
      "alongside": 7042,
      "application": 7043,
      "Valley": 7044,
      "Amazon": 7045,
      "descend": 7046,
      "Bad": 7047,
      "Pas": 7048,
      "bond": 7049,
      "vast": 7050,
      "wan": 7051,
      "price": 7052,
      "visit": 7053,
      "Adelaide": 7054,
      "severe": 7055,
      "missile": 7056,
      "Baltic": 7057,
      "absor": 7058,
      "principal": 7059,
      "printed": 7060,
      "ographical": 7061,
      "challeng": 7062,
      "iate": 7063,
      "mi": 7064,
      "nations": 7065,
      "enjoy": 7066,
      "isine": 7067,
      "bands": 7068,
      "begin": 7069,
      "migration": 7070,
      "walls": 7071,
      "extremely": 7072,
      "GDP": 7073,
      "freedom": 7074,
      "hall": 7075,
      "amoun": 7076,
      "ammon": 7077,
      "score": 7078,
      "historians": 7079,
      "diag": 7080,
      "62": 7081,
      "Cas": 7082,
      "Ky": 7083,
      "entry": 7084,
      "ivals": 7085,
      "curs": 7086,
      "carrier": 7087,
      "Shar": 7088,
      "Between": 7089,
      "municipal": 7090,
      "parallel": 7091,
      "98": 7092,
      "Festival": 7093,
      "Wal": 7094,
      "ón": 7095,
      "select": 7096,
      "aka": 7097,
      "Bish": 7098,
      "Journal": 7099,
      "Knight": 7100,
      "onal": 7101,
      "edia": 7102,
      "tood": 7103,
      "urg": 7104,
      "propos": 7105,
      "1923": 7106,
      "solid": 7107,
      "Palest": 7108,
      "understood": 7109,
      "absolute": 7110,
      "Aqu": 7111,
      "ja": 7112,
      "ture": 7113,
      "inger": 7114,
      "plus": 7115,
      "exists": 7116,
      "iaz": 7117,
      "izon": 7118,
      "ideal": 7119,
      "zech": 7120,
      "projects": 7121,
      "Cit": 7122,
      "Les": 7123,
      "gather": 7124,
      "march": 7125,
      "comb": 7126,
      "1935": 7127,
      "supporting": 7128,
      "agricultural": 7129,
      "Aal": 7130,
      "Aster": 7131,
      "phe": 7132,
      "ua": 7133,
      "cher": 7134,
      "images": 7135,
      "susp": 7136,
      "120": 7137,
      "72": 7138,
      "MP": 7139,
      "SS": 7140,
      "wal": 7141,
      "unable": 7142,
      "colony": 7143,
      "visual": 7144,
      "guard": 7145,
      "traditionally": 7146,
      "Transport": 7147,
      "balance": 7148,
      "Alfonso": 7149,
      "emerged": 7150,
      "traffic": 7151,
      "Games": 7152,
      "milit": 7153,
      "obl": 7154,
      "arat": 7155,
      "itness": 7156,
      "colour": 7157,
      "pressed": 7158,
      "Herze": 7159,
      "profit": 7160,
      "Ajax": 7161,
      "momentum": 7162,
      "Czech": 7163,
      "Son": 7164,
      "gn": 7165,
      "inian": 7166,
      "mode": 7167,
      "Alpha": 7168,
      "cool": 7169,
      "Produ": 7170,
      "designated": 7171,
      "Stephen": 7172,
      "horse": 7173,
      "communication": 7174,
      "drugs": 7175,
      "bacteria": 7176,
      "liquid": 7177,
      "drew": 7178,
      "infl": 7179,
      "stro": 7180,
      "phy": 7181,
      "correspond": 7182,
      "maintained": 7183,
      "aeus": 7184,
      "Carib": 7185,
      "approved": 7186,
      "analog": 7187,
      "planet": 7188,
      "Samuel": 7189,
      "communications": 7190,
      "agriculture": 7191,
      "Hindu": 7192,
      "cited": 7193,
      "pul": 7194,
      "sort": 7195,
      "managed": 7196,
      "discipl": 7197,
      "bright": 7198,
      "Pruss": 7199,
      "designs": 7200,
      "alleged": 7201,
      "bom": 7202,
      "hical": 7203,
      "harm": 7204,
      "page": 7205,
      "ergy": 7206,
      "iang": 7207,
      "essential": 7208,
      "actual": 7209,
      "Belgian": 7210,
      "Williams": 7211,
      "error": 7212,
      "Miller": 7213,
      "Herzegov": 7214,
      "95": 7215,
      "root": 7216,
      "formally": 7217,
      "cancer": 7218,
      "marine": 7219,
      "Brian": 7220,
      "authorities": 7221,
      "stein": 7222,
      "Benj": 7223,
      "Foreign": 7224,
      "iro": 7225,
      "debut": 7226,
      "arden": 7227,
      "appropri": 7228,
      "begins": 7229,
      "Portugal": 7230,
      "revealed": 7231,
      "repeated": 7232,
      "61": 7233,
      "Bow": 7234,
      "Lyn": 7235,
      "Mes": 7236,
      "Num": 7237,
      "iar": 7238,
      "assembl": 7239,
      "improved": 7240,
      "1916": 7241,
      "discovery": 7242,
      "variable": 7243,
      "alphabet": 7244,
      "Senate": 7245,
      "Today": 7246,
      "rugby": 7247,
      "external": 7248,
      "ologies": 7249,
      "struction": 7250,
      "crash": 7251,
      "sched": 7252,
      "hardware": 7253,
      "ER": 7254,
      "dance": 7255,
      "chess": 7256,
      "adding": 7257,
      "Brand": 7258,
      "proteins": 7259,
      "Coast": 7260,
      "involving": 7261,
      "Albania": 7262,
      "Herzegovina": 7263,
      "Pier": 7264,
      "Phys": 7265,
      "naval": 7266,
      "narrow": 7267,
      "tar": 7268,
      "vement": 7269,
      "sust": 7270,
      "clin": 7271,
      "unei": 7272,
      "Liberal": 7273,
      "mathematics": 7274,
      "corresponding": 7275,
      "'.": 7276,
      "Hay": 7277,
      "Love": 7278,
      "rub": 7279,
      "sell": 7280,
      "ota": 7281,
      "successor": 7282,
      "organisms": 7283,
      "personnel": 7284,
      "spacecraft": 7285,
      "normally": 7286,
      "Lam": 7287,
      "uge": 7288,
      "conquest": 7289,
      "proof": 7290,
      "canon": 7291,
      "deliver": 7292,
      "concentration": 7293,
      "cavalry": 7294,
      "dos": 7295,
      "represents": 7296,
      "seats": 7297,
      "collabor": 7298,
      "perior": 7299,
      "Barcel": 7300,
      "Loc": 7301,
      "Ori": 7302,
      "inated": 7303,
      "inction": 7304,
      "imperial": 7305,
      "sche": 7306,
      "driver": 7307,
      "Education": 7308,
      "input": 7309,
      "extra": 7310,
      "ugos": 7311,
      "titled": 7312,
      "Corps": 7313,
      "Georgia": 7314,
      "mathematician": 7315,
      "Back": 7316,
      "festival": 7317,
      "hour": 7318,
      "icit": 7319,
      "neur": 7320,
      "Though": 7321,
      "visible": 7322,
      "particle": 7323,
      "teaching": 7324,
      "learning": 7325,
      "environmental": 7326,
      "600": 7327,
      "sa": 7328,
      "sess": 7329,
      "acle": 7330,
      "1911": 7331,
      "flat": 7332,
      "register": 7333,
      "insula": 7334,
      "130": 7335,
      "Bangladesh": 7336,
      "747": 7337,
      "reput": 7338,
      "ora": 7339,
      "stal": 7340,
      "separated": 7341,
      "treated": 7342,
      "bottom": 7343,
      "silver": 7344,
      "advertising": 7345,
      "Aphrod": 7346,
      "Corporation": 7347,
      "7th": 7348,
      "Cross": 7349,
      "cab": 7350,
      "agement": 7351,
      "veget": 7352,
      "ifications": 7353,
      "temporary": 7354,
      "violence": 7355,
      "credited": 7356,
      "Dam": 7357,
      "IBM": 7358,
      "Op": 7359,
      "dan": 7360,
      "haz": 7361,
      "mm": 7362,
      "mology": 7363,
      "accord": 7364,
      "trial": 7365,
      "otherwise": 7366,
      "aceae": 7367,
      "Golden": 7368,
      "thousand": 7369,
      "Baptist": 7370,
      "Caribbean": 7371,
      "nav": 7372,
      "umes": 7373,
      "classes": 7374,
      "titles": 7375,
      "Luther": 7376,
      "Foundation": 7377,
      "Benjamin": 7378,
      "Ainu": 7379,
      "CI": 7380,
      "Tenn": 7381,
      "atively": 7382,
      "withdraw": 7383,
      "prec": 7384,
      "tennis": 7385,
      "street": 7386,
      "Protestant": 7387,
      "Mit": 7388,
      "cav": 7389,
      "ec": 7390,
      "iod": 7391,
      "vard": 7392,
      "opol": 7393,
      "avian": 7394,
      "Artic": 7395,
      "marks": 7396,
      "door": 7397,
      "iox": 7398,
      "biography": 7399,
      "electro": 7400,
      "selected": 7401,
      "audience": 7402,
      "%)": 7403,
      "moun": 7404,
      "ateur": 7405,
      "refle": 7406,
      "netic": 7407,
      "Computer": 7408,
      "Buil": 7409,
      "shell": 7410,
      "straight": 7411,
      "Aphrodite": 7412,
      "Well": 7413,
      "fash": 7414,
      "gain": 7415,
      "Anat": 7416,
      "extent": 7417,
      "Board": 7418,
      "burgh": 7419,
      "technical": 7420,
      "Albanian": 7421,
      "incorporated": 7422,
      "Bermuda": 7423,
      "Crit": 7424,
      "Jr": 7425,
      "Yan": 7426,
      "twice": 7427,
      "rick": 7428,
      "Boys": 7429,
      "Airlines": 7430,
      "priest": 7431,
      "AMD": 7432,
      "focused": 7433,
      "osaurus": 7434,
      "NFL": 7435,
      "rivers": 7436,
      "slavery": 7437,
      "inity": 7438,
      "Theatre": 7439,
      "assigned": 7440,
      "Adam": 7441,
      "gods": 7442,
      "contributed": 7443,
      "63": 7444,
      "Lew": 7445,
      "ML": 7446,
      "mil": 7447,
      "watch": 7448,
      "onia": 7449,
      "riers": 7450,
      "tainment": 7451,
      "description": 7452,
      "husband": 7453,
      "Secretary": 7454,
      "danger": 7455,
      "mn": 7456,
      "chair": 7457,
      "amph": 7458,
      "etime": 7459,
      "raw": 7460,
      "renamed": 7461,
      "warz": 7462,
      "officials": 7463,
      "pursu": 7464,
      "copy": 7465,
      "Audi": 7466,
      "Batt": 7467,
      "Tit": 7468,
      "hes": 7469,
      "lies": 7470,
      "ims": 7471,
      "aya": 7472,
      "apse": 7473,
      "Arian": 7474,
      "polic": 7475,
      "obtain": 7476,
      "spaces": 7477,
      "Maria": 7478,
      "evolved": 7479,
      "indicate": 7480,
      "mathematical": 7481,
      "Mr": 7482,
      "Song": 7483,
      "crown": 7484,
      "gom": 7485,
      "rons": 7486,
      "asi": 7487,
      "urally": 7488,
      "antim": 7489,
      "Warhol": 7490,
      "organic": 7491,
      "strongly": 7492,
      "astronauts": 7493,
      "democr": 7494,
      "69": 7495,
      "vector": 7496,
      "olia": 7497,
      "seasons": 7498,
      "crete": 7499,
      "cious": 7500,
      "intellect": 7501,
      "lium": 7502,
      "continues": 7503,
      "bases": 7504,
      "greatly": 7505,
      "Bened": 7506,
      "Bac": 7507,
      "leaves": 7508,
      "consequ": 7509,
      "antip": 7510,
      "Child": 7511,
      "nothing": 7512,
      "porters": 7513,
      "association": 7514,
      "vania": 7515,
      "Athena": 7516,
      "considerable": 7517,
      "interpretation": 7518,
      "Cost": 7519,
      "trop": 7520,
      "resto": 7521,
      "comic": 7522,
      "lowest": 7523,
      "Patri": 7524,
      "bronze": 7525,
      "Crow": 7526,
      "Fame": 7527,
      "Main": 7528,
      "Rand": 7529,
      "rig": 7530,
      "beat": 7531,
      "iege": 7532,
      "awa": 7533,
      "argument": 7534,
      "succession": 7535,
      "divisions": 7536,
      "Eliza": 7537,
      "Territ": 7538,
      "conventional": 7539,
      "Muhammad": 7540,
      "uniform": 7541,
      "aluminium": 7542,
      "Line": 7543,
      "1930s": 7544,
      "increases": 7545,
      "Andre": 7546,
      "Schwarz": 7547,
      "algebraic": 7548,
      "newspaper": 7549,
      "strategy": 7550,
      "cod": 7551,
      "mist": 7552,
      "rics": 7553,
      "improve": 7554,
      "shall": 7555,
      "somewhat": 7556,
      "Assembly": 7557,
      "Only": 7558,
      "legend": 7559,
      "Freder": 7560,
      "anxiety": 7561,
      "67": 7562,
      "CD": 7563,
      "lan": 7564,
      "selling": 7565,
      "Alg": 7566,
      "apping": 7567,
      "featuring": 7568,
      "Antar": 7569,
      "Bernard": 7570,
      "prepared": 7571,
      "Cel": 7572,
      "Vari": 7573,
      "theories": 7574,
      "assembly": 7575,
      "buzz": 7576,
      "Abraham": 7577,
      "harmon": 7578,
      "Ashoka": 7579,
      "detect": 7580,
      "89": 7581,
      "Cla": 7582,
      "Tre": 7583,
      "ipality": 7584,
      "leads": 7585,
      "azz": 7586,
      "effectively": 7587,
      "slave": 7588,
      "copper": 7589,
      "symptoms": 7590,
      "Constantin": 7591,
      "daily": 7592,
      "ador": 7593,
      "comed": 7594,
      "armies": 7595,
      "goods": 7596,
      "Napoleon": 7597,
      "Ath": 7598,
      "Seven": 7599,
      "cow": 7600,
      "dating": 7601,
      "rical": 7602,
      "iner": 7603,
      "stay": 7604,
      "immigr": 7605,
      "uset": 7606,
      "covering": 7607,
      "purposes": 7608,
      "safe": 7609,
      "Temple": 7610,
      "hed": 7611,
      "imag": 7612,
      "1915": 7613,
      "iful": 7614,
      "Alan": 7615,
      "innov": 7616,
      "Augustus": 7617,
      "articles": 7618,
      "Hop": 7619,
      "terror": 7620,
      "ogen": 7621,
      "simpl": 7622,
      "roads": 7623,
      "Archae": 7624,
      "Historical": 7625,
      "Caes": 7626,
      "Baháʼ": 7627,
      "permanent": 7628,
      "\";": 7629,
      "FA": 7630,
      "Fried": 7631,
      "vest": 7632,
      "isd": 7633,
      "ira": 7634,
      "tri": 7635,
      "raise": 7636,
      "ibn": 7637,
      "ova": 7638,
      "cris": 7639,
      "showing": 7640,
      "1908": 7641,
      "explained": 7642,
      "dominated": 7643,
      "experiments": 7644,
      "safety": 7645,
      "aspects": 7646,
      "85": 7647,
      "Good": 7648,
      "Lo": 7649,
      "tourn": 7650,
      "ache": 7651,
      "igan": 7652,
      "ules": 7653,
      "prey": 7654,
      "disk": 7655,
      "operate": 7656,
      "continent": 7657,
      "expensive": 7658,
      "employment": 7659,
      "fundamental": 7660,
      "molecules": 7661,
      "vocal": 7662,
      "Gulf": 7663,
      "Rem": 7664,
      "intr": 7665,
      "athan": 7666,
      "surrender": 7667,
      "axis": 7668,
      "Colon": 7669,
      "termine": 7670,
      "ratio": 7671,
      "Additionally": 7672,
      "Town": 7673,
      "hur": 7674,
      "determine": 7675,
      "opin": 7676,
      "modu": 7677,
      "link": 7678,
      "linked": 7679,
      "incident": 7680,
      "involves": 7681,
      "racing": 7682,
      "debate": 7683,
      "filled": 7684,
      "adapted": 7685,
      "module": 7686,
      "Walter": 7687,
      "agents": 7688,
      "Republican": 7689,
      "serving": 7690,
      "faced": 7691,
      "exception": 7692,
      "satisf": 7693,
      "Industr": 7694,
      "stim": 7695,
      "uran": 7696,
      "veloc": 7697,
      "plication": 7698,
      "reaching": 7699,
      "establishment": 7700,
      "celebrated": 7701,
      "twenty": 7702,
      "Hal": 7703,
      "Sand": 7704,
      "mous": 7705,
      "waters": 7706,
      "ila": 7707,
      "irs": 7708,
      "feed": 7709,
      "survey": 7710,
      "13th": 7711,
      "Country": 7712,
      "Mov": 7713,
      "agent": 7714,
      "umen": 7715,
      "exerc": 7716,
      "eval": 7717,
      "12th": 7718,
      "array": 7719,
      "Germanic": 7720,
      "decline": 7721,
      "raeli": 7722,
      "cuisine": 7723,
      "gradually": 7724,
      "Disraeli": 7725,
      "Community": 7726,
      "battleship": 7727,
      "Clar": 7728,
      "Hot": 7729,
      "Run": 7730,
      "parent": 7731,
      "uit": 7732,
      "brevi": 7733,
      "Imperial": 7734,
      "Forest": 7735,
      "Cau": 7736,
      "Dun": 7737,
      "cogn": 7738,
      "foss": 7739,
      "avel": 7740,
      "subs": 7741,
      "label": 7742,
      "Basel": 7743,
      "vowel": 7744,
      "abo": 7745,
      "clar": 7746,
      "neuro": 7747,
      "achuset": 7748,
      "Prim": 7749,
      "facilities": 7750,
      "treaty": 7751,
      "measures": 7752,
      "Massachuset": 7753,
      "rapidly": 7754,
      "Francisco": 7755,
      "library": 7756,
      "pes": 7757,
      "attended": 7758,
      "ificial": 7759,
      "Brig": 7760,
      "Plan": 7761,
      "college": 7762,
      "onomy": 7763,
      "abandoned": 7764,
      "Profess": 7765,
      "Massachusetts": 7766,
      "Han": 7767,
      "oque": 7768,
      "editor": 7769,
      "abil": 7770,
      "weather": 7771,
      "Brunei": 7772,
      "Johann": 7773,
      "practical": 7774,
      "massive": 7775,
      "Montgom": 7776,
      "Technology": 7777,
      "Montgomery": 7778,
      "Jac": 7779,
      "Sports": 7780,
      "cards": 7781,
      "pione": 7782,
      "ocks": 7783,
      "Univers": 7784,
      "ario": 7785,
      "node": 7786,
      "directors": 7787,
      "courts": 7788,
      "critics": 7789,
      "styles": 7790,
      "Burg": 7791,
      "Relig": 7792,
      "provinces": 7793,
      "arbitr": 7794,
      "cinem": 7795,
      "hun": 7796,
      "rogen": 7797,
      "disambig": 7798,
      "drum": 7799,
      "passing": 7800,
      "ruler": 7801,
      "anthropol": 7802,
      "component": 7803,
      "Justice": 7804,
      "Pennsyl": 7805,
      "Qa": 7806,
      "younger": 7807,
      "amino": 7808,
      "mention": 7809,
      "coordin": 7810,
      "identify": 7811,
      "pairs": 7812,
      "comparison": 7813,
      "Carolina": 7814,
      "Bibliography": 7815,
      "Florida": 7816,
      "Yanke": 7817,
      "Mount": 7818,
      "depos": 7819,
      "playw": 7820,
      "proval": 7821,
      "decade": 7822,
      "needs": 7823,
      "efficient": 7824,
      "Roger": 7825,
      "Constantinople": 7826,
      "disambiguation": 7827,
      "Lt": 7828,
      "ched": 7829,
      "agree": 7830,
      "Ther": 7831,
      "athers": 7832,
      "characteristics": 7833,
      "physics": 7834,
      "circu": 7835,
      "Bluetooth": 7836,
      "ordinary": 7837,
      "opposite": 7838,
      "principles": 7839,
      "Welsh": 7840,
      "adelph": 7841,
      "74": 7842,
      "Agr": 7843,
      "census": 7844,
      "icide": 7845,
      "indigenous": 7846,
      "swim": 7847,
      "synthesis": 7848,
      "Pennsylvania": 7849,
      "kil": 7850,
      "eman": 7851,
      "End": 7852,
      "Bridge": 7853,
      "laid": 7854,
      "consistent": 7855,
      "documents": 7856,
      "jurisd": 7857,
      "Ald": 7858,
      "Je": 7859,
      "fresh": 7860,
      "compound": 7861,
      "Anne": 7862,
      "Beg": 7863,
      "Palace": 7864,
      "carrying": 7865,
      "invented": 7866,
      "Championship": 7867,
      "Language": 7868,
      "Standard": 7869,
      "BASIC": 7870,
      "Kn": 7871,
      "Sa": 7872,
      "cave": 7873,
      "rand": 7874,
      "enses": 7875,
      "headquarters": 7876,
      "86": 7877,
      "IT": 7878,
      "Pash": 7879,
      "Spr": 7880,
      "channel": 7881,
      "ika": 7882,
      "explo": 7883,
      "shortly": 7884,
      "Testament": 7885,
      "hair": 7886,
      "zy": 7887,
      "agues": 7888,
      "transferred": 7889,
      "ricts": 7890,
      "Boeing": 7891,
      "Isa": 7892,
      "Proto": 7893,
      "goes": 7894,
      "selection": 7895,
      "losing": 7896,
      "candidate": 7897,
      "Barcelona": 7898,
      "Dur": 7899,
      "Never": 7900,
      "hole": 7901,
      "theme": 7902,
      "retain": 7903,
      "ette": 7904,
      "sover": 7905,
      "explan": 7906,
      "movements": 7907,
      "Ministry": 7908,
      "Web": 7909,
      "strike": 7910,
      "anthrop": 7911,
      "variant": 7912,
      "Korean": 7913,
      "doctrine": 7914,
      "fired": 7915,
      "hospital": 7916,
      "lu": 7917,
      "orus": 7918,
      "ighth": 7919,
      "produces": 7920,
      "doing": 7921,
      "membran": 7922,
      "references": 7923,
      "concerns": 7924,
      "symbols": 7925,
      "details": 7926,
      "Power": 7927,
      "fold": 7928,
      "ée": 7929,
      "istical": 7930,
      "What": 7931,
      "cultures": 7932,
      "Philadelph": 7933,
      "surviving": 7934,
      "dropped": 7935,
      "Home": 7936,
      "IN": 7937,
      "cers": 7938,
      "reform": 7939,
      "ropolit": 7940,
      "heard": 7941,
      "plot": 7942,
      "Beach": 7943,
      "statistics": 7944,
      "astru": 7945,
      "measured": 7946,
      "category": 7947,
      "Confederate": 7948,
      "Sunday": 7949,
      "destruction": 7950,
      "8th": 7951,
      "Such": 7952,
      "gate": 7953,
      "enge": 7954,
      "rix": 7955,
      "Third": 7956,
      "matches": 7957,
      "patients": 7958,
      "hosted": 7959,
      "eyes": 7960,
      "Wilson": 7961,
      "paintings": 7962,
      "hunting": 7963,
      "73": 7964,
      "hid": 7965,
      "mart": 7966,
      "instruct": 7967,
      "ivered": 7968,
      "expect": 7969,
      "retired": 7970,
      "Greeks": 7971,
      "protected": 7972,
      "graphic": 7973,
      "Kenn": 7974,
      "RS": 7975,
      "Wat": 7976,
      "oes": 7977,
      "zona": 7978,
      "Theod": 7979,
      "why": 7980,
      "agu": 7981,
      "verte": 7982,
      "antis": 7983,
      "attached": 7984,
      "cert": 7985,
      "founding": 7986,
      "Newton": 7987,
      "persons": 7988,
      "equation": 7989,
      "philosophers": 7990,
      "negie": 7991,
      "companied": 7992,
      "satell": 7993,
      "survived": 7994,
      "Muslims": 7995,
      "cricke": 7996,
      "jum": 7997,
      "pig": 7998,
      "abstr": 7999,
      "accused": 8000,
      "storage": 8001,
      "intelligence": 8002,
      "Benedict": 8003,
      "Pass": 8004,
      "sand": 8005,
      "stret": 8006,
      "ura": 8007,
      "deed": 8008,
      "abled": 8009,
      "ameter": 8010,
      "Christmas": 8011,
      "solar": 8012,
      "classification": 8013,
      "possibility": 8014,
      "branches": 8015,
      "ET": 8016,
      "Kr": 8017,
      "sin": 8018,
      "uous": 8019,
      "arith": 8020,
      "strict": 8021,
      "monaster": 8022,
      "writes": 8023,
      "laure": 8024,
      "Carnegie": 8025,
      "Steve": 8026,
      "escape": 8027,
      "beauty": 8028,
      "(,": 8029,
      "Mand": 8030,
      "fans": 8031,
      "sn": 8032,
      "superior": 8033,
      "ishment": 8034,
      "acknow": 8035,
      "crime": 8036,
      "viewed": 8037,
      "Count": 8038,
      "dynam": 8039,
      "Studies": 8040,
      "iotics": 8041,
      "atmosphere": 8042,
      "crisis": 8043,
      "().": 8044,
      "Kent": 8045,
      "Mike": 8046,
      "fine": 8047,
      "roots": 8048,
      "merch": 8049,
      "preferred": 8050,
      "fled": 8051,
      "15th": 8052,
      "Christo": 8053,
      "processing": 8054,
      "rarely": 8055,
      "physicist": 8056,
      "Lewis": 8057,
      "iop": 8058,
      "origins": 8059,
      "icians": 8060,
      "touch": 8061,
      "accompanied": 8062,
      "Head": 8063,
      "depicted": 8064,
      "Germans": 8065,
      "missiles": 8066,
      "educator": 8067,
      "Broadway": 8068,
      "fashion": 8069,
      "Philadelphia": 8070,
      "AOL": 8071,
      "tz": 8072,
      "rey": 8073,
      "icon": 8074,
      "ictional": 8075,
      "locations": 8076,
      "metic": 8077,
      "Mexican": 8078,
      "Examples": 8079,
      "Fres": 8080,
      "Ib": 8081,
      "Sof": 8082,
      "zod": 8083,
      "thedr": 8084,
      "orf": 8085,
      "utenant": 8086,
      "acks": 8087,
      "generated": 8088,
      "Online": 8089,
      "Admir": 8090,
      "Indones": 8091,
      "copies": 8092,
      "declined": 8093,
      "senior": 8094,
      "assumed": 8095,
      "Cop": 8096,
      "Lim": 8097,
      "bird": 8098,
      "vas": 8099,
      "shore": 8100,
      "banks": 8101,
      "delivered": 8102,
      "chemistry": 8103,
      "audio": 8104,
      "graphics": 8105,
      "weapon": 8106,
      "Ballarat": 8107,
      "izzard": 8108,
      "Building": 8109,
      "ropolitan": 8110,
      "Mach": 8111,
      "inser": 8112,
      "thet": 8113,
      "adult": 8114,
      "prohib": 8115,
      "osph": 8116,
      "soil": 8117,
      "neither": 8118,
      "assi": 8119,
      "owner": 8120,
      "Then": 8121,
      "Joe": 8122,
      "periods": 8123,
      "explos": 8124,
      "characterized": 8125,
      "Buddhism": 8126,
      "horizon": 8127,
      "prophe": 8128,
      "fellow": 8129,
      "Classical": 8130,
      "preserved": 8131,
      "Bagh": 8132,
      "policies": 8133,
      "Hit": 8134,
      "Sciences": 8135,
      "rational": 8136,
      "tall": 8137,
      "deriv": 8138,
      "Short": 8139,
      "Peace": 8140,
      "existed": 8141,
      "achieve": 8142,
      "Bronze": 8143,
      "Denmark": 8144,
      "platform": 8145,
      "Elizabeth": 8146,
      "Sources": 8147,
      "diverse": 8148,
      "roles": 8149,
      "commod": 8150,
      "ipel": 8151,
      "partly": 8152,
      "boards": 8153,
      "load": 8154,
      "feet": 8155,
      "engines": 8156,
      "musicians": 8157,
      "campus": 8158,
      "Organization": 8159,
      "toxic": 8160,
      "Kabul": 8161,
      "dys": 8162,
      "ensure": 8163,
      "tools": 8164,
      "ampl": 8165,
      "conversion": 8166,
      "ride": 8167,
      "genus": 8168,
      "ographer": 8169,
      "1905": 8170,
      "accident": 8171,
      "scription": 8172,
      "consisted": 8173,
      "eye": 8174,
      "Micros": 8175,
      "budget": 8176,
      "Qaeda": 8177,
      "71": 8178,
      "Balt": 8179,
      "Ful": 8180,
      "cold": 8181,
      "hence": 8182,
      "pent": 8183,
      "vac": 8184,
      "itim": 8185,
      "perce": 8186,
      "earned": 8187,
      "owners": 8188,
      "grade": 8189,
      "varieties": 8190,
      "Administ": 8191,
      "continental": 8192,
      "biology": 8193,
      "historically": 8194,
      "committed": 8195,
      "commission": 8196,
      "shaped": 8197,
      "Microsoft": 8198,
      "Dor": 8199,
      "Gord": 8200,
      "Turing": 8201,
      "mac": 8202,
      "iny": 8203,
      "insect": 8204,
      "encounter": 8205,
      "items": 8206,
      "1903": 8207,
      "explicit": 8208,
      "Centre": 8209,
      "reducing": 8210,
      "Angola": 8211,
      "layer": 8212,
      "floor": 8213,
      "astructure": 8214,
      "crow": 8215,
      "gence": 8216,
      "youth": 8217,
      "acre": 8218,
      "emiss": 8219,
      "proceed": 8220,
      "rank": 8221,
      "bibl": 8222,
      "Engine": 8223,
      "recognition": 8224,
      "criticism": 8225,
      "universal": 8226,
      "Nazi": 8227,
      "velocity": 8228,
      "cricketer": 8229,
      "Cer": 8230,
      "Rah": 8231,
      "nal": 8232,
      "zen": 8233,
      "astrol": 8234,
      "ensional": 8235,
      "supposed": 8236,
      "Works": 8237,
      "representing": 8238,
      "Medal": 8239,
      "nickn": 8240,
      "percentage": 8241,
      "Defense": 8242,
      "Achilles": 8243,
      "Scient": 8244,
      "file": 8245,
      "gger": 8246,
      "winners": 8247,
      "revers": 8248,
      "sections": 8249,
      "config": 8250,
      "emen": 8251,
      "Station": 8252,
      "Unlike": 8253,
      "offers": 8254,
      "loy": 8255,
      "Once": 8256,
      "originated": 8257,
      "designer": 8258,
      "Christie": 8259,
      "Corn": 8260,
      "Business": 8261,
      "intellectual": 8262,
      "egg": 8263,
      "none": 8264,
      "want": 8265,
      "recept": 8266,
      "aman": 8267,
      "ritual": 8268,
      "worn": 8269,
      "boron": 8270,
      "runner": 8271,
      "morph": 8272,
      "Operation": 8273,
      "iazep": 8274,
      "Capp": 8275,
      "FI": 8276,
      "Ren": 8277,
      "Syn": 8278,
      "uncertain": 8279,
      "ongo": 8280,
      "asser": 8281,
      "affil": 8282,
      "Spino": 8283,
      "reduction": 8284,
      "Hu": 8285,
      "eu": 8286,
      "ining": 8287,
      "advent": 8288,
      "signs": 8289,
      "Switzer": 8290,
      "behavi": 8291,
      "prisoners": 8292,
      "Bud": 8293,
      "Every": 8294,
      "Liter": 8295,
      "Ron": 8296,
      "Sox": 8297,
      "fest": 8298,
      "iency": 8299,
      "tt": 8300,
      "walk": 8301,
      "asure": 8302,
      "mental": 8303,
      "representation": 8304,
      "trait": 8305,
      "keeping": 8306,
      "Boliv": 8307,
      "Control": 8308,
      "Arizona": 8309,
      "Switzerland": 8310,
      "Hun": 8311,
      "Rol": 8312,
      "RAM": 8313,
      "wick": 8314,
      "chron": 8315,
      "proportion": 8316,
      "manner": 8317,
      "posure": 8318,
      "Spir": 8319,
      "brothers": 8320,
      "researchers": 8321,
      "emitic": 8322,
      "opportunity": 8323,
      "Digital": 8324,
      "Lan": 8325,
      "Lar": 8326,
      "ube": 8327,
      "isers": 8328,
      "aga": 8329,
      "aber": 8330,
      "poll": 8331,
      "Spider": 8332,
      "appeal": 8333,
      "1920s": 8334,
      "resolution": 8335,
      "%),": 8336,
      "oh": 8337,
      "aced": 8338,
      "defic": 8339,
      "hisatt": 8340,
      "shop": 8341,
      "Stadium": 8342,
      "activist": 8343,
      "acceler": 8344,
      "Olympic": 8345,
      "Croat": 8346,
      "expedition": 8347,
      "Kir": 8348,
      "Low": 8349,
      "Na": 8350,
      "males": 8351,
      "noun": 8352,
      "server": 8353,
      "engaged": 8354,
      "iversary": 8355,
      "Leon": 8356,
      "districts": 8357,
      "14th": 8358,
      "Pho": 8359,
      "solved": 8360,
      "1904": 8361,
      "statue": 8362,
      "physician": 8363,
      "promoted": 8364,
      "Natural": 8365,
      "Frederick": 8366,
      "Fresnel": 8367,
      "Fal": 8368,
      "Oct": 8369,
      "barr": 8370,
      "eign": 8371,
      "icial": 8372,
      "emot": 8373,
      "ciation": 8374,
      "seconds": 8375,
      "armour": 8376,
      "Allen": 8377,
      "Guard": 8378,
      "Spec": 8379,
      "Philipp": 8380,
      "mountains": 8381,
      "Romans": 8382,
      "sample": 8383,
      "Ga": 8384,
      "bones": 8385,
      "ask": 8386,
      "agen": 8387,
      "therapy": 8388,
      "signif": 8389,
      "grees": 8390,
      "Burk": 8391,
      "novels": 8392,
      "electronic": 8393,
      "noble": 8394,
      "Hitch": 8395,
      "Non": 8396,
      "gel": 8397,
      "oon": 8398,
      "abor": 8399,
      "twelve": 8400,
      "overty": 8401,
      "foundation": 8402,
      "warm": 8403,
      "Show": 8404,
      "headed": 8405,
      "changing": 8406,
      "collected": 8407,
      "AFL": 8408,
      "learned": 8409,
      "institution": 8410,
      "ROM": 8411,
      "Spinoza": 8412,
      "Die": 8413,
      "Field": 8414,
      "Oh": 8415,
      "Rab": 8416,
      "Slav": 8417,
      "lad": 8418,
      "chart": 8419,
      "Instead": 8420,
      "understand": 8421,
      "Prin": 8422,
      "refuge": 8423,
      "1906": 8424,
      "coastal": 8425,
      "Federation": 8426,
      "Commonwealth": 8427,
      "forests": 8428,
      "amounts": 8429,
      "bil": 8430,
      "reactions": 8431,
      "recru": 8432,
      "ripp": 8433,
      "ource": 8434,
      "boat": 8435,
      "argues": 8436,
      "extension": 8437,
      "driven": 8438,
      "factory": 8439,
      "1909": 8440,
      "Labour": 8441,
      "chapter": 8442,
      "substantial": 8443,
      "substance": 8444,
      "Det": 8445,
      "aes": 8446,
      "tanks": 8447,
      "your": 8448,
      "tomb": 8449,
      "verb": 8450,
      "compass": 8451,
      "phal": 8452,
      "ologists": 8453,
      "announ": 8454,
      "inson": 8455,
      "serves": 8456,
      "restaur": 8457,
      "ASC": 8458,
      "painting": 8459,
      "controversial": 8460,
      "Jeff": 8461,
      "phrase": 8462,
      "Catal": 8463,
      "sight": 8464,
      "wr": 8465,
      "arose": 8466,
      "outer": 8467,
      "legitim": 8468,
      "request": 8469,
      "bane": 8470,
      "musician": 8471,
      "Barbad": 8472,
      "explain": 8473,
      "membership": 8474,
      "Mormon": 8475,
      "Defence": 8476,
      "benefit": 8477,
      "hypothesis": 8478,
      "Hollywood": 8479,
      "geometry": 8480,
      "Hugh": 8481,
      "Marg": 8482,
      "Rav": 8483,
      "iat": 8484,
      "jour": 8485,
      "sulf": 8486,
      "uz": 8487,
      "varies": 8488,
      "thal": 8489,
      "partner": 8490,
      "scar": 8491,
      "scop": 8492,
      "Media": 8493,
      "reputation": 8494,
      "Cat": 8495,
      "Cros": 8496,
      "Domin": 8497,
      "Fas": 8498,
      "vant": 8499,
      "yle": 8500,
      "cha": 8501,
      "amer": 8502,
      "shif": 8503,
      "warfare": 8504,
      "Harvard": 8505,
      "Members": 8506,
      "arranged": 8507,
      "DSM": 8508,
      "symmet": 8509,
      "800": 8510,
      "cort": 8511,
      "routes": 8512,
      "degrees": 8513,
      "shar": 8514,
      "grown": 8515,
      "spot": 8516,
      "captain": 8517,
      "skill": 8518,
      "indicated": 8519,
      "purchased": 8520,
      "abortion": 8521,
      "mounted": 8522,
      "Rights": 8523,
      "Saf": 8524,
      "ented": 8525,
      "plague": 8526,
      "variation": 8527,
      "Romanian": 8528,
      "returning": 8529,
      "absence": 8530,
      "poetry": 8531,
      "criticized": 8532,
      "promote": 8533,
      "episodes": 8534,
      "looking": 8535,
      "Anthony": 8536,
      "random": 8537,
      "Tony": 8538,
      "fal": 8539,
      "Bris": 8540,
      "variations": 8541,
      "criminal": 8542,
      "ancest": 8543,
      "Balkan": 8544,
      "Aur": 8545,
      "Gates": 8546,
      "cen": 8547,
      "pit": 8548,
      "accompl": 8549,
      "bling": 8550,
      "cession": 8551,
      "opera": 8552,
      "broken": 8553,
      "chester": 8554,
      "strip": 8555,
      "manufacturing": 8556,
      "powered": 8557,
      "BNP": 8558,
      "Tennes": 8559,
      "Baghd": 8560,
      "Chem": 8561,
      "Dom": 8562,
      "Front": 8563,
      "dress": 8564,
      "ji": 8565,
      "wrest": 8566,
      "intern": 8567,
      "oty": 8568,
      "dual": 8569,
      "phil": 8570,
      "Arsen": 8571,
      "corn": 8572,
      "column": 8573,
      "aneous": 8574,
      "Mean": 8575,
      "beta": 8576,
      "interpreted": 8577,
      "Bach": 8578,
      "Cu": 8579,
      "Eston": 8580,
      "Harr": 8581,
      "hang": 8582,
      "eries": 8583,
      "retained": 8584,
      "iso": 8585,
      "otes": 8586,
      "pled": 8587,
      "1902": 8588,
      "alkali": 8589,
      "Method": 8590,
      "soul": 8591,
      "width": 8592,
      "markets": 8593,
      "machines": 8594,
      "regularly": 8595,
      "nucleus": 8596,
      "passenger": 8597,
      "Late": 8598,
      "Niger": 8599,
      "Pu": 8600,
      "Six": 8601,
      "fur": 8602,
      "wart": 8603,
      "winner": 8604,
      "esh": 8605,
      "entit": 8606,
      "olas": 8607,
      "chip": 8608,
      "classic": 8609,
      "appearances": 8610,
      "presidential": 8611,
      "constitu": 8612,
      "citizen": 8613,
      "occasionally": 8614,
      "Stock": 8615,
      "appropriate": 8616,
      "thedral": 8617,
      "Nev": 8618,
      "Tun": 8619,
      "rural": 8620,
      "vul": 8621,
      "replace": 8622,
      "enburg": 8623,
      "Enter": 8624,
      "domain": 8625,
      "Advent": 8626,
      "mechanical": 8627,
      "Tennessee": 8628,
      "Get": 8629,
      "Hip": 8630,
      "Job": 8631,
      "las": 8632,
      "altit": 8633,
      "stating": 8634,
      "stances": 8635,
      "chose": 8636,
      "amateur": 8637,
      "abbrevi": 8638,
      "excess": 8639,
      "curve": 8640,
      "Belize": 8641,
      "sixth": 8642,
      "costs": 8643,
      "mixture": 8644,
      "establishments": 8645,
      "Baku": 8646,
      "electrical": 8647,
      "huge": 8648,
      "Wayne": 8649,
      "ceremony": 8650,
      "tropical": 8651,
      "Kal": 8652,
      "hill": 8653,
      "thy": 8654,
      "thin": 8655,
      "renew": 8656,
      "atab": 8657,
      "idd": 8658,
      "upun": 8659,
      "icance": 8660,
      "intent": 8661,
      "identical": 8662,
      "solutions": 8663,
      "11th": 8664,
      "heads": 8665,
      "1907": 8666,
      "investment": 8667,
      "rotation": 8668,
      "diseases": 8669,
      "Current": 8670,
      "Network": 8671,
      "Mountains": 8672,
      "zodiazep": 8673,
      "ocean": 8674,
      "index": 8675,
      "ili": 8676,
      "adj": 8677,
      "neo": 8678,
      "functional": 8679,
      "concerned": 8680,
      "tourism": 8681,
      "promise": 8682,
      "universities": 8683,
      "Bavaria": 8684,
      "Jacob": 8685,
      "Belf": 8686,
      "Lith": 8687,
      "Ros": 8688,
      "bicy": 8689,
      "ão": 8690,
      "acles": 8691,
      "chronic": 8692,
      "pros": 8693,
      "trig": 8694,
      "moves": 8695,
      "glas": 8696,
      "interior": 8697,
      "scape": 8698,
      "uble": 8699,
      "Therefore": 8700,
      "antibiotics": 8701,
      "consumption": 8702,
      "opponent": 8703,
      "1000": 8704,
      "nership": 8705,
      "pup": 8706,
      "theastern": 8707,
      "adic": 8708,
      "squad": 8709,
      "Furthermore": 8710,
      "dimensional": 8711,
      "ammonia": 8712,
      "Cape": 8713,
      "Fair": 8714,
      "Tan": 8715,
      "ais": 8716,
      "advis": 8717,
      "arrival": 8718,
      "Trad": 8719,
      "referring": 8720,
      "albums": 8721,
      "prompt": 8722,
      "secure": 8723,
      "neutral": 8724,
      "Crowley": 8725,
      "Gordon": 8726,
      "Hitchcock": 8727,
      "ASCII": 8728,
      "Nich": 8729,
      "reality": 8730,
      "rose": 8731,
      "department": 8732,
      "offensive": 8733,
      "About": 8734,
      "Barn": 8735,
      "claiming": 8736,
      "Direct": 8737,
      "crops": 8738,
      "strategic": 8739,
      "Spirit": 8740,
      "(;": 8741,
      "Crown": 8742,
      "EE": 8743,
      "Py": 8744,
      "Pot": 8745,
      "oo": 8746,
      "commem": 8747,
      "Prote": 8748,
      "Minor": 8749,
      "sacr": 8750,
      "neighbour": 8751,
      "Algeria": 8752,
      "minimum": 8753,
      "Pierre": 8754,
      "Belfast": 8755,
      "Dick": 8756,
      "Has": 8757,
      "Sav": 8758,
      "pick": 8759,
      "send": 8760,
      "resembl": 8761,
      "bled": 8762,
      "relief": 8763,
      "distinction": 8764,
      "breaking": 8765,
      "closer": 8766,
      "contributions": 8767,
      "observations": 8768,
      "photograph": 8769,
      "Hou": 8770,
      "Lie": 8771,
      "Tay": 8772,
      "cros": 8773,
      "kid": 8774,
      "reli": 8775,
      "trust": 8776,
      "performing": 8777,
      "oked": 8778,
      "Whit": 8779,
      "clean": 8780,
      "characteristic": 8781,
      "Agripp": 8782,
      "Karl": 8783,
      "exactly": 8784,
      "Political": 8785,
      "playwright": 8786,
      "Brisbane": 8787,
      "Lov": 8788,
      "Sign": 8789,
      "Tar": 8790,
      "bic": 8791,
      "pseud": 8792,
      "exposure": 8793,
      "intention": 8794,
      "Ass": 8795,
      "carriers": 8796,
      "aurus": 8797,
      "affairs": 8798,
      "femin": 8799,
      "funding": 8800,
      "judge": 8801,
      "Goldwater": 8802,
      "orbital": 8803,
      "concepts": 8804,
      "Family": 8805,
      "compatible": 8806,
      "Nevertheless": 8807,
      "83": 8808,
      "Rena": 8809,
      "stages": 8810,
      "Indo": 8811,
      "compil": 8812,
      "Environment": 8813,
      "radical": 8814,
      "finding": 8815,
      "losses": 8816,
      "concentrated": 8817,
      "documentary": 8818,
      "tells": 8819,
      "manuscript": 8820,
      "franchise": 8821,
      "Caesar": 8822,
      "700": 8823,
      "Ay": 8824,
      "Jord": 8825,
      "Mult": 8826,
      "Vill": 8827,
      "approval": 8828,
      "export": 8829,
      "aug": 8830,
      "pool": 8831,
      "colors": 8832,
      "Conference": 8833,
      "specim": 8834,
      "Ada": 8835,
      "Phill": 8836,
      "enegger": 8837,
      "holid": 8838,
      "ictionary": 8839,
      "relationships": 8840,
      "wheel": 8841,
      "molecular": 8842,
      "demonstrated": 8843,
      "Douglas": 8844,
      "Aege": 8845,
      "controversy": 8846,
      "conquered": 8847,
      "Schwarzenegger": 8848,
      "acknowled": 8849,
      "eat": 8850,
      "ingly": 8851,
      "lets": 8852,
      "adi": 8853,
      "suff": 8854,
      "shift": 8855,
      "compress": 8856,
      "Allied": 8857,
      "posit": 8858,
      "begun": 8859,
      "cyclop": 8860,
      "committee": 8861,
      "hetamine": 8862,
      "patterns": 8863,
      "Baháʼí": 8864,
      "Night": 8865,
      "diet": 8866,
      "illin": 8867,
      "shut": 8868,
      "prices": 8869,
      "partial": 8870,
      "limits": 8871,
      "Earl": 8872,
      "auri": 8873,
      "philosophical": 8874,
      "bonds": 8875,
      "voted": 8876,
      "exec": 8877,
      "assistance": 8878,
      "variants": 8879,
      "pronounced": 8880,
      "Serbia": 8881,
      "Burkina": 8882,
      "Bry": 8883,
      "Light": 8884,
      "ensu": 8885,
      "orter": 8886,
      "orches": 8887,
      "prise": 8888,
      "Arabs": 8889,
      "experimental": 8890,
      "ranging": 8891,
      "Renaissance": 8892,
      "Cir": 8893,
      "ez": 8894,
      "vit": 8895,
      "ott": 8896,
      "Anim": 8897,
      "Security": 8898,
      "arsenic": 8899,
      "Grant": 8900,
      "logic": 8901,
      "spectrum": 8902,
      "Global": 8903,
      "message": 8904,
      "Bab": 8905,
      "Hand": 8906,
      "Hind": 8907,
      "brom": 8908,
      "jug": 8909,
      "nie": 8910,
      "nanda": 8911,
      "ager": 8912,
      "comedy": 8913,
      "pregn": 8914,
      "genre": 8915,
      "brick": 8916,
      "anything": 8917,
      "interface": 8918,
      "initi": 8919,
      "Israeli": 8920,
      "Zeus": 8921,
      "Simon": 8922,
      "restricted": 8923,
      "bankrupt": 8924,
      "emitism": 8925,
      "commissioned": 8926,
      "BIOS": 8927,
      "Ker": 8928,
      "ju": 8929,
      "poverty": 8930,
      "Ānanda": 8931,
      "administer": 8932,
      "constell": 8933,
      "Init": 8934,
      "cloth": 8935,
      "gros": 8936,
      "minute": 8937,
      "calling": 8938,
      "passage": 8939,
      "professor": 8940,
      "indicates": 8941,
      "charges": 8942,
      "collapse": 8943,
      "96": 8944,
      "Ku": 8945,
      "Sem": 8946,
      "rhy": 8947,
      "atus": 8948,
      "resid": 8949,
      "estate": 8950,
      "artificial": 8951,
      "rika": 8952,
      "astro": 8953,
      "predominant": 8954,
      "scored": 8955,
      "scenes": 8956,
      "substit": 8957,
      "valley": 8958,
      "fraction": 8959,
      "cultiv": 8960,
      "stored": 8961,
      "executed": 8962,
      "isolated": 8963,
      "Culture": 8964,
      "Sher": 8965,
      "gall": 8966,
      "wire": 8967,
      "tole": 8968,
      "aked": 8969,
      "Stone": 8970,
      "flood": 8971,
      "airline": 8972,
      "themes": 8973,
      "Convention": 8974,
      "cription": 8975,
      "enny": 8976,
      "commanded": 8977,
      "Atlas": 8978,
      "complexity": 8979,
      "Southeast": 8980,
      "implemented": 8981,
      "Agric": 8982,
      "CC": 8983,
      "Fall": 8984,
      "bay": 8985,
      "enh": 8986,
      "imore": 8987,
      "unlike": 8988,
      "appre": 8989,
      "complic": 8990,
      "beryl": 8991,
      "Arn": 8992,
      "Work": 8993,
      "signals": 8994,
      "interests": 8995,
      "debt": 8996,
      "housing": 8997,
      "hundreds": 8998,
      "descendants": 8999,
      "Yankees": 9000,
      "Us": 9001,
      "Upon": 9002,
      "iotic": 9003,
      "arter": 9004,
      "acet": 9005,
      "abund": 9006,
      "aret": 9007,
      "iant": 9008,
      "notation": 9009,
      "polyn": 9010,
      "animation": 9011,
      "distributed": 9012,
      "suitable": 9013,
      "Years": 9014,
      "Contin": 9015,
      "algorithms": 9016,
      "Television": 9017,
      "portrayed": 9018,
      "significance": 9019,
      "Bé": 9020,
      "Hard": 9021,
      "bought": 9022,
      "cattle": 9023,
      "faster": 9024,
      "tissue": 9025,
      "unless": 9026,
      "Altern": 9027,
      "airport": 9028,
      "Norwe": 9029,
      "oxide": 9030,
      "clearly": 9031,
      "logical": 9032,
      "vertical": 9033,
      "employees": 9034,
      "probability": 9035,
      "propag": 9036,
      "Baham": 9037,
      "adaptation": 9038,
      "narrative": 9039,
      "Faso": 9040,
      "Bou": 9041,
      "Fred": 9042,
      "Hans": 9043,
      "Kel": 9044,
      "edited": 9045,
      "alliance": 9046,
      "spin": 9047,
      "mineral": 9048,
      "annually": 9049,
      "visitors": 9050,
      "borders": 9051,
      "simult": 9052,
      "receiving": 9053,
      "store": 9054,
      "Harry": 9055,
      "truth": 9056,
      "nitrogen": 9057,
      "spoke": 9058,
      "mechanism": 9059,
      "sovereign": 9060,
      "Baltimore": 9061,
      "entitled": 9062,
      "Astr": 9063,
      "lists": 9064,
      "mers": 9065,
      "reh": 9066,
      "toler": 9067,
      "lyrics": 9068,
      "resident": 9069,
      "balls": 9070,
      "insur": 9071,
      "supporters": 9072,
      "struck": 9073,
      "Ambro": 9074,
      "trying": 9075,
      "antiqu": 9076,
      "doub": 9077,
      "soft": 9078,
      "liberal": 9079,
      "9th": 9080,
      "Bear": 9081,
      "Cry": 9082,
      "Lady": 9083,
      "inspir": 9084,
      "idel": 9085,
      "Arc": 9086,
      "oven": 9087,
      "cripts": 9088,
      "publicly": 9089,
      "radar": 9090,
      "explor": 9091,
      "justice": 9092,
      "offering": 9093,
      "mediate": 9094,
      "females": 9095,
      "performances": 9096,
      "pitcher": 9097,
      "Finland": 9098,
      "task": 9099,
      "Official": 9100,
      "Rahman": 9101,
      "Around": 9102,
      "MA": 9103,
      "OR": 9104,
      "itic": 9105,
      "rout": 9106,
      "elite": 9107,
      "emic": 9108,
      "exposed": 9109,
      "boot": 9110,
      "poison": 9111,
      "awards": 9112,
      "genes": 9113,
      "visions": 9114,
      "Baroque": 9115,
      "Gram": 9116,
      "subjects": 9117,
      "bipolar": 9118,
      "vessels": 9119,
      "Phoen": 9120,
      "upuncture": 9121,
      "Hz": 9122,
      "Rud": 9123,
      "Set": 9124,
      "catch": 9125,
      "flying": 9126,
      "hits": 9127,
      "yellow": 9128,
      "illy": 9129,
      "porter": 9130,
      "guil": 9131,
      "divine": 9132,
      "questions": 9133,
      "concern": 9134,
      "collections": 9135,
      "ruption": 9136,
      "candidates": 9137,
      "Aarhus": 9138,
      "installed": 9139,
      "Here": 9140,
      "Kur": 9141,
      "Mugh": 9142,
      "Now": 9143,
      "bits": 9144,
      "tren": 9145,
      "acent": 9146,
      "seus": 9147,
      "deck": 9148,
      "plural": 9149,
      "Blues": 9150,
      "legacy": 9151,
      "governments": 9152,
      "establishing": 9153,
      "Heritage": 9154,
      "defence": 9155,
      "Again": 9156,
      "Donald": 9157,
      "Vienna": 9158,
      "binding": 9159,
      "Norwegian": 9160,
      "Bun": 9161,
      "bag": 9162,
      "lob": 9163,
      "wars": 9164,
      "tolic": 9165,
      "isted": 9166,
      "allies": 9167,
      "contest": 9168,
      "Encyclop": 9169,
      "describing": 9170,
      "lasted": 9171,
      "connections": 9172,
      "umni": 9173,
      "samples": 9174,
      "Robin": 9175,
      "sleep": 9176,
      "93": 9177,
      "Bart": 9178,
      "Dy": 9179,
      "Fish": 9180,
      "IP": 9181,
      "Kuro": 9182,
      "NS": 9183,
      "Orange": 9184,
      "pin": 9185,
      "theolog": 9186,
      "atically": 9187,
      "odies": 9188,
      "merged": 9189,
      "compreh": 9190,
      "trading": 9191,
      "casual": 9192,
      "buses": 9193,
      "denied": 9194,
      "patri": 9195,
      "integrated": 9196,
      "implementation": 9197,
      "Similarly": 9198,
      "Bishop": 9199,
      "Palestine": 9200,
      "subsid": 9201,
      "Gil": 9202,
      "Ten": 9203,
      "fat": 9204,
      "rear": 9205,
      "impossible": 9206,
      "assess": 9207,
      "transmission": 9208,
      "influences": 9209,
      "Syria": 9210,
      "estimates": 9211,
      "Laure": 9212,
      "requirements": 9213,
      "Austro": 9214,
      "cott": 9215,
      "accurate": 9216,
      "Ety": 9217,
      "Had": 9218,
      "Last": 9219,
      "Mi": 9220,
      "Spart": 9221,
      "covers": 9222,
      "sop": 9223,
      "salt": 9224,
      "Independence": 9225,
      "illness": 9226,
      "mining": 9227,
      "anniversary": 9228,
      "drama": 9229,
      "longest": 9230,
      "Trade": 9231,
      "Agassi": 9232,
      "educational": 9233,
      "easy": 9234,
      "astronomy": 9235,
      "detailed": 9236,
      "767": 9237,
      "Bede": 9238,
      "Food": 9239,
      "cub": 9240,
      "rin": 9241,
      "siege": 9242,
      "continuing": 9243,
      "circle": 9244,
      "graduate": 9245,
      "votes": 9246,
      "transportation": 9247,
      "Mission": 9248,
      "discussed": 9249,
      "Review": 9250,
      "passengers": 9251,
      "Ukraine": 9252,
      "replacement": 9253,
      "arrested": 9254,
      "infrastructure": 9255,
      "Baghdad": 9256,
      "Say": 9257,
      "Sab": 9258,
      "si": 9259,
      "stad": 9260,
      "actin": 9261,
      "phosph": 9262,
      "prede": 9263,
      "desire": 9264,
      "conscious": 9265,
      "Brun": 9266,
      "drinking": 9267,
      "1600": 9268,
      "Andor": 9269,
      "1895": 9270,
      "representative": 9271,
      "conductor": 9272,
      "emphasis": 9273,
      "Korea": 9274,
      "Ibn": 9275,
      "Bomb": 9276,
      "Nik": 9277,
      "Slov": 9278,
      "diver": 9279,
      "onne": 9280,
      "unusual": 9281,
      "ava": 9282,
      "trained": 9283,
      "idepress": 9284,
      "retreat": 9285,
      "Prayer": 9286,
      "Anderson": 9287,
      "apply": 9288,
      "iveness": 9289,
      "Acts": 9290,
      "AIM": 9291,
      "immediate": 9292,
      "briefly": 9293,
      "97": 9294,
      "BDSM": 9295,
      "Kings": 9296,
      "Naval": 9297,
      "ozo": 9298,
      "rations": 9299,
      "anthem": 9300,
      "elian": 9301,
      "unk": 9302,
      "apped": 9303,
      "partially": 9304,
      "meat": 9305,
      "Braves": 9306,
      "Warner": 9307,
      "operational": 9308,
      "caster": 9309,
      "structural": 9310,
      "rises": 9311,
      "networks": 9312,
      "graphy": 9313,
      "integer": 9314,
      "difficulty": 9315,
      "Captain": 9316,
      "Bonds": 9317,
      "bourne": 9318,
      "Ethiop": 9319,
      "Province": 9320,
      "immigrants": 9321,
      "Philippines": 9322,
      "predecess": 9323,
      "Call": 9324,
      "Ka": 9325,
      "Rose": 9326,
      "Winter": 9327,
      "oys": 9328,
      "uations": 9329,
      "theor": 9330,
      "encing": 9331,
      "acing": 9332,
      "dismiss": 9333,
      "offices": 9334,
      "lose": 9335,
      "ennium": 9336,
      "tested": 9337,
      "define": 9338,
      "defensive": 9339,
      "Week": 9340,
      "2000s": 9341,
      "scriptions": 9342,
      "beliefs": 9343,
      "picture": 9344,
      "circuit": 9345,
      "Father": 9346,
      "Ptole": 9347,
      "ream": 9348,
      "spar": 9349,
      "brig": 9350,
      "Author": 9351,
      "persu": 9352,
      "depends": 9353,
      "Barry": 9354,
      "accum": 9355,
      "Within": 9356,
      "racial": 9357,
      "drawing": 9358,
      "Films": 9359,
      "Juda": 9360,
      "dispute": 9361,
      "Square": 9362,
      "negoti": 9363,
      "rebellion": 9364,
      "vertebr": 9365,
      "satellite": 9366,
      "Freedom": 9367,
      "cous": 9368,
      "mamm": 9369,
      "waves": 9370,
      "seed": 9371,
      "consecut": 9372,
      "aph": 9373,
      "plas": 9374,
      "suicide": 9375,
      "rik": 9376,
      "hyper": 9377,
      "Comple": 9378,
      "Medic": 9379,
      "responsibility": 9380,
      "clinical": 9381,
      "Crosby": 9382,
      "?\"": 9383,
      "Cave": 9384,
      "Pur": 9385,
      "ien": 9386,
      "wine": 9387,
      "wings": 9388,
      "witness": 9389,
      "theatre": 9390,
      "deem": 9391,
      "waste": 9392,
      "eme": 9393,
      "clock": 9394,
      "sod": 9395,
      "mentions": 9396,
      "ensis": 9397,
      "heritage": 9398,
      "Former": 9399,
      "retire": 9400,
      "Neo": 9401,
      "animated": 9402,
      "grounds": 9403,
      "labour": 9404,
      "sawa": 9405,
      "steps": 9406,
      "Murray": 9407,
      "Economic": 9408,
      "wounded": 9409,
      "Tradition": 9410,
      "pus": 9411,
      "yah": 9412,
      "tow": 9413,
      "etary": 9414,
      "aven": 9415,
      "tries": 9416,
      "nostic": 9417,
      "borrow": 9418,
      "ikh": 9419,
      "ruling": 9420,
      "shares": 9421,
      "Summer": 9422,
      "encouraged": 9423,
      "recommended": 9424,
      "Windows": 9425,
      "exclusively": 9426,
      "Kennedy": 9427,
      "Barbados": 9428,
      "Kurosawa": 9429,
      "87": 9430,
      "Mars": 9431,
      "Santa": 9432,
      "bio": 9433,
      "sburg": 9434,
      "vous": 9435,
      "essay": 9436,
      "prev": 9437,
      "grave": 9438,
      "argu": 9439,
      "arius": 9440,
      "10th": 9441,
      "250": 9442,
      "holes": 9443,
      "logo": 9444,
      "Michigan": 9445,
      "predict": 9446,
      "vowels": 9447,
      "Mitc": 9448,
      "opinion": 9449,
      "H2": 9450,
      "Video": 9451,
      "adjust": 9452,
      "trip": 9453,
      "gender": 9454,
      "singles": 9455,
      "cribed": 9456,
      "specified": 9457,
      "openhau": 9458,
      "seek": 9459,
      "Medical": 9460,
      "stood": 9461,
      "Design": 9462,
      "survive": 9463,
      "teacher": 9464,
      "injury": 9465,
      "Railway": 9466,
      "varying": 9467,
      "Area": 9468,
      "EP": 9469,
      "Gib": 9470,
      "Gins": 9471,
      "gone": 9472,
      "itis": 9473,
      "adults": 9474,
      "ceased": 9475,
      "avia": 9476,
      "neck": 9477,
      "consult": 9478,
      "Ammon": 9479,
      "arring": 9480,
      "Schopenhau": 9481,
      "onomous": 9482,
      "frequent": 9483,
      "resistant": 9484,
      "Massoud": 9485,
      "surrounded": 9486,
      "apparently": 9487,
      "Saxon": 9488,
      "ABBA": 9489,
      "Ltd": 9490,
      "membrane": 9491,
      "92": 9492,
      "EM": 9493,
      "Prem": 9494,
      "Wes": 9495,
      "cable": 9496,
      "mate": 9497,
      "mont": 9498,
      "breast": 9499,
      "armoured": 9500,
      "naturally": 9501,
      "Region": 9502,
      "minority": 9503,
      "Moscow": 9504,
      "palace": 9505,
      "categories": 9506,
      "Philosophy": 9507,
      "Cab": 9508,
      "Master": 9509,
      "Pit": 9510,
      "bach": 9511,
      "knew": 9512,
      "ras": 9513,
      "vs": 9514,
      "asius": 9515,
      "urs": 9516,
      "planning": 9517,
      "Anal": 9518,
      "Report": 9519,
      "Box": 9520,
      "generate": 9521,
      "followers": 9522,
      "Marine": 9523,
      "Centauri": 9524,
      "Anti": 9525,
      "scientist": 9526,
      "pianist": 9527,
      "tournament": 9528,
      "adjacent": 9529,
      "Ambrose": 9530,
      "Diam": 9531,
      "EU": 9532,
      "bac": 9533,
      "fo": 9534,
      "uv": 9535,
      "olis": 9536,
      "ersion": 9537,
      "aggress": 9538,
      "artistic": 9539,
      "uding": 9540,
      "keys": 9541,
      "ensed": 9542,
      "veter": 9543,
      "1899": 9544,
      "industries": 9545,
      "ethics": 9546,
      "Notable": 9547,
      "Capital": 9548,
      "participated": 9549,
      "discussion": 9550,
      "biggest": 9551,
      "purchase": 9552,
      "Gregory": 9553,
      "Sud": 9554,
      "cm": 9555,
      "gang": 9556,
      "kara": 9557,
      "thyl": 9558,
      "ania": 9559,
      "retr": 9560,
      "esp": 9561,
      "ication": 9562,
      "conference": 9563,
      "condem": 9564,
      "mentary": 9565,
      "raz": 9566,
      "kee": 9567,
      "supplies": 9568,
      "memo": 9569,
      "1898": 9570,
      "telephone": 9571,
      "Mathem": 9572,
      "campaigns": 9573,
      "Pascal": 9574,
      "Anatolia": 9575,
      "Lithuan": 9576,
      "Schopenhauer": 9577,
      ";\"": 9578,
      "Eric": 9579,
      "FM": 9580,
      "RA": 9581,
      "Sus": 9582,
      "bol": 9583,
      "irot": 9584,
      "really": 9585,
      "pharm": 9586,
      "span": 9587,
      "Represent": 9588,
      "stands": 9589,
      "Abbey": 9590,
      "tempor": 9591,
      "denomin": 9592,
      "copal": 9593,
      "cruisers": 9594,
      "credit": 9595,
      "Iranian": 9596,
      "neighborhood": 9597,
      "Avenue": 9598,
      "Fund": 9599,
      "Sac": 9600,
      "uable": 9601,
      "vacc": 9602,
      "theology": 9603,
      "stability": 9604,
      "ulating": 9605,
      "displayed": 9606,
      "disorders": 9607,
      "intens": 9608,
      "kness": 9609,
      "Afonso": 9610,
      "Chris": 9611,
      "backs": 9612,
      "aneously": 9613,
      "recip": 9614,
      "separation": 9615,
      "penet": 9616,
      "cule": 9617,
      "Born": 9618,
      "suffering": 9619,
      "legislation": 9620,
      "manufacturer": 9621,
      "false": 9622,
      "Gas": 9623,
      "Jane": 9624,
      "Jacqu": 9625,
      "Log": 9626,
      "Wild": 9627,
      "furn": 9628,
      "tet": 9629,
      "inals": 9630,
      "recon": 9631,
      "revenue": 9632,
      "icillin": 9633,
      "prayer": 9634,
      "precip": 9635,
      "volcan": 9636,
      "statements": 9637,
      "wider": 9638,
      "approaches": 9639,
      "distinguish": 9640,
      "anchor": 9641,
      "Motor": 9642,
      "Return": 9643,
      "Hitler": 9644,
      "Ginsberg": 9645,
      "Much": 9646,
      "anime": 9647,
      "erals": 9648,
      "util": 9649,
      "merely": 9650,
      "loop": 9651,
      "singular": 9652,
      "Beat": 9653,
      "patron": 9654,
      "convention": 9655,
      "//": 9656,
      "Sic": 9657,
      "nus": 9658,
      "ía": 9659,
      "leaf": 9660,
      "amar": 9661,
      "etics": 9662,
      "essentially": 9663,
      "arium": 9664,
      "investigation": 9665,
      "Moses": 9666,
      "slowly": 9667,
      "circumstances": 9668,
      "elsewhere": 9669,
      "Athan": 9670,
      "Burn": 9671,
      "Da": 9672,
      "Ko": 9673,
      "Sak": 9674,
      "aque": 9675,
      "cant": 9676,
      "wel": 9677,
      "isa": 9678,
      "aments": 9679,
      "emig": 9680,
      "societies": 9681,
      "breeding": 9682,
      "programme": 9683,
      "Poly": 9684,
      "computing": 9685,
      "Peninsula": 9686,
      "deployed": 9687,
      "Citations": 9688,
      "Meanwhile": 9689,
      "Aegean": 9690,
      "consecutive": 9691,
      "Bast": 9692,
      "Eur": 9693,
      "Semitic": 9694,
      "bore": 9695,
      "gi": 9696,
      "iest": 9697,
      "pages": 9698,
      "cht": 9699,
      "imprison": 9700,
      "dub": 9701,
      "autom": 9702,
      "rance": 9703,
      "colleg": 9704,
      "consent": 9705,
      "anni": 9706,
      "Brad": 9707,
      "transmit": 9708,
      "Norman": 9709,
      "depict": 9710,
      "variables": 9711,
      "bodhisatt": 9712,
      "1896": 9713,
      "Antig": 9714,
      "streets": 9715,
      "voting": 9716,
      "Americas": 9717,
      "Memorial": 9718,
      "Saturn": 9719,
      "distinguished": 9720,
      "Honor": 9721,
      "('": 9722,
      "Fa": 9723,
      "OC": 9724,
      "VA": 9725,
      "rating": 9726,
      "terior": 9727,
      "queen": 9728,
      "prefix": 9729,
      "discover": 9730,
      "anna": 9731,
      "metall": 9732,
      "Berber": 9733,
      "seeing": 9734,
      "Maur": 9735,
      "concert": 9736,
      "concerning": 9737,
      "giant": 9738,
      "hijack": 9739,
      "teenth": 9740,
      "arrangement": 9741,
      "procedure": 9742,
      "Celtic": 9743,
      "commemor": 9744,
      "CM": 9745,
      "Hospital": 9746,
      "Nu": 9747,
      "Pent": 9748,
      "ör": 9749,
      "thick": 9750,
      "inaug": 9751,
      "uled": 9752,
      "thermal": 9753,
      "Aragon": 9754,
      "cancell": 9755,
      "fined": 9756,
      "lins": 9757,
      "depth": 9758,
      "operates": 9759,
      "fewer": 9760,
      "stopped": 9761,
      "bringing": 9762,
      "Ahmad": 9763,
      "championship": 9764,
      "perceived": 9765,
      "Bit": 9766,
      "Lud": 9767,
      "gri": 9768,
[...]
